{
  "version": "1.0",
  "truncation": null,
  "padding": null,
  "added_tokens": [
    {
      "id": 0,
      "content": "<|unk|>",
      "single_word": false,
      "lstrip": false,
      "rstrip": false,
      "normalized": false,
      "special": true
    },
    {
      "id": 1,
      "content": "<|lm|>",
      "single_word": false,
      "lstrip": false,
      "rstrip": false,
      "normalized": false,
      "special": true
    },
    {
      "id": 2,
      "content": "<|hrm|>",
      "single_word": false,
      "lstrip": false,
      "rstrip": false,
      "normalized": false,
      "special": true
    },
    {
      "id": 3,
      "content": "<|sys|>",
      "single_word": false,
      "lstrip": false,
      "rstrip": false,
      "normalized": false,
      "special": true
    },
    {
      "id": 4,
      "content": "<|user|>",
      "single_word": false,
      "lstrip": false,
      "rstrip": false,
      "normalized": false,
      "special": true
    },
    {
      "id": 5,
      "content": "<|asst|>",
      "single_word": false,
      "lstrip": false,
      "rstrip": false,
      "normalized": false,
      "special": true
    },
    {
      "id": 6,
      "content": "<|eos|>",
      "single_word": false,
      "lstrip": false,
      "rstrip": false,
      "normalized": false,
      "special": true
    },
    {
      "id": 7,
      "content": "<|pad|>",
      "single_word": false,
      "lstrip": false,
      "rstrip": false,
      "normalized": false,
      "special": true
    }
  ],
  "normalizer": null,
  "pre_tokenizer": {
    "type": "ByteLevel",
    "add_prefix_space": false,
    "trim_offsets": true,
    "use_regex": true
  },
  "post_processor": null,
  "decoder": {
    "type": "ByteLevel",
    "add_prefix_space": true,
    "trim_offsets": true,
    "use_regex": true
  },
  "model": {
    "type": "BPE",
    "dropout": null,
    "unk_token": "<|unk|>",
    "continuing_subword_prefix": null,
    "end_of_word_suffix": null,
    "fuse_unk": false,
    "byte_fallback": false,
    "ignore_merges": false,
    "vocab": {
      "<|unk|>": 0,
      "<|lm|>": 1,
      "<|hrm|>": 2,
      "<|sys|>": 3,
      "<|user|>": 4,
      "<|asst|>": 5,
      "<|eos|>": 6,
      "<|pad|>": 7,
      "!": 8,
      "\"": 9,
      "#": 10,
      "$": 11,
      "%": 12,
      "&": 13,
      "'": 14,
      "(": 15,
      ")": 16,
      "*": 17,
      "+": 18,
      ",": 19,
      "-": 20,
      ".": 21,
      "/": 22,
      "0": 23,
      "1": 24,
      "2": 25,
      "3": 26,
      "4": 27,
      "5": 28,
      "6": 29,
      "7": 30,
      "8": 31,
      "9": 32,
      ":": 33,
      ";": 34,
      "<": 35,
      "=": 36,
      ">": 37,
      "?": 38,
      "@": 39,
      "A": 40,
      "B": 41,
      "C": 42,
      "D": 43,
      "E": 44,
      "F": 45,
      "G": 46,
      "H": 47,
      "I": 48,
      "J": 49,
      "K": 50,
      "L": 51,
      "M": 52,
      "N": 53,
      "O": 54,
      "P": 55,
      "Q": 56,
      "R": 57,
      "S": 58,
      "T": 59,
      "U": 60,
      "V": 61,
      "W": 62,
      "X": 63,
      "Y": 64,
      "Z": 65,
      "[": 66,
      "\\": 67,
      "]": 68,
      "^": 69,
      "_": 70,
      "`": 71,
      "a": 72,
      "b": 73,
      "c": 74,
      "d": 75,
      "e": 76,
      "f": 77,
      "g": 78,
      "h": 79,
      "i": 80,
      "j": 81,
      "k": 82,
      "l": 83,
      "m": 84,
      "n": 85,
      "o": 86,
      "p": 87,
      "q": 88,
      "r": 89,
      "s": 90,
      "t": 91,
      "u": 92,
      "v": 93,
      "w": 94,
      "x": 95,
      "y": 96,
      "z": 97,
      "{": 98,
      "|": 99,
      "}": 100,
      "~": 101,
      "¡": 102,
      "¢": 103,
      "£": 104,
      "¤": 105,
      "¥": 106,
      "¦": 107,
      "§": 108,
      "¨": 109,
      "©": 110,
      "ª": 111,
      "«": 112,
      "¬": 113,
      "°": 114,
      "±": 115,
      "²": 116,
      "³": 117,
      "´": 118,
      "µ": 119,
      "¶": 120,
      "·": 121,
      "¸": 122,
      "¹": 123,
      "º": 124,
      "»": 125,
      "¼": 126,
      "½": 127,
      "¾": 128,
      "¿": 129,
      "Â": 130,
      "Ã": 131,
      "Ä": 132,
      "Î": 133,
      "Ï": 134,
      "Ð": 135,
      "Ñ": 136,
      "á": 137,
      "â": 138,
      "æ": 139,
      "ï": 140,
      "ð": 141,
      "ā": 142,
      "Ă": 143,
      "Ĉ": 144,
      "ĉ": 145,
      "Ċ": 146,
      "Ġ": 147,
      "Ģ": 148,
      "ģ": 149,
      "Ĥ": 150,
      "ĥ": 151,
      "Ħ": 152,
      "ħ": 153,
      "Ĩ": 154,
      "ĩ": 155,
      "Ī": 156,
      "ī": 157,
      "Ĭ": 158,
      "ĭ": 159,
      "Į": 160,
      "į": 161,
      "İ": 162,
      "ı": 163,
      "Ĳ": 164,
      "ĳ": 165,
      "Ĵ": 166,
      "ĵ": 167,
      "Ķ": 168,
      "ķ": 169,
      "ĸ": 170,
      "Ĺ": 171,
      "ĺ": 172,
      "Ļ": 173,
      "ļ": 174,
      "Ľ": 175,
      "ľ": 176,
      "Ŀ": 177,
      "ŀ": 178,
      "Ł": 179,
      "ł": 180,
      "Ń": 181,
      "ĠĠ": 182,
      "er": 183,
      "in": 184,
      "on": 185,
      "Ġt": 186,
      "re": 187,
      "Ġa": 188,
      "st": 189,
      "at": 190,
      "he": 191,
      "or": 192,
      "ĠĠĠĠ": 193,
      "Ġc": 194,
      "en": 195,
      "it": 196,
      "le": 197,
      "Ġs": 198,
      "**": 199,
      "Ġf": 200,
      "es": 201,
      "al": 202,
      "an": 203,
      "ou": 204,
      "ĠĠĠ": 205,
      "ing": 206,
      "Ġp": 207,
      "``": 208,
      "ion": 209,
      "Ġthe": 210,
      "--": 211,
      "Ġd": 212,
      "is": 213,
      "ro": 214,
      "Ġre": 215,
      "Ġm": 216,
      "ct": 217,
      "us": 218,
      "Ġw": 219,
      "âĶ": 220,
      "ed": 221,
      "as": 222,
      "ar": 223,
      "Ġb": 224,
      "Ġ(": 225,
      "Ġin": 226,
      "ent": 227,
      "Ġ=": 228,
      "th": 229,
      "<|": 230,
      "|>": 231,
      "Ġn": 232,
      "ic": 233,
      "ĊĠĠĠ": 234,
      "âĶĢ": 235,
      "et": 236,
      "âĶĢâĶĢ": 237,
      "lo": 238,
      "Ġto": 239,
      "im": 240,
      "Ġe": 241,
      "Ġâ": 242,
      "nd": 243,
      "ac": 244,
      "```": 245,
      "Ġ|": 246,
      "id": 247,
      "om": 248,
      "ĊĠĠĠĠ": 249,
      "ut": 250,
      "Ġo": 251,
      "ul": 252,
      "il": 253,
      "if": 254,
      "Ġis": 255,
      "am": 256,
      "ad": 257,
      "user": 258,
      "ate": 259,
      "Ġth": 260,
      "ation": 261,
      "Ġh": 262,
      "od": 263,
      "Ġ`": 264,
      "ig": 265,
      "ĠI": 266,
      "Ġst": 267,
      "ur": 268,
      "ver": 269,
      "est": 270,
      "Ġfor": 271,
      "ĠT": 272,
      "ĠC": 273,
      "ĠS": 274,
      "ĠâĢ": 275,
      "----": 276,
      "Ġ\"": 277,
      "Ġl": 278,
      "ly": 279,
      "se": 280,
      "ĠA": 281,
      "ĠâĢĶ": 282,
      "Ġand": 283,
      "Ġcon": 284,
      "ist": 285,
      "qu": 286,
      "ol": 287,
      "pp": 288,
      "Ġ1": 289,
      "un": 290,
      "ve": 291,
      "ĊĠ": 292,
      "ec": 293,
      "==": 294,
      "ith": 295,
      "Ġon": 296,
      "ag": 297,
      "pt": 298,
      "ot": 299,
      ":**": 300,
      "em": 301,
      "um": 302,
      "ter": 303,
      "ab": 304,
      "Ġpro": 305,
      "ss": 306,
      "Ġy": 307,
      "Ġ**": 308,
      "Ġit": 309,
      "ĠP": 310,
      "Ġr": 311,
      "ction": 312,
      "âĶĢâĶĢâĶĢâĶĢ": 313,
      "ck": 314,
      "Ġg": 315,
      "Ġof": 316,
      "ĠĠĠĠĠĠĠĠ": 317,
      "ce": 318,
      "ink": 319,
      "ep": 320,
      "Ġ-": 321,
      "Ġyou": 322,
      "ef": 323,
      "ĊĠĠĠĠĠĠĠ": 324,
      "ex": 325,
      "os": 326,
      "Ġwith": 327,
      "()": 328,
      "Ġor": 329,
      "ch": 330,
      "Ġ{": 331,
      "ple": 332,
      "ĠR": 333,
      "Ġv": 334,
      "ess": 335,
      "el": 336,
      "and": 337,
      "Ġex": 338,
      "ri": 339,
      "ow": 340,
      "Ġlo": 341,
      "ile": 342,
      "think": 343,
      "ers": 344,
      "end": 345,
      "Ġ2": 346,
      "00": 347,
      "ĠD": 348,
      "Ġus": 349,
      "ant": 350,
      "Ġare": 351,
      "ame": 352,
      "Ġcom": 353,
      "Ġ'": 354,
      "Ġne": 355,
      "ment": 356,
      "ĠF": 357,
      "ys": 358,
      "ack": 359,
      "out": 360,
      "ke": 361,
      ");": 362,
      "ult": 363,
      "yp": 364,
      "ĠN": 365,
      "yth": 366,
      "eos": 367,
      "ost": 368,
      "ra": 369,
      "nt": 370,
      "Ġres": 371,
      "ort": 372,
      "</": 373,
      "Ġhe": 374,
      "ror": 375,
      "ore": 376,
      "//": 377,
      "ĠO": 378,
      "urn": 379,
      "ata": 380,
      "ect": 381,
      "Ġwh": 382,
      "Ġ#": 383,
      "rom": 384,
      "Ġuser": 385,
      ".<|": 386,
      "ode": 387,
      "up": 388,
      "Ġif": 389,
      "Ġret": 390,
      "ail": 391,
      "Ġal": 392,
      "int": 393,
      "ĠB": 394,
      "ass": 395,
      "ĠU": 396,
      "ure": 397,
      "You": 398,
      "ĠE": 399,
      "ython": 400,
      "ue": 401,
      "ime": 402,
      "ord": 403,
      "'t": 404,
      "Ġan": 405,
      "Ġapp": 406,
      "ir": 407,
      "'s": 408,
      "ase": 409,
      "##": 410,
      "age": 411,
      "iz": 412,
      "Ġreturn": 413,
      "ht": 414,
      "put": 415,
      "Ġass": 416,
      "all": 417,
      "pl": 418,
      "ap": 419,
      "able": 420,
      "Ġdo": 421,
      "ain": 422,
      "ĠM": 423,
      "Ġ3": 424,
      "ust": 425,
      "ĠâĨ": 426,
      "Ġ+": 427,
      "====": 428,
      "Ġsh": 429,
      "ach": 430,
      "Ġch": 431,
      "ser": 432,
      "ĠW": 433,
      "act": 434,
      "Ġ}": 435,
      "ge": 436,
      "Ġthat": 437,
      "Ġnot": 438,
      "Ġtr": 439,
      "ive": 440,
      "ful": 441,
      "..": 442,
      "ĠThe": 443,
      "ire": 444,
      "ld": 445,
      "ay": 446,
      "ity": 447,
      "--------": 448,
      "Ġuse": 449,
      "lp": 450,
      "ĠâĨĴ": 451,
      "Ġ*": 452,
      "Ġhelp": 453,
      "iv": 454,
      "ext": 455,
      "ont": 456,
      "cri": 457,
      "Ġas": 458,
      "ork": 459,
      "error": 460,
      "to": 461,
      "hen": 462,
      "ies": 463,
      ").": 464,
      "Ġat": 465,
      "),": 466,
      "Ġtest": 467,
      "ĠL": 468,
      "low": 469,
      "âĶĢâĶĢâĶĢâĶĢâĶĢâĶĢâĶĢâĶĢ": 470,
      "Ġ4": 471,
      "Ġval": 472,
      "Ġneed": 473,
      "cess": 474,
      "ĠH": 475,
      "ine": 476,
      "heck": 477,
      "lm": 478,
      "Ġfrom": 479,
      "quest": 480,
      "cript": 481,
      "asst": 482,
      "|><|": 483,
      "|><": 484,
      "art": 485,
      "pon": 486,
      "ight": 487,
      "):": 488,
      "ash": 489,
      "sys": 490,
      "Ġhelpful": 491,
      "istant": 492,
      "Ġassistant": 493,
      "Ġstr": 494,
      "ix": 495,
      "Ġbe": 496,
      "ype": 497,
      "Ġcan": 498,
      "Ġ[": 499,
      "unction": 500,
      "fer": 501,
      "Ġsp": 502,
      "St": 503,
      "port": 504,
      "\",": 505,
      "Ġ5": 506,
      "ĠĠĠĠĠĠĠ": 507,
      "ind": 508,
      "Ġcl": 509,
      "âĶĤ": 510,
      "ble": 511,
      "ould": 512,
      "Ġthis": 513,
      "ER": 514,
      "ĠG": 515,
      "The": 516,
      "',": 517,
      "ific": 518,
      "Ġle": 519,
      "Ġim": 520,
      "dd": 521,
      "Ġser": 522,
      "ard": 523,
      "Ġdata": 524,
      "are": 525,
      "app": 526,
      "ial": 527,
      "ub": 528,
      "=\"": 529,
      "ere": 530,
      "\")": 531,
      "Ġme": 532,
      "enc": 533,
      "con": 534,
      "for": 535,
      "lic": 536,
      "res": 537,
      "ok": 538,
      "('": 539,
      "js": 540,
      "row": 541,
      "Ġse": 542,
      "Ġcont": 543,
      "ary": 544,
      "Ġlog": 545,
      "ally": 546,
      "ound": 547,
      "Ġerror": 548,
      "get": 549,
      "tern": 550,
      "ans": 551,
      "one": 552,
      "ount": 553,
      "ions": 554,
      "(\"": 555,
      "ax": 556,
      "nc": 557,
      "\":": 558,
      "Ġ.": 559,
      "ast": 560,
      "Ġyour": 561,
      "python": 562,
      "Ġ<": 563,
      "Ġqu": 564,
      "com": 565,
      "Ġfile": 566,
      "du": 567,
      "ak": 568,
      "Ġcode": 569,
      "Ġhand": 570,
      "Ġby": 571,
      "Ġbut": 572,
      "hr": 573,
      "PI": 574,
      "ice": 575,
      "op": 576,
      "ize": 577,
      "Ġwork": 578,
      "ace": 579,
      "Ġbu": 580,
      "Ġone": 581,
      "ign": 582,
      "ĠSt": 583,
      "name": 584,
      "vent": 585,
      "ory": 586,
      "file": 587,
      "Ġup": 588,
      "Ġ$": 589,
      "Ġde": 590,
      "Ġdef": 591,
      "av": 592,
      "per": 593,
      "__": 594,
      "ĊĠĠĠĠĠĠĠĠĠĠĠ": 595,
      "hrm": 596,
      "Ġpr": 597,
      ".**": 598,
      "ff": 599,
      "ken": 600,
      "Ġset": 601,
      "Ġfunction": 602,
      "umb": 603,
      "ations": 604,
      "ated": 605,
      "Ġrun": 606,
      "Ġwhen": 607,
      "ĊĠĠ": 608,
      "Ġwhat": 609,
      "Ġke": 610,
      "ĠâĶĤ": 611,
      "ne": 612,
      "che": 613,
      "ip": 614,
      "ry": 615,
      "val": 616,
      "Ġ0": 617,
      "Ġcomm": 618,
      "def": 619,
      "read": 620,
      "gr": 621,
      "use": 622,
      "Ġ=>": 623,
      "ock": 624,
      "Ġ//": 625,
      "Ġdep": 626,
      "Ġver": 627,
      "ener": 628,
      "ide": 629,
      "Ġshould": 630,
      "Ġchan": 631,
      "po": 632,
      "Ġ/": 633,
      "Ġ6": 634,
      "Ġtime": 635,
      "ave": 636,
      "rit": 637,
      "Ġconst": 638,
      "ient": 639,
      "LE": 640,
      "his": 641,
      "te": 642,
      "wa": 643,
      "ill": 644,
      "Ġper": 645,
      "?<|": 646,
      "ath": 647,
      "blem": 648,
      "ĠIf": 649,
      "imit": 650,
      "========": 651,
      "ĠV": 652,
      "Ġcre": 653,
      "ject": 654,
      "**:": 655,
      "form": 656,
      "our": 657,
      "ponse": 658,
      "atab": 659,
      "Ġcheck": 660,
      "ems": 661,
      "Ġall": 662,
      "Ġj": 663,
      "Ġid": 664,
      "Ġun": 665,
      "cl": 666,
      "atch": 667,
      "Ġadd": 668,
      "les": 669,
      "Ġspec": 670,
      "Ġinst": 671,
      "Ġ8": 672,
      "Ġrequest": 673,
      "Ġquer": 674,
      "nder": 675,
      "ĠRe": 676,
      "Ġem": 677,
      "irst": 678,
      "der": 679,
      "ĠAPI": 680,
      "ud": 681,
      "rror": 682,
      "atabase": 683,
      "fig": 684,
      "Ġpre": 685,
      "---": 686,
      "ify": 687,
      "pro": 688,
      "Ġen": 689,
      "Ġlist": 690,
      "hat": 691,
      "ild": 692,
      "ample": 693,
      "AT": 694,
      "ync": 695,
      "Ġno": 696,
      "Ġmod": 697,
      "ates": 698,
      "ong": 699,
      "str": 700,
      "Ġac": 701,
      "Ġdif": 702,
      "Ġnew": 703,
      "SE": 704,
      "Ġresult": 705,
      "Ġhave": 706,
      "Ġar": 707,
      "ull": 708,
      "Ġsec": 709,
      "word": 710,
      "Ġread": 711,
      "uth": 712,
      "ĠPython": 713,
      "ll": 714,
      "Ġstring": 715,
      "Ġcall": 716,
      "ance": 717,
      "ie": 718,
      "ON": 719,
      "ĠJ": 720,
      "ts": 721,
      "json": 722,
      "eb": 723,
      "atus": 724,
      "Ġfix": 725,
      "ĠĠĠĠĠĠĠĠĠĠĠĠĠĠĠĠ": 726,
      "âķ": 727,
      "$$": 728,
      "Ġever": 729,
      "ache": 730,
      "Ġind": 731,
      "rem": 732,
      "ook": 733,
      "ition": 734,
      "|--------": 735,
      "cre": 736,
      "ib": 737,
      "Ġ--": 738,
      "Ġvalid": 739,
      "data": 740,
      "Ġk": 741,
      "Ġget": 742,
      "âķĲ": 743,
      "gre": 744,
      "Ġdoes": 745,
      "Ġmin": 746,
      "ĠEx": 747,
      "bash": 748,
      "cur": 749,
      "Ġeach": 750,
      "ĊĠĠĠĠĠ": 751,
      "ert": 752,
      "...": 753,
      "Ġdiffer": 754,
      "ence": 755,
      "Ġ10": 756,
      "Ġhas": 757,
      "Ġname": 758,
      "Ġman": 759,
      "âķĲâķĲ": 760,
      "Ġu": 761,
      "sion": 762,
      "pre": 763,
      "Ġpo": 764,
      "ĊĠĠĠĠĊĠĠĠ": 765,
      "Ġserver": 766,
      "back": 767,
      "Ġcol": 768,
      "ical": 769,
      "ypes": 770,
      "Ġproblem": 771,
      "ments": 772,
      "Ġprocess": 773,
      "Ġnumb": 774,
      "quire": 775,
      "assword": 776,
      "ĠIn": 777,
      "Ke": 778,
      "Ġonly": 779,
      "CT": 780,
      "order": 781,
      "ES": 782,
      "ator": 783,
      "attern": 784,
      "Ġout": 785,
      "Ġresponse": 786,
      "Ġdatabase": 787,
      "Ġfirst": 788,
      "Ġpar": 789,
      "oth": 790,
      "py": 791,
      "Ġtype": 792,
      "Ġinput": 793,
      "Ġstate": 794,
      "af": 795,
      "Ġro": 796,
      "log": 797,
      "Ġclass": 798,
      "ution": 799,
      "roach": 800,
      "Ġsim": 801,
      "Ġ7": 802,
      "ise": 803,
      "Ġtoken": 804,
      "Error": 805,
      "Ġspecific": 806,
      "###": 807,
      "rou": 808,
      "ature": 809,
      "Ġmost": 810,
      "ĠCom": 811,
      "own": 812,
      "cept": 813,
      "Ġprodu": 814,
      "ulti": 815,
      "ault": 816,
      "div": 817,
      "Ġthan": 818,
      "For": 819,
      "ake": 820,
      "Ġprint": 821,
      "cal": 822,
      "Ġpl": 823,
      "Ġfail": 824,
      "User": 825,
      "wait": 826,
      "lock": 827,
      "col": 828,
      "arch": 829,
      "Ġkey": 830,
      "RE": 831,
      "uct": 832,
      "\">": 833,
      "Ġ==": 834,
      "tp": 835,
      "api": 836,
      "Ġact": 837,
      "ĠFor": 838,
      "const": 839,
      "QL": 840,
      "Ġlimit": 841,
      "ages": 842,
      "gh": 843,
      "vice": 844,
      "OM": 845,
      "time": 846,
      "ual": 847,
      "Ġorder": 848,
      "Ġexp": 849,
      "Ġsy": 850,
      "umn": 851,
      "sp": 852,
      "Ġusers": 853,
      "Ġemail": 854,
      "In": 855,
      "load": 856,
      "efore": 857,
      "ency": 858,
      "ause": 859,
      "ĠUse": 860,
      "Ġ9": 861,
      "nection": 862,
      "iew": 863,
      "emory": 864,
      "âĶĢâĶĢâĶĢâĶĢâĶĢâĶĢâĶĢâĶĢâĶĢâĶĢâĶĢâĶĢâĶĢâĶĢâĶĢâĶĢ": 865,
      "min": 866,
      "Ġ>": 867,
      "ERE": 868,
      "test": 869,
      "eng": 870,
      "ead": 871,
      "Ġab": 872,
      "ĠYou": 873,
      "import": 874,
      "\"\"": 875,
      "led": 876,
      "add": 877,
      "Ġevery": 878,
      "Ġback": 879,
      "Ġsol": 880,
      "ich": 881,
      "):**": 882,
      "ues": 883,
      "Ġsc": 884,
      "arg": 885,
      "tr": 886,
      "Ġdepend": 887,
      "Key": 888,
      "IN": 889,
      "igr": 890,
      "ome": 891,
      "Ġtrans": 892,
      "plex": 893,
      "ĊĠĠĠĠĠĠĠĠĠĠĠĠ": 894,
      "10": 895,
      "ds": 896,
      "Ġmore": 897,
      "Ġmax": 898,
      "Ġvalue": 899,
      "ĠCon": 900,
      "irect": 901,
      "Ġchang": 902,
      "`,": 903,
      "Ġcur": 904,
      "Ġâľ": 905,
      "ĠPro": 906,
      "Ġaut": 907,
      "Step": 908,
      "rap": 909,
      "ule": 910,
      "rent": 911,
      "Ġsu": 912,
      "set": 913,
      "plement": 914,
      "Ġfe": 915,
      "wo": 916,
      "AL": 917,
      "pr": 918,
      "ree": 919,
      "000": 920,
      "ike": 921,
      "Ġcons": 922,
      "ument": 923,
      "Ġdon": 924,
      "Ġindex": 925,
      "we": 926,
      "Ġsame": 927,
      "etch": 928,
      "ari": 929,
      "iel": 930,
      "ous": 931,
      "ql": 932,
      "Ġcle": 933,
      "Ġthey": 934,
      "Ġfiles": 935,
      "Ġcomp": 936,
      "ract": 937,
      "sh": 938,
      "Ġsel": 939,
      "status": 940,
      "Ġimport": 941,
      "LECT": 942,
      "ĠĠĠĠĠ": 943,
      "Ġstart": 944,
      "og": 945,
      "This": 946,
      "ting": 947,
      "atic": 948,
      "Ġatt": 949,
      "Ġend": 950,
      "sel": 951,
      "rite": 952,
      "')": 953,
      "ob": 954,
      "Ġpattern": 955,
      "ther": 956,
      "ually": 957,
      "Ġthem": 958,
      "Ġrequire": 959,
      "Ġmulti": 960,
      "ick": 961,
      "Ġdifferent": 962,
      "ATE": 963,
      "RL": 964,
      "bo": 965,
      "ĠNO": 966,
      "Ġself": 967,
      "Ġexist": 968,
      "its": 969,
      "self": 970,
      "over": 971,
      "Ġchar": 972,
      "Ġbefore": 973,
      "Ġawait": 974,
      "Ġwe": 975,
      "Ġquery": 976,
      "iss": 977,
      "ĠCheck": 978,
      "Ġwithout": 979,
      "Ġapproach": 980,
      "Ġjust": 981,
      "view": 982,
      "HERE": 983,
      "Pro": 984,
      "Ġdb": 985,
      "Ġso": 986,
      "Id": 987,
      "Ġfind": 988,
      "Ġwhere": 989,
      "ength": 990,
      "Ġele": 991,
      "Ġgener": 992,
      "count": 993,
      "git": 994,
      "text": 995,
      "ask": 996,
      "Ġclient": 997,
      "Ġtypes": 998,
      "Ġi": 999,
      "OR": 1000,
      "ning": 1001,
      "stem": 1002,
      "Ġsub": 1003,
      "work": 1004,
      "://": 1005,
      "ases": 1006,
      "ute": 1007,
      "'re": 1008,
      "))": 1009,
      "Ġrow": 1010,
      "ĠThis": 1011,
      "ption": 1012,
      "email": 1013,
      "();": 1014,
      "Ġbuild": 1015,
      "pm": 1016,
      "Ġnumber": 1017,
      "Ġform": 1018,
      "Ġconfig": 1019,
      "';": 1020,
      "ody": 1021,
      "Ġcolumn": 1022,
      "ĠAn": 1023,
      "Ġany": 1024,
      "Ġtim": 1025,
      "Ex": 1026,
      "sw": 1027,
      ":#": 1028,
      "ification": 1029,
      "px": 1030,
      "Ġdis": 1031,
      "ROM": 1032,
      "fter": 1033,
      "ug": 1034,
      "let": 1035,
      "Ġusing": 1036,
      "Ġtests": 1037,
      "ang": 1038,
      "Ġdes": 1039,
      "Ġbet": 1040,
      "Ġ->": 1041,
      "Ġasync": 1042,
      "ite": 1043,
      "Ġinto": 1044,
      "point": 1045,
      "ict": 1046,
      "Ġslow": 1047,
      "ĠHT": 1048,
      "ĊĊĠĠĠ": 1049,
      "Ġover": 1050,
      "ND": 1051,
      "from": 1052,
      "inal": 1053,
      "nderst": 1054,
      "ucture": 1055,
      "Ġel": 1056,
      "ens": 1057,
      "loy": 1058,
      "ible": 1059,
      "not": 1060,
      "Ġmy": 1061,
      "Ġwant": 1062,
      "ange": 1063,
      "Ġcontain": 1064,
      "chem": 1065,
      "ected": 1066,
      "Ġupd": 1067,
      "({": 1068,
      "ative": 1069,
      "ĠUser": 1070,
      "Ġthen": 1071,
      "thod": 1072,
      "');": 1073,
      "db": 1074,
      "oc": 1075,
      "UL": 1076,
      "SELECT": 1077,
      "ibr": 1078,
      "TP": 1079,
      "Ġhead": 1080,
      "Ġchange": 1081,
      "nderstand": 1082,
      "lication": 1083,
      "Ġhandl": 1084,
      "Ġdoesn": 1085,
      "Ġauth": 1086,
      "Ġfr": 1087,
      "mon": 1088,
      "lex": 1089,
      "Ġdec": 1090,
      "12": 1091,
      "Let": 1092,
      "wn": 1093,
      "Ġcount": 1094,
      "ased": 1095,
      "Ġerrors": 1096,
      "Ġmemory": 1097,
      "ilter": 1098,
      "actor": 1099,
      "vents": 1100,
      "Ġqueries": 1101,
      "ternal": 1102,
      "ches": 1103,
      "================": 1104,
      "Ġdefault": 1105,
      "now": 1106,
      "Ġtable": 1107,
      "items": 1108,
      "Ġbec": 1109,
      "igh": 1110,
      "Use": 1111,
      "list": 1112,
      "Ġhandle": 1113,
      "ocker": 1114,
      "max": 1115,
      "Ġcache": 1116,
      "Ġmigr": 1117,
      "ery": 1118,
      "alse": 1119,
      "users": 1120,
      "Ġwhich": 1121,
      "ating": 1122,
      "Ġoper": 1123,
      "Ġconnection": 1124,
      "Ġlock": 1125,
      "ponent": 1126,
      "clud": 1127,
      "Ġabout": 1128,
      "side": 1129,
      "ell": 1130,
      "env": 1131,
      "ization": 1132,
      "Ġdoc": 1133,
      "Ġcommon": 1134,
      "AD": 1135,
      "rough": 1136,
      ":.": 1137,
      "Ġcreate": 1138,
      "AB": 1139,
      "Ġown": 1140,
      "Com": 1141,
      "`.": 1142,
      "de": 1143,
      "Ġinter": 1144,
      "vel": 1145,
      "Ġmodel": 1146,
      "Ġpassword": 1147,
      "Ġ...": 1148,
      "ything": 1149,
      "Cont": 1150,
      "Ġ\\": 1151,
      "size": 1152,
      "Ġprov": 1153,
      "string": 1154,
      "ĠTr": 1155,
      "Ġent": 1156,
      "ark": 1157,
      "play": 1158,
      "ole": 1159,
      "Ġitems": 1160,
      "Ġmust": 1161,
      "valid": 1162,
      "Ġthrough": 1163,
      "ĠNOT": 1164,
      "ces": 1165,
      "ices": 1166,
      "Ġpath": 1167,
      "20": 1168,
      "Ġtool": 1169,
      "Ġmess": 1170,
      "Ġversion": 1171,
      "font": 1172,
      "Ġright": 1173,
      "What": 1174,
      "key": 1175,
      "25": 1176,
      "type": 1177,
      "ingle": 1178,
      "Ġ100": 1179,
      "Ġload": 1180,
      "Ġcor": 1181,
      "lect": 1182,
      "Ġrec": 1183,
      "Ġint": 1184,
      "Ġsend": 1185,
      "ĠWHERE": 1186,
      ")<|": 1187,
      "Ġgo": 1188,
      "ret": 1189,
      "plic": 1190,
      "ger": 1191,
      "post": 1192,
      "Ġ20": 1193,
      "Ġboth": 1194,
      "Ġworks": 1195,
      "Ġ\"\"\"": 1196,
      "Ġlike": 1197,
      "Ġcharact": 1198,
      "dis": 1199,
      "Ġassert": 1200,
      "function": 1201,
      "Ġext": 1202,
      "Ġrequests": 1203,
      "Script": 1204,
      "How": 1205,
      "sql": 1206,
      "ules": 1207,
      "Ġiss": 1208,
      "arge": 1209,
      "ility": 1210,
      "âķĲâķĲâķĲâķĲ": 1211,
      "SON": 1212,
      "but": 1213,
      "Ġpack": 1214,
      "ateg": 1215,
      "ron": 1216,
      "ĠNo": 1217,
      "Ġsum": 1218,
      "Ġdirect": 1219,
      "Ġbug": 1220,
      "IM": 1221,
      "Ġsome": 1222,
      "arget": 1223,
      "EX": 1224,
      "ner": 1225,
      "Ġlibr": 1226,
      "ove": 1227,
      "rong": 1228,
      "thing": 1229,
      "Ġob": 1230,
      "ctions": 1231,
      "Ġtry": 1232,
      "ven": 1233,
      "pty": 1234,
      "swer": 1235,
      "Ġtwo": 1236,
      "Ġvari": 1237,
      "ĠFROM": 1238,
      "rypt": 1239,
      "Ġ&": 1240,
      "http": 1241,
      "ource": 1242,
      "Ġendpoint": 1243,
      "ccess": 1244,
      "Ġra": 1245,
      "token": 1246,
      "():": 1247,
      "ft": 1248,
      "rect": 1249,
      "Ġstep": 1250,
      "ray": 1251,
      "Ġservice": 1252,
      "':": 1253,
      "ool": 1254,
      "Ġref": 1255,
      "Ġbr": 1256,
      "ST": 1257,
      "ĠAdd": 1258,
      "reak": 1259,
      "Ġblock": 1260,
      "ared": 1261,
      "fl": 1262,
      "Ġcase": 1263,
      "Ġvs": 1264,
      "ground": 1265,
      "']": 1266,
      "Ġx": 1267,
      "ascript": 1268,
      "avascript": 1269,
      "afe": 1270,
      "cont": 1271,
      "ĠIt": 1272,
      "Ġline": 1273,
      "andom": 1274,
      "ession": 1275,
      "akes": 1276,
      "ĠâĶ": 1277,
      "ined": 1278,
      "head": 1279,
      "Ġsm": 1280,
      "ways": 1281,
      "ging": 1282,
      "javascript": 1283,
      "ĠPost": 1284,
      "ĠK": 1285,
      "Ġfull": 1286,
      "Ġsimple": 1287,
      "ring": 1288,
      "wh": 1289,
      "Ġag": 1290,
      "Ġreal": 1291,
      "ics": 1292,
      "()`": 1293,
      "iron": 1294,
      "Ġcurrent": 1295,
      "Ġfast": 1296,
      "Ġinstall": 1297,
      "NT": 1298,
      "Ġca": 1299,
      "Ġvalues": 1300,
      "Ġchanges": 1301,
      "Ġtext": 1302,
      "Ġafter": 1303,
      "Ġdeploy": 1304,
      "ET": 1305,
      "ps": 1306,
      "url": 1307,
      "color": 1308,
      "Ġfetch": 1309,
      "press": 1310,
      ")`": 1311,
      "Ġed": 1312,
      "Ġâľĵ": 1313,
      "Ġbecause": 1314,
      "::": 1315,
      "line": 1316,
      "ĠHow": 1317,
      "Ġ});": 1318,
      "Ġimplement": 1319,
      "ences": 1320,
      "ween": 1321,
      "ĠNe": 1322,
      "plexity": 1323,
      "ized": 1324,
      "ĠHTTP": 1325,
      "SQL": 1326,
      "ied": 1327,
      "Ġinte": 1328,
      "Ġlet": 1329,
      "Ġenv": 1330,
      "Ġfeature": 1331,
      "ders": 1332,
      "epend": 1333,
      "Ġproduction": 1334,
      "ĠApp": 1335,
      "ffic": 1336,
      "value": 1337,
      "Ġfiel": 1338,
      "pe": 1339,
      "Ġmat": 1340,
      "Ġreg": 1341,
      "idd": 1342,
      "ĠType": 1343,
      "ithm": 1344,
      "Ġcontent": 1345,
      "Ġweb": 1346,
      "eter": 1347,
      "Ġlogic": 1348,
      "Ġparam": 1349,
      "OD": 1350,
      "Ġunderstand": 1351,
      "Ġproduct": 1352,
      "SS": 1353,
      "sor": 1354,
      "rol": 1355,
      "Ġhow": 1356,
      "Ġsystem": 1357,
      "Ġmultiple": 1358,
      "CRE": 1359,
      "Ġoutput": 1360,
      "\"]": 1361,
      "ml": 1362,
      "input": 1363,
      "ĠĠĠĠĠĠ": 1364,
      "Ġknow": 1365,
      "so": 1366,
      "que": 1367,
      "ures": 1368,
      "Ġrem": 1369,
      "imum": 1370,
      "ider": 1371,
      "Ġinstead": 1372,
      "Ġbetween": 1373,
      "Ġelse": 1374,
      "Ġdocument": 1375,
      "Ġht": 1376,
      "100": 1377,
      "Ġcases": 1378,
      "Ġdown": 1379,
      "utput": 1380,
      "Ġrange": 1381,
      "resh": 1382,
      "Ġcontext": 1383,
      "no": 1384,
      "Ġfactor": 1385,
      "Ġrate": 1386,
      "Al": 1387,
      "Ġscript": 1388,
      "âĶĢâĶ": 1389,
      "ĠAI": 1390,
      "Ġgre": 1391,
      "Ġhandles": 1392,
      "urity": 1393,
      "Ġreturns": 1394,
      "ustom": 1395,
      "ĠWhat": 1396,
      "Ġask": 1397,
      "request": 1398,
      "iven": 1399,
      "ross": 1400,
      "ential": 1401,
      "Ġtrue": 1402,
      "Ġsearch": 1403,
      "chema": 1404,
      "ULL": 1405,
      "----------------": 1406,
      "par": 1407,
      "Ġnull": 1408,
      "ĠNone": 1409,
      "}\")": 1410,
      "Ġstore": 1411,
      "Ġlogs": 1412,
      "Ġclean": 1413,
      "24": 1414,
      "gor": 1415,
      "oin": 1416,
      "itions": 1417,
      "ĠURL": 1418,
      "ffect": 1419,
      "ear": 1420,
      "Ġquest": 1421,
      "ptim": 1422,
      "Ġneeds": 1423,
      "Ġaccess": 1424,
      "gorithm": 1425,
      "edi": 1426,
      "andard": 1427,
      "Ġsee": 1428,
      "Ġsecon": 1429,
      "raph": 1430,
      "Ġwas": 1431,
      "Ġcomponent": 1432,
      "Ġapps": 1433,
      "Con": 1434,
      "If": 1435,
      "npm": 1436,
      "Re": 1437,
      "border": 1438,
      "host": 1439,
      "Ġsort": 1440,
      "Ġbreak": 1441,
      "eturn": 1442,
      "Ġloop": 1443,
      "EST": 1444,
      "by": 1445,
      "Ġtra": 1446,
      "Ġwrong": 1447,
      "ason": 1448,
      "Ġvalidation": 1449,
      "Ġpoint": 1450,
      "issing": 1451,
      "Ġ__": 1452,
      "Ġpos": 1453,
      "epar": 1454,
      "ms": 1455,
      "ton": 1456,
      "Ġrefer": 1457,
      "Ġother": 1458,
      "${": 1459,
      "mit": 1460,
      "req": 1461,
      "Ġpost": 1462,
      "ĠNULL": 1463,
      "Ġsolution": 1464,
      "ĠQ": 1465,
      "ern": 1466,
      "Ġcal": 1467,
      "Ġthink": 1468,
      "Ġcommit": 1469,
      "gram": 1470,
      "board": 1471,
      "async": 1472,
      "class": 1473,
      "Ġmany": 1474,
      "ĠX": 1475,
      "itle": 1476,
      "Ġgr": 1477,
      "Ġkeep": 1478,
      "Tr": 1479,
      "sc": 1480,
      "Ġpart": 1481,
      "ecute": 1482,
      "aces": 1483,
      "Ġsingle": 1484,
      "Ġthread": 1485,
      "ĠJSON": 1486,
      "eam": 1487,
      "Ġshow": 1488,
      "ier": 1489,
      "rc": 1490,
      "Ġpage": 1491,
      "Ġmake": 1492,
      "olution": 1493,
      "Ġrows": 1494,
      "gres": 1495,
      "Ġsign": 1496,
      "Ġmatch": 1497,
      "Ġorders": 1498,
      "result": 1499,
      "Ġresults": 1500,
      "Ġz": 1501,
      "local": 1502,
      "Ġattack": 1503,
      "cul": 1504,
      "len": 1505,
      "map": 1506,
      "});": 1507,
      "Ġpass": 1508,
      "Ġdist": 1509,
      "Ġmight": 1510,
      "ntic": 1511,
      "Ġapplication": 1512,
      "Ġobject": 1513,
      "Ġvariable": 1514,
      "EF": 1515,
      "pen": 1516,
      "ines": 1517,
      "Ġrel": 1518,
      "ays": 1519,
      "Ġnumbers": 1520,
      "Ġactual": 1521,
      "Res": 1522,
      "vices": 1523,
      "example": 1524,
      "ĠGO": 1525,
      "ĊĠĠĠĠĠĠĠĠĠĠĠĠĠĠĠ": 1526,
      "ves": 1527,
      "yle": 1528,
      "plete": 1529,
      "Ġnever": 1530,
      "Ġanswer": 1531,
      "ĠReact": 1532,
      "Ġformat": 1533,
      "Ġsmall": 1534,
      "ware": 1535,
      "ech": 1536,
      "Ġ{\"": 1537,
      "State": 1538,
      "config": 1539,
      "hentic": 1540,
      "isk": 1541,
      "enter": 1542,
      "idth": 1543,
      "Ġlong": 1544,
      "Ġallow": 1545,
      "Ġstructure": 1546,
      "Fix": 1547,
      "Ġrender": 1548,
      "ĠIm": 1549,
      "ĠRed": 1550,
      "omain": 1551,
      "Ġits": 1552,
      "Ġiter": 1553,
      "ĠDe": 1554,
      "ĠVal": 1555,
      "Ġcorrect": 1556,
      "ĠGOOD": 1557,
      "code": 1558,
      "io": 1559,
      "Ġconn": 1560,
      "Ġ40": 1561,
      "When": 1562,
      "Ġ:": 1563,
      "ĠON": 1564,
      "Common": 1565,
      "15": 1566,
      "Ġtoo": 1567,
      "uild": 1568,
      "ently": 1569,
      "Ġlarge": 1570,
      "ĠAl": 1571,
      "query": 1572,
      "otal": 1573,
      "ocket": 1574,
      "ings": 1575,
      "Ġlook": 1576,
      "Ġmanag": 1577,
      "Ġraise": 1578,
      "ten": 1579,
      "Ġold": 1580,
      "Ġstatus": 1581,
      "adding": 1582,
      "Ġlibrary": 1583,
      "CREATE": 1584,
      "ML": 1585,
      "ale": 1586,
      "ved": 1587,
      "ish": 1588,
      "Ġmer": 1589,
      "aries": 1590,
      "Ġinclud": 1591,
      "ĠReturn": 1592,
      "Ġpackage": 1593,
      "'ll": 1594,
      "IT": 1595,
      "reate": 1596,
      "Ġsepar": 1597,
      "ĊĠĠĠĠĠĠĠĠ": 1598,
      "Ġuses": 1599,
      "],": 1600,
      "erc": 1601,
      "Ġteam": 1602,
      "Ġmon": 1603,
      "uses": 1604,
      "Ġwill": 1605,
      "Ġrout": 1606,
      "ĠBAD": 1607,
      "ready": 1608,
      "Ġverify": 1609,
      "nter": 1610,
      "iled": 1611,
      "'m": 1612,
      "path": 1613,
      "password": 1614,
      "sed": 1615,
      "imary": 1616,
      "old": 1617,
      "encies": 1618,
      "rets": 1619,
      "less": 1620,
      "Ġdur": 1621,
      "Ġalways": 1622,
      "Ġmethod": 1623,
      "ors": 1624,
      "arent": 1625,
      "background": 1626,
      "ius": 1627,
      "start": 1628,
      "ives": 1629,
      "Ġautom": 1630,
      "ironment": 1631,
      "ses": 1632,
      "|----": 1633,
      "iness": 1634,
      "ream": 1635,
      "lete": 1636,
      "Ġnam": 1637,
      "Ġgu": 1638,
      "Ġexcept": 1639,
      "Ġ50": 1640,
      "indow": 1641,
      "11": 1642,
      "my": 1643,
      "Ġhapp": 1644,
      "ĠRead": 1645,
      "Ġarray": 1646,
      "Ġtimes": 1647,
      "tal": 1648,
      "Ġfl": 1649,
      "Ġfilter": 1650,
      "rop": 1651,
      "Ġstill": 1652,
      "Ġruns": 1653,
      "Ġcalls": 1654,
      "['": 1655,
      "body": 1656,
      "err": 1657,
      "itial": 1658,
      "Ġfound": 1659,
      "Ġwrite": 1660,
      "Ġtotal": 1661,
      "ĠID": 1662,
      "ĠSer": 1663,
      "ott": 1664,
      "Ġproper": 1665,
      "ĠRes": 1666,
      "ĠVer": 1667,
      "$$$": 1668,
      "Ġhttp": 1669,
      "50": 1670,
      "mod": 1671,
      "Ġthere": 1672,
      "velo": 1673,
      "Ġneeded": 1674,
      "Ġeverything": 1675,
      "Ġpool": 1676,
      "Ġtokens": 1677,
      "flex": 1678,
      "âĸ": 1679,
      "alys": 1680,
      "Ġtheir": 1681,
      "Ġnon": 1682,
      "ilt": 1683,
      "Ġlength": 1684,
      "Ġdeb": 1685,
      "alysis": 1686,
      "be": 1687,
      "Ġlast": 1688,
      "Ġ12": 1689,
      "empt": 1690,
      "Ġexample": 1691,
      "trans": 1692,
      "AR": 1693,
      "types": 1694,
      "Ġtarget": 1695,
      "ily": 1696,
      "Ġquestion": 1697,
      "={": 1698,
      "script": 1699,
      "ĠTest": 1700,
      "iddle": 1701,
      "Ġ]": 1702,
      "Ġ`.": 1703,
      "Ġstandard": 1704,
      "Ġbran": 1705,
      "ailed": 1706,
      "cd": 1707,
      "ĠY": 1708,
      "imal": 1709,
      "ĠCl": 1710,
      "Ġupdate": 1711,
      "ĠSh": 1712,
      "Ġproject": 1713,
      "Ġprogram": 1714,
      "Ġ30": 1715,
      "itive": 1716,
      "Ġreview": 1717,
      "Ġexact": 1718,
      "Ġclear": 1719,
      "Wh": 1720,
      "ĊĊĠ": 1721,
      "ĠCh": 1722,
      "ĠSe": 1723,
      "ĠAND": 1724,
      "80": 1725,
      "ia": 1726,
      "ush": 1727,
      "Ġevent": 1728,
      "Ġmigration": 1729,
      "Ġrecord": 1730,
      "plicit": 1731,
      "ĠPR": 1732,
      "Ġshared": 1733,
      "Ġbeh": 1734,
      "ABLE": 1735,
      "40": 1736,
      "ION": 1737,
      "gin": 1738,
      "ĠCont": 1739,
      "ĠLet": 1740,
      "Ġinf": 1741,
      "Ġnode": 1742,
      "els": 1743,
      "lice": 1744,
      "Ġcharacters": 1745,
      "Ġtask": 1746,
      "ĠIP": 1747,
      "ability": 1748,
      "().": 1749,
      "Ġorig": 1750,
      "AM": 1751,
      "length": 1752,
      "Ġad": 1753,
      "Ġthese": 1754,
      "Ġmain": 1755,
      "Ġ===": 1756,
      "pport": 1757,
      "ters": 1758,
      "ĠOr": 1759,
      "ĠError": 1760,
      "URL": 1761,
      "ait": 1762,
      "Ġ15": 1763,
      "Ġonce": 1764,
      "ĠOR": 1765,
      "lick": 1766,
      "greSQL": 1767,
      "Ġelements": 1768,
      "Ġheaders": 1769,
      "action": 1770,
      "ci": 1771,
      "ique": 1772,
      "ashboard": 1773,
      "rowser": 1774,
      "API": 1775,
      "Ġschema": 1776,
      "Ġreason": 1777,
      "imes": 1778,
      "ade": 1779,
      "Ġless": 1780,
      "(\"/": 1781,
      "atically": 1782,
      "Ġelement": 1783,
      "date": 1784,
      "Ġcook": 1785,
      "alle": 1786,
      "etc": 1787,
      "Ġhard": 1788,
      "Ġcond": 1789,
      "eline": 1790,
      "ĠDocker": 1791,
      "Ġempty": 1792,
      "Ġav": 1793,
      "orage": 1794,
      "ough": 1795,
      "Ġdet": 1796,
      "Ġ200": 1797,
      "ĠExample": 1798,
      "ĠTypeScript": 1799,
      "Don": 1800,
      "base": 1801,
      "ood": 1802,
      "with": 1803,
      "Ġpip": 1804,
      "ĠSQL": 1805,
      "Ġfactorial": 1806,
      "width": 1807,
      "inary": 1808,
      "Ġ(`": 1809,
      "Ġnow": 1810,
      "etwork": 1811,
      "Ġrespon": 1812,
      "Ġcommand": 1813,
      "formance": 1814,
      "grep": 1815,
      "IG": 1816,
      "Ġ~": 1817,
      "CH": 1818,
      "pos": 1819,
      "Ġeven": 1820,
      "Ġ},": 1821,
      "Ġmeans": 1822,
      "print": 1823,
      "Ġcontainer": 1824,
      "ek": 1825,
      "limit": 1826,
      "âĤ": 1827,
      "Ġsw": 1828,
      "execute": 1829,
      "Ġsequ": 1830,
      "Ġfails": 1831,
      "display": 1832,
      "Ġseparate": 1833,
      "ities": 1834,
      "Ġbody": 1835,
      "vert": 1836,
      "rict": 1837,
      "Ġwhile": 1838,
      "ĠBY": 1839,
      "ontend": 1840,
      "Ġhandling": 1841,
      "Ġ%": 1842,
      "ress": 1843,
      "Ġcr": 1844,
      "Ġbound": 1845,
      "ĠTrue": 1846,
      "Ġmessage": 1847,
      "ious": 1848,
      "ins": 1849,
      "ĠSec": 1850,
      "Ġexisting": 1851,
      "Ġenvironment": 1852,
      "30": 1853,
      ">`": 1854,
      "Ġword": 1855,
      "lob": 1856,
      "amework": 1857,
      "plit": 1858,
      "---|": 1859,
      "));": 1860,
      "Ġfol": 1861,
      "Ġnext": 1862,
      "Ġequ": 1863,
      "ides": 1864,
      "Ġstack": 1865,
      "ĠTh": 1866,
      "ĠCI": 1867,
      "padding": 1868,
      "ublic": 1869,
      "current": 1870,
      "Ġroot": 1871,
      "typescript": 1872,
      "SER": 1873,
      "air": 1874,
      "ethod": 1875,
      "pace": 1876,
      "Ġdi": 1877,
      "Ġhash": 1878,
      "ptions": 1879,
      "ĠDon": 1880,
      "active": 1881,
      "span": 1882,
      "\"}": 1883,
      "Ġ()": 1884,
      "ĠWeb": 1885,
      "ĠStep": 1886,
      "Ġactually": 1887,
      "auth": 1888,
      "ets": 1889,
      "Ġimm": 1890,
      "Ġ$$$": 1891,
      "ava": 1892,
      "Ġcreated": 1893,
      "itor": 1894,
      "Ġsize": 1895,
      "Ġmet": 1896,
      "Ġlay": 1897,
      "ement": 1898,
      "('/": 1899,
      "Ġoperations": 1900,
      "PU": 1901,
      "down": 1902,
      "of": 1903,
      "ounter": 1904,
      "Ġlocal": 1905,
      "rows": 1906,
      "Ġdev": 1907,
      "Ġrunning": 1908,
      "PT": 1909,
      "cle": 1910,
      "orm": 1911,
      "ags": 1912,
      "duct": 1913,
      "pose": 1914,
      "DATE": 1915,
      "My": 1916,
      "und": 1917,
      "Ġdomain": 1918,
      "utes": 1919,
      "Ġident": 1920,
      "Ġmodule": 1921,
      "flict": 1922,
      "By": 1923,
      "Socket": 1924,
      "lement": 1925,
      "Ġpod": 1926,
      "ĠTABLE": 1927,
      "Ġalready": 1928,
      "Ġacross": 1929,
      "Ġsecurity": 1930,
      "Ġdependencies": 1931,
      "ward": 1932,
      "Ġevents": 1933,
      "Ġoptim": 1934,
      "Ġitem": 1935,
      "essage": 1936,
      "Ġvalidate": 1937,
      "button": 1938,
      "])": 1939,
      "fix": 1940,
      "ren": 1941,
      "Ġcause": 1942,
      "aly": 1943,
      "Ġâī": 1944,
      "ĠNode": 1945,
      "Ġconnections": 1946,
      "ior": 1947,
      "tes": 1948,
      "Ġ?": 1949,
      "Ġam": 1950,
      "hes": 1951,
      "iter": 1952,
      "Ġfalse": 1953,
      "imple": 1954,
      "Ġdependency": 1955,
      "mail": 1956,
      "num": 1957,
      "ľâĶĢâĶĢ": 1958,
      "Ġrandom": 1959,
      "ries": 1960,
      "Ġcomplex": 1961,
      "argin": 1962,
      "List": 1963,
      "TER": 1964,
      "aint": 1965,
      "Ġcustom": 1966,
      "Ġfine": 1967,
      "ided": 1968,
      "unc": 1969,
      "ending": 1970,
      "Ġkeys": 1971,
      "Ġagain": 1972,
      "Ġduring": 1973,
      "Ġwrit": 1974,
      "ĠNot": 1975,
      "ĠOutput": 1976,
      "uplic": 1977,
      "ayment": 1978,
      "|----------": 1979,
      "gress": 1980,
      "Ġchanged": 1981,
      "Ġissues": 1982,
      "ASE": 1983,
      "gers": 1984,
      "requ": 1985,
      "Ġwindow": 1986,
      "Ġlen": 1987,
      "raint": 1988,
      "Ġsetup": 1989,
      "new": 1990,
      "Ġ60": 1991,
      "red": 1992,
      "ank": 1993,
      "âĶģ": 1994,
      "Ġnpm": 1995,
      "Ġconflict": 1996,
      "Ġused": 1997,
      "ĠUs": 1998,
      "Ġcolumns": 1999,
      "`)": 2000,
      "most": 2001,
      "only": 2002,
      "hed": 2003,
      "ĠSolution": 2004,
      "Ġleak": 2005,
      "Ġstrings": 2006,
      "123": 2007,
      "flow": 2008,
      "fetch": 2009,
      "oid": 2010,
      "inter": 2011,
      "Ġsession": 2012,
      "Ġnum": 2013,
      "ically": 2014,
      "Ġcauses": 2015,
      "hip": 2016,
      "Ġ)": 2017,
      "atches": 2018,
      "Ġ[]": 2019,
      "Ġexists": 2020,
      "iddleware": 2021,
      "32": 2022,
      "Ġtyp": 2023,
      "Ġmissing": 2024,
      "ĠIs": 2025,
      "ĠAr": 2026,
      "Ġlevel": 2027,
      "Ġimage": 2028,
      "Ġsecrets": 2029,
      "|------------": 2030,
      "Ġstatement": 2031,
      "Ġfields": 2032,
      "Ġgrep": 2033,
      "velop": 2034,
      "App": 2035,
      "based": 2036,
      "the": 2037,
      "title": 2038,
      "Ġwould": 2039,
      "Ġisn": 2040,
      "ĠINT": 2041,
      "efined": 2042,
      "cription": 2043,
      "âĶģâĶģ": 2044,
      "alth": 2045,
      "ision": 2046,
      "ĠSE": 2047,
      "plain": 2048,
      "Ġselect": 2049,
      "Type": 2050,
      "total": 2051,
      "ĠĠĠĠĠĠĠĠĠ": 2052,
      "ĠRun": 2053,
      "ĠFix": 2054,
      "umber": 2055,
      "Ġruntime": 2056,
      "ĠCons": 2057,
      "ystem": 2058,
      "ÃĹ": 2059,
      "Ġflow": 2060,
      "Ġeas": 2061,
      "ssible": 2062,
      "ĠFind": 2063,
      "ĠString": 2064,
      "Ġfunctions": 2065,
      "âķĲâķĲâķĲâķĲâķĲâķĲâķĲâķĲ": 2066,
      "https": 2067,
      "99": 2068,
      "DER": 2069,
      "PDATE": 2070,
      "Se": 2071,
      "crypt": 2072,
      "Ġsource": 2073,
      "Ġexplicit": 2074,
      "Data": 2075,
      "Im": 2076,
      "OU": 2077,
      "off": 2078,
      "ph": 2079,
      "pi": 2080,
      "Ġred": 2081,
      "```<|": 2082,
      "Ġcomplete": 2083,
      "ĠUn": 2084,
      "resent": 2085,
      "Ġbuilt": 2086,
      "Ġarg": 2087,
      "Ġtransform": 2088,
      "ield": 2089,
      "Ġpatterns": 2090,
      "box": 2091,
      "TE": 2092,
      "fr": 2093,
      "sive": 2094,
      "item": 2095,
      "level": 2096,
      "Ġtop": 2097,
      "ores": 2098,
      "Ġroll": 2099,
      "Ġsupport": 2100,
      "ptional": 2101,
      "Ġhandler": 2102,
      "256": 2103,
      "ediate": 2104,
      ")}": 2105,
      "Rule": 2106,
      "Ser": 2107,
      "ater": 2108,
      "Ġsafe": 2109,
      "anc": 2110,
      "Ġway": 2111,
      "Ġinv": 2112,
      "Ġhere": 2113,
      "create": 2114,
      "Ġsomething": 2115,
      "(()": 2116,
      ".\"": 2117,
      "hand": 2118,
      "init": 2119,
      "Ġbrowser": 2120,
      "iler": 2121,
      "oding": 2122,
      "Ġheader": 2123,
      "Ġdirectly": 2124,
      "Ġbranch": 2125,
      "OST": 2126,
      "Th": 2127,
      "none": 2128,
      "Ġbased": 2129,
      "Ġhist": 2130,
      "Ġgrou": 2131,
      "riv": 2132,
      "aching": 2133,
      "ĠWhen": 2134,
      "comm": 2135,
      "ĠPostgreSQL": 2136,
      "Ġbehav": 2137,
      "64": 2138,
      "Python": 2139,
      "ection": 2140,
      "xy": 2141,
      "Ġ@": 2142,
      "ination": 2143,
      "ism": 2144,
      "Ġmock": 2145,
      "Ġgcd": 2146,
      "ĠDB": 2147,
      "ĠDes": 2148,
      "Ġusually": 2149,
      "Store": 2150,
      "Ġtimeout": 2151,
      "Ġmessages": 2152,
      "Ġissue": 2153,
      "where": 2154,
      "Ġposts": 2155,
      "localhost": 2156,
      "docker": 2157,
      "run": 2158,
      "Ġtem": 2159,
      "roll": 2160,
      "exp": 2161,
      "ribut": 2162,
      "pler": 2163,
      "ĠGener": 2164,
      "Ġchecks": 2165,
      "Ġconsole": 2166,
      "ĠAnalysis": 2167,
      "No": 2168,
      "rad": 2169,
      "state": 2170,
      "oud": 2171,
      "ĠCS": 2172,
      "ĠĠĠĠĠĠĠĠĠĠ": 2173,
      "Ġalso": 2174,
      "Ġund": 2175,
      "ĊĠĠĠĠĠĠĠĠĠĠĠĠĠĠĠĠĠĠĠ": 2176,
      "EXT": 2177,
      "ercase": 2178,
      "').": 2179,
      ")**": 2180,
      "ED": 2181,
      "It": 2182,
      "Or": 2183,
      "WT": 2184,
      "[\"": 2185,
      "eature": 2186,
      "Ġ!": 2187,
      "Ġtell": 2188,
      "Ġflex": 2189,
      "Ġhigh": 2190,
      "Ġrules": 2191,
      "())": 2192,
      "Ġretry": 2193,
      "ĠWh": 2194,
      "ĠJava": 2195,
      "Ġgets": 2196,
      "Ġminutes": 2197,
      "ategy": 2198,
      "._": 2199,
      "hash": 2200,
      "yn": 2201,
      "Ġreq": 2202,
      "ĠSc": 2203,
      "Ġalgorithm": 2204,
      "Ġspace": 2205,
      "ted": 2206,
      "ĠKey": 2207,
      "ĠCreate": 2208,
      "html": 2209,
      "conn": 2210,
      "Ġconstraint": 2211,
      "Ġauthentic": 2212,
      "Ġfollow": 2213,
      "60": 2214,
      "ose": 2215,
      "aml": 2216,
      "ĠTEXT": 2217,
      "Ġrisk": 2218,
      "Ġgit": 2219,
      "Ġservices": 2220,
      "ritical": 2221,
      "ooks": 2222,
      "Ġdifference": 2223,
      "âĶĢâĶĢâĶĢâĶĢâĶĢâĶĢâĶĢâĶĢâĶĢâĶĢâĶĢâĶĢâĶĢâĶĢâĶĢâĶĢâĶĢâĶĢâĶĢâĶĢâĶĢâĶĢâĶĢâĶĢâĶĢâĶĢâĶĢâĶĢâĶĢâĶĢâĶĢâĶĢ": 2224,
      "plementation": 2225,
      "Ġextract": 2226,
      "Ġautomatically": 2227,
      "EY": 2228,
      "OP": 2229,
      "mat": 2230,
      "Ġ</": 2231,
      "any": 2232,
      "Ġport": 2233,
      "Ġpair": 2234,
      "Ġbl": 2235,
      "Ġbase": 2236,
      "ular": 2237,
      "ĠComplexity": 2238,
      "Ġauto": 2239,
      "Ġcharacter": 2240,
      "content": 2241,
      "ĠâĶĶ": 2242,
      "allel": 2243,
      "Cl": 2244,
      "met": 2245,
      "oice": 2246,
      "vious": 2247,
      "ze": 2248,
      "eful": 2249,
      "ATAB": 2250,
      "Ġcursor": 2251,
      "shot": 2252,
      "Ġprovide": 2253,
      "Ġrefresh": 2254,
      "ĠRedis": 2255,
      "ginx": 2256,
      "ormal": 2257,
      "ATABASE": 2258,
      "aut": 2259,
      "bound": 2260,
      "main": 2261,
      "Ġetc": 2262,
      "Ġclo": 2263,
      "Ġwait": 2264,
      "amily": 2265,
      "ĠPr": 2266,
      "Ġdepends": 2267,
      "Profile": 2268,
      "Ġmerge": 2269,
      "Ġbehavior": 2270,
      "Time": 2271,
      "message": 2272,
      "src": 2273,
      "ince": 2274,
      "Ġparent": 2275,
      "Ġconf": 2276,
      "orders": 2277,
      "ĠLo": 2278,
      "ĠList": 2279,
      "loads": 2280,
      "obile": 2281,
      "Ġendpoints": 2282,
      "Add": 2283,
      "filter": 2284,
      "Ġeffect": 2285,
      "Ġidx": 2286,
      "udit": 2287,
      "process": 2288,
      "?**": 2289,
      "Sec": 2290,
      "sub": 2291,
      "ws": 2292,
      "yaml": 2293,
      "ĠÐ": 2294,
      "Ġbal": 2295,
      "version": 2296,
      "ager": 2297,
      "Ġlogin": 2298,
      "Ġperm": 2299,
      "Ġspecial": 2300,
      "Input": 2301,
      "ĠTime": 2302,
      "Ġgiven": 2303,
      "Ġvia": 2304,
      "ception": 2305,
      "Ġdebug": 2306,
      "bab": 2307,
      "ty": 2308,
      "Ġbro": 2309,
      "Ġ[\"": 2310,
      "Ġbetter": 2311,
      "Ġparameter": 2312,
      "card": 2313,
      "cache": 2314,
      "Ġbinary": 2315,
      "amp": 2316,
      "ational": 2317,
      "ĠAL": 2318,
      "opy": 2319,
      "Ġseconds": 2320,
      "True": 2321,
      "ĠWebSocket": 2322,
      "MB": 2323,
      "mpt": 2324,
      "write": 2325,
      "Ġco": 2326,
      "ĠPl": 2327,
      "ĠDef": 2328,
      "ĠEach": 2329,
      "Ġlogging": 2330,
      "Ġexpected": 2331,
      "Content": 2332,
      "ĊĠĠĠĠĠĠĠĠĊĠĠĠĠĠĠĠ": 2333,
      "safe": 2334,
      "task": 2335,
      "âĢ": 2336,
      "Ġcatch": 2337,
      "ison": 2338,
      "usiness": 2339,
      "Ġtrace": 2340,
      "Ġindepend": 2341,
      "Keep": 2342,
      "other": 2343,
      "spec": 2344,
      "Ġâľħ": 2345,
      "Ġrequired": 2346,
      "Ġfrontend": 2347,
      "ools": 2348,
      "fficient": 2349,
      "Ġsecond": 2350,
      "ottom": 2351,
      "Why": 2352,
      "'ve": 2353,
      "ID": 2354,
      "await": 2355,
      "nly": 2356,
      "Ġcost": 2357,
      "Ġ(!": 2358,
      "loat": 2359,
      "Ġthings": 2360,
      "ĠSet": 2361,
      "Ġleft": 2362,
      "Ġcalcul": 2363,
      "Ġvariables": 2364,
      "Ġnames": 2365,
      ".,": 2366,
      "NC": 2367,
      "OW": 2368,
      "Ġmark": 2369,
      "Ġnetwork": 2370,
      "ceed": 2371,
      "plate": 2372,
      "place": 2373,
      "ĠWe": 2374,
      "ifications": 2375,
      "Ġentire": 2376,
      "ĠQu": 2377,
      "Ġsequence": 2378,
      "Ch": 2379,
      "margin": 2380,
      "Ġaction": 2381,
      "Ġmist": 2382,
      "search": 2383,
      "ĠPer": 2384,
      "Ġglob": 2385,
      "ĠThey": 2386,
      "ivity": 2387,
      "Ġcontrol": 2388,
      "Ġfailure": 2389,
      "Ġsuccess": 2390,
      "weight": 2391,
      "Ġfield": 2392,
      "nap": 2393,
      "includ": 2394,
      "stat": 2395,
      "Ġrest": 2396,
      "Ġwor": 2397,
      "Ġincre": 2398,
      "loc": 2399,
      "ripe": 2400,
      "ĠFalse": 2401,
      "Ġadded": 2402,
      "Ġlimits": 2403,
      "napshot": 2404,
      "16": 2405,
      "Element": 2406,
      "her": 2407,
      "Ġtakes": 2408,
      "ref": 2409,
      "Ġpe": 2410,
      "Ġ||": 2411,
      "aging": 2412,
      "ĠRep": 2413,
      "top": 2414,
      "Ġbeing": 2415,
      "jsx": 2416,
      "Ġcreates": 2417,
      "aches": 2418,
      "Ġconsum": 2419,
      "Ġframework": 2420,
      "================================": 2421,
      "Ġprovided": 2422,
      "Ġexactly": 2423,
      "Ġhistory": 2424,
      "`**": 2425,
      "face": 2426,
      "like": 2427,
      "Ġten": 2428,
      "itch": 2429,
      "Ġdat": 2430,
      "Ġhour": 2431,
      "Ġexternal": 2432,
      "ird": 2433,
      "Ġ80": 2434,
      "Ġdesign": 2435,
      "Ġgood": 2436,
      "ĠValue": 2437,
      "ling": 2438,
      "random": 2439,
      "secre": 2440,
      "Ġ**`": 2441,
      "âĶĢâĶĢâĶĢâĶĢâĶĢâĶĢâĶĢâĶĢâĶĢâĶĢâĶĢâĶĢ": 2442,
      "Ġprocessing": 2443,
      "Ġsolve": 2444,
      "Ġposition": 2445,
      ">;": 2446,
      "EN": 2447,
      "rust": 2448,
      "renc": 2449,
      "vers": 2450,
      "ĠREST": 2451,
      "Ġloc": 2452,
      "ĠUp": 2453,
      "Ġperformance": 2454,
      "Ġrequires": 2455,
      "radius": 2456,
      "OL": 2457,
      "find": 2458,
      "way": 2459,
      "Ġ(\"": 2460,
      "Ġinside": 2461,
      "ĠCPU": 2462,
      "Ġcomplexity": 2463,
      "irection": 2464,
      "String": 2465,
      "ĠYour": 2466,
      "entials": 2467,
      "myapp": 2468,
      "ĠServer": 2469,
      "((": 2470,
      "RF": 2471,
      "Sh": 2472,
      "gener": 2473,
      "ĊĠĠĠĠĠĠĠĠĠ": 2474,
      "pping": 2475,
      "Ġ1000": 2476,
      "ĠEn": 2477,
      "Ġsecret": 2478,
      "Ġbackend": 2479,
      "ĠHTML": 2480,
      "dev": 2481,
      "Not": 2482,
      "WS": 2483,
      "style": 2484,
      "Ġwhy": 2485,
      "','": 2486,
      "Ġcommits": 2487,
      "Ġenough": 2488,
      "Ġattempt": 2489,
      "ĠDev": 2490,
      "*.": 2491,
      "family": 2492,
      "ming": 2493,
      "rate": 2494,
      "height": 2495,
      "Ġcron": 2496,
      "Ġinternal": 2497,
      "Ġinitial": 2498,
      "ified": 2499,
      "output": 2500,
      "Ġ42": 2501,
      "Ġunique": 2502,
      "ĠAPIs": 2503,
      "ĠInput": 2504,
      "args": 2505,
      "Ġcompar": 2506,
      "Ġroute": 2507,
      "check": 2508,
      "last": 2509,
      "Ġcaching": 2510,
      "ĠIND": 2511,
      "Ġlink": 2512,
      "Ġconc": 2513,
      "vect": 2514,
      "ĠStr": 2515,
      "itional": 2516,
      "Ġgenerate": 2517,
      "Ġauthor": 2518,
      "Ġreference": 2519,
      "ĠINDEX": 2520,
      "join": 2521,
      "mary": 2522,
      "next": 2523,
      "}</": 2524,
      "ĠZ": 2525,
      "inst": 2526,
      "Ġpract": 2527,
      "ars": 2528,
      "verse": 2529,
      "Ġproxy": 2530,
      "ĠPre": 2531,
      "aking": 2532,
      "Ġprimary": 2533,
      "created": 2534,
      "ORS": 2535,
      "Ġresponses": 2536,
      "dict": 2537,
      "gg": 2538,
      "ler": 2539,
      "su": 2540,
      "Ġcould": 2541,
      "util": 2542,
      "ĠSET": 2543,
      "pper": 2544,
      "abel": 2545,
      "Ġexec": 2546,
      "Ġmean": 2547,
      "posts": 2548,
      "Ġtraffic": 2549,
      "36": 2550,
      "OIN": 2551,
      "eed": 2552,
      "node": 2553,
      "til": 2554,
      "Ġfailed": 2555,
      "admin": 2556,
      "Ġthumb": 2557,
      "Ġcomput": 2558,
      "Ġtrack": 2559,
      "Ġ500": 2560,
      "response": 2561,
      "ignore": 2562,
      "ather": 2563,
      "cursor": 2564,
      "ators": 2565,
      "ocument": 2566,
      "Ġinclude": 2567,
      "ById": 2568,
      "Ġundefined": 2569,
      "85": 2570,
      "HT": 2571,
      "call": 2572,
      "event": 2573,
      "light": 2574,
      "att": 2575,
      "Ġph": 2576,
      "ĠCode": 2577,
      "olve": 2578,
      "ĠRust": 2579,
      "Ġ25": 2580,
      "ails": 2581,
      "Ġanaly": 2582,
      "ape": 2583,
      "Ġ})": 2584,
      "ched": 2585,
      "ĠĠĠĠĠĠĠĠĠĠĠĠĠĠĠĠĠĠĠĠĠĠĠĠĠĠĠĠĠĠĠĠ": 2586,
      "ĠProblem": 2587,
      "Ġimmediate": 2588,
      "PL": 2589,
      "We": 2590,
      "]`": 2591,
      "gy": 2592,
      "jection": 2593,
      "tract": 2594,
      "Ġtree": 2595,
      "ĠSimple": 2596,
      "Ġrule": 2597,
      "(),": 2598,
      "Ġappro": 2599,
      "Example": 2600,
      "Ġbugs": 2601,
      "ĠValueError": 2602,
      "do": 2603,
      "ving": 2604,
      "ants": 2605,
      "ĠBut": 2606,
      "ires": 2607,
      "ĠState": 2608,
      "Ġcred": 2609,
      "login": 2610,
      "ULT": 2611,
      "Ġtools": 2612,
      "Ġedge": 2613,
      "late": 2614,
      "ĠKeep": 2615,
      "Ġcover": 2616,
      "Ġcenter": 2617,
      "lease": 2618,
      "Ġmakes": 2619,
      "ĠAt": 2620,
      "ĠRec": 2621,
      "essions": 2622,
      "Ġheap": 2623,
      "rome": 2624,
      "ailable": 2625,
      "Ġjoin": 2626,
      "Ġplan": 2627,
      "Ġconsider": 2628,
      "Control": 2629,
      "Ġdirectory": 2630,
      "ears": 2631,
      "Ġoriginal": 2632,
      "Auth": 2633,
      "Output": 2634,
      "mark": 2635,
      "}`": 2636,
      "ĊĊ": 2637,
      "Ġ_": 2638,
      "ĠÃĹ": 2639,
      "ero": 2640,
      "ond": 2641,
      "Ġaudit": 2642,
      "Ġinvalid": 2643,
      "eters": 2644,
      "Ġhost": 2645,
      "Ġconcurrent": 2646,
      "Ġones": 2647,
      "ources": 2648,
      "Ġaccount": 2649,
      "ocus": 2650,
      "Ġcalled": 2651,
      "ĠVerification": 2652,
      "SERT": 2653,
      "Here": 2654,
      "NS": 2655,
      "rics": 2656,
      "ilen": 2657,
      "ĠAS": 2658,
      "emp": 2659,
      "export": 2660,
      "ĠPostgres": 2661,
      "45": 2662,
      "='": 2663,
      "kip": 2664,
      "ness": 2665,
      "pack": 2666,
      "Ġjson": 2667,
      "step": 2668,
      "Ġside": 2669,
      "Ġfinal": 2670,
      "Ġopen": 2671,
      "emb": 2672,
      "Ġgives": 2673,
      "Ġanything": 2674,
      "Ġ*/": 2675,
      "ĠLog": 2676,
      "Ġdevelop": 2677,
      "Ġprevent": 2678,
      "Ġprevents": 2679,
      "ĠJWT": 2680,
      "Ġminus": 2681,
      "Ġreferences": 2682,
      "Ġattacker": 2683,
      "Ġhappen": 2684,
      "ĠYes": 2685,
      "Ver": 2686,
      "]:": 2687,
      "Ġcare": 2688,
      "Ġdiv": 2689,
      "ulner": 2690,
      "Ġprofile": 2691,
      "ĠDec": 2692,
      "Ġuntil": 2693,
      "prehen": 2694,
      "Ġsimpler": 2695,
      "ously": 2696,
      "Ġdisplay": 2697,
      "ĠNever": 2698,
      "vector": 2699,
      "AULT": 2700,
      "pattern": 2701,
      "},": 2702,
      "Ð¾": 2703,
      "ining": 2704,
      "itect": 2705,
      "etime": 2706,
      "image": 2707,
      "Ġthree": 2708,
      "Ġlines": 2709,
      "ither": 2710,
      "Ġgive": 2711,
      "chitect": 2712,
      "Ġ};": 2713,
      "ĠHand": 2714,
      "Ġsets": 2715,
      "Ġrot": 2716,
      "column": 2717,
      "Ġmigrations": 2718,
      "EFAULT": 2719,
      "âĤĤ": 2720,
      "><": 2721,
      "UM": 2722,
      "lish": 2723,
      "tn": 2724,
      "Ġenc": 2725,
      "ances": 2726,
      "Ġbad": 2727,
      "Ġbcrypt": 2728,
      "Ġlif": 2729,
      "ectl": 2730,
      "ubectl": 2731,
      "Ġprime": 2732,
      "default": 2733,
      "Ġdiff": 2734,
      "ĠImplementation": 2735,
      "\"),": 2736,
      "-|": 2737,
      "WHERE": 2738,
      "da": 2739,
      "ories": 2740,
      "Ġfrequ": 2741,
      "Ġdel": 2742,
      "illed": 2743,
      "uration": 2744,
      "ump": 2745,
      "ĠProm": 2746,
      "ived": 2747,
      "tool": 2748,
      "astAPI": 2749,
      "Ġparallel": 2750,
      "Ġplus": 2751,
      "ĠValid": 2752,
      "Ġcookie": 2753,
      "ever": 2754,
      "sions": 2755,
      "zy": 2756,
      "Ġden": 2757,
      "arly": 2758,
      "Ġnar": 2759,
      "acing": 2760,
      "Ġoc": 2761,
      "ural": 2762,
      "ĠSS": 2763,
      "plied": 2764,
      "aining": 2765,
      "currenc": 2766,
      "ĠCommon": 2767,
      "âĶĢâĶĲ": 2768,
      "ĠResult": 2769,
      "Ġequal": 2770,
      "Ġagainst": 2771,
      "IL": 2772,
      "IP": 2773,
      "Qu": 2774,
      "ged": 2775,
      "lection": 2776,
      "alind": 2777,
      "Ġpg": 2778,
      "Ġhit": 2779,
      "ĠInc": 2780,
      "Ġlow": 2781,
      "ĠWith": 2782,
      "Ġque": 2783,
      "comp": 2784,
      "Ġreading": 2785,
      "Ġindexes": 2786,
      "Ġmodels": 2787,
      "Ġlibraries": 2788,
      "Ġmatches": 2789,
      "ĠReturns": 2790,
      "ĠJavaScript": 2791,
      "Ġcomparison": 2792,
      "54": 2793,
      "An": 2794,
      "Val": 2795,
      "fo": 2796,
      "null": 2797,
      "rag": 2798,
      "inci": 2799,
      "Ġpers": 2800,
      "Ġdashboard": 2801,
      "Ġstyle": 2802,
      "estig": 2803,
      "Ġlang": 2804,
      "getElement": 2805,
      "format": 2806,
      "Ġcallback": 2807,
      "ESC": 2808,
      "Ġdescri": 2809,
      "Ġ&&": 2810,
      "inciple": 2811,
      "getElementById": 2812,
      "Red": 2813,
      "can": 2814,
      "part": 2815,
      "})": 2816,
      "}\",": 2817,
      "Ġfin": 2818,
      "Ġbor": 2819,
      "acity": 2820,
      "ĠCan": 2821,
      "emo": 2822,
      "ĠDEFAULT": 2823,
      "server": 2824,
      "ĠGo": 2825,
      "Ġseg": 2826,
      "Ġupload": 2827,
      "Ġjob": 2828,
      "Ġlists": 2829,
      "ĠInst": 2830,
      "Ġinputs": 2831,
      "Ġplace": 2832,
      "Ġweek": 2833,
      "Ġtables": 2834,
      "Ġinteger": 2835,
      "ĠApproach": 2836,
      "Ġregist": 2837,
      ":'": 2838,
      "DATABASE": 2839,
      "Effect": 2840,
      "build": 2841,
      "des": 2842,
      "ru": 2843,
      "Ġcatches": 2844,
      "oup": 2845,
      "ĠData": 2846,
      "ĠMod": 2847,
      "ferences": 2848,
      "Ġdelete": 2849,
      "profile": 2850,
      "Ġcontains": 2851,
      "Ġupdates": 2852,
      "Post": 2853,
      "Ġsessions": 2854,
      "Ġpython": 2855,
      "Ġpublic": 2856,
      "isions": 2857,
      "Ġrev": 2858,
      "Ġmap": 2859,
      "arning": 2860,
      "etimes": 2861,
      "userId": 2862,
      "Ġprobab": 2863,
      "eploy": 2864,
      "ĠDESC": 2865,
      "Ġusage": 2866,
      "ĠOption": 2867,
      "Ġtrig": 2868,
      "ĠuseState": 2869,
      "Ġworking": 2870,
      "Ġdefin": 2871,
      "Ġreads": 2872,
      "Ġfew": 2873,
      "Ġconsist": 2874,
      "Problem": 2875,
      "Ġintegr": 2876,
      "ĠDesign": 2877,
      "ĠALL": 2878,
      "37": 2879,
      "AC": 2880,
      "Check": 2881,
      "Read": 2882,
      "Set": 2883,
      "ced": 2884,
      "ox": 2885,
      "sum": 2886,
      "web": 2887,
      "ention": 2888,
      "ident": 2889,
      "utable": 2890,
      "Ġlater": 2891,
      "irm": 2892,
      "sert": 2893,
      "Ġminimum": 2894,
      "after": 2895,
      "Ġdeployment": 2896,
      "Ġintegers": 2897,
      "Ġcomponents": 2898,
      "Result": 2899,
      "rivate": 2900,
      "'d": 2901,
      "22": 2902,
      ">>": 2903,
      "Lo": 2904,
      "center": 2905,
      "sort": 2906,
      "ux": 2907,
      "Ġpush": 2908,
      "Ġwrap": 2909,
      "arr": 2910,
      "ĠAut": 2911,
      "Ġ+=": 2912,
      "LETE": 2913,
      "Ġpossible": 2914,
      "Ġrole": 2915,
      "ultiple": 2916,
      "Ġedit": 2917,
      "Ġscripts": 2918,
      "Ġshows": 2919,
      "ARY": 2920,
      "Ġboundary": 2921,
      "3000": 2922,
      "DN": 2923,
      "FROM": 2924,
      "Gener": 2925,
      "Mod": 2926,
      "cs": 2927,
      "css": 2928,
      "pip": 2929,
      "right": 2930,
      "tod": 2931,
      "rec": 2932,
      "Ġcert": 2933,
      "Ġredu": 2934,
      "arn": 2935,
      "acy": 2936,
      "Ġos": 2937,
      "Ġ`/": 2938,
      "Ġla": 2939,
      "Ġexpress": 2940,
      "ĠDatabase": 2941,
      "ĠOne": 2942,
      "ustand": 2943,
      "oken": 2944,
      "____": 2945,
      "Ġnothing": 2946,
      "Ġmultiplied": 2947,
      "Ġredirect": 2948,
      "commend": 2949,
      "btn": 2950,
      "kubectl": 2951,
      "llo": 2952,
      "lib": 2953,
      "times": 2954,
      "}\"": 2955,
      "Ġant": 2956,
      "Ġcoding": 2957,
      "Ġcritical": 2958,
      "Ġcopy": 2959,
      "**.": 2960,
      "Ġpages": 2961,
      "isect": 2962,
      "Ġbest": 2963,
      "Ġinform": 2964,
      "thread": 2965,
      "ĠThat": 2966,
      "Ġvulner": 2967,
      "Ġreset": 2968,
      "Ġproblems": 2969,
      "\"\"\"": 2970,
      "Ġclients": 2971,
      "Ġloading": 2972,
      "Ġsends": 2973,
      "DB": 2974,
      "ELETE": 2975,
      "dig": 2976,
      "dec": 2977,
      "sight": 2978,
      "Ġfloat": 2979,
      "anager": 2980,
      "Ġrece": 2981,
      "Ġmiddleware": 2982,
      "etes": 2983,
      "ilities": 2984,
      "Ġthing": 2985,
      "ĠIter": 2986,
      "ested": 2987,
      "ĠCORS": 2988,
      "Ġoften": 2989,
      "Ġwithin": 2990,
      "Ġshort": 2991,
      "ĠWork": 2992,
      "Ġart": 2993,
      "âĶĢâĶĺ": 2994,
      "Ġobjects": 2995,
      "Ġconstraints": 2996,
      "HA": 2997,
      "HE": 2998,
      "pass": 2999,
      "left": 3000,
      "ises": 3001,
      "Ġmove": 3002,
      "Ġbisect": 3003,
      "oded": 3004,
      "ĠBest": 3005,
      "Ġanother": 3006,
      "izing": 3007,
      "Ġnotifications": 3008,
      "Ġinstances": 3009,
      "ibility": 3010,
      "Ġgetting": 3011,
      "ĠConfig": 3012,
      "Ġrequirements": 3013,
      "Ġsteps": 3014,
      "Ġimplementation": 3015,
      "ĠURLs": 3016,
      "42": 3017,
      "400": 3018,
      "600": 3019,
      "GB": 3020,
      "Limit": 3021,
      "catch": 3022,
      "iod": 3023,
      "mb": 3024,
      "Ġapi": 3025,
      "Ġreject": 3026,
      "Ġbusiness": 3027,
      "Ġstream": 3028,
      "Ġexplain": 3029,
      "Storage": 3030,
      "ubern": 3031,
      "rowing": 3032,
      "|----------------": 3033,
      "IMARY": 3034,
      "Ġblocks": 3035,
      "parse": 3036,
      "raphQL": 3037,
      "Ġsorted": 3038,
      "ĠPRIMARY": 3039,
      "ĠContent": 3040,
      "Ġtenant": 3041,
      "Ġimmediately": 3042,
      "ubernetes": 3043,
      "Alice": 3044,
      "fn": 3045,
      "send": 3046,
      "Ġter": 3047,
      "Ġtech": 3048,
      "rel": 3049,
      "ane": 3050,
      "âĶľâĶĢâĶĢ": 3051,
      "âĶĢâĶĢâĶ": 3052,
      "Ġeither": 3053,
      "ĊĠĠĠĠĠĠĠĠĠĠĠĠĠĠĠĠĠĠĠĠ": 3054,
      "ames": 3055,
      "Ġstorage": 3056,
      "===": 3057,
      "agination": 3058,
      "ĠĠĠĠĠĠĠĠĠĠĠĠĠ": 3059,
      "chron": 3060,
      "fully": 3061,
      "Ġ['": 3062,
      "commit": 3063,
      "Ġ/>": 3064,
      "Ġaccept": 3065,
      "Ġtransaction": 3066,
      "ĠKEY": 3067,
      "Ġfaster": 3068,
      "Ġsignature": 3069,
      "Ġhappens": 3070,
      "Ġswitch": 3071,
      "Ġwords": 3072,
      "Ġhours": 3073,
      "To": 3074,
      "nown": 3075,
      "number": 3076,
      "payment": 3077,
      "uch": 3078,
      "Ġsnapshot": 3079,
      "Ġreplic": 3080,
      "Ġws": 3081,
      "Ġwell": 3082,
      "ety": 3083,
      "estamp": 3084,
      "ume": 3085,
      "Ġwho": 3086,
      "ĠEmail": 3087,
      "Ġversions": 3088,
      "Ġens": 3089,
      "structure": 3090,
      "ĠExpress": 3091,
      "Inter": 3092,
      "prime": 3093,
      "Ġextra": 3094,
      "IMIT": 3095,
      "Ġmetrics": 3096,
      "Ġgroup": 3097,
      "Ġspecialist": 3098,
      "55": 3099,
      "Click": 3100,
      "LI": 3101,
      "Test": 3102,
      "bottom": 3103,
      "ges": 3104,
      "just": 3105,
      "sing": 3106,
      "Ġour": 3107,
      "orator": 3108,
      "Ġcateg": 3109,
      "Ġsil": 3110,
      "align": 3111,
      "Ġdict": 3112,
      "Ġmobile": 3113,
      "asic": 3114,
      "etter": 3115,
      "ĠSame": 3116,
      "Ġvis": 3117,
      "Ġ${": 3118,
      "grade": 3119,
      "product": 3120,
      "Ġpackages": 3121,
      "ĠâĶĮ": 3122,
      "Ġfeatures": 3123,
      "Ġcredentials": 3124,
      "([": 3125,
      "bar": 3126,
      "click": 3127,
      "td": 3128,
      "wise": 3129,
      "Ġ---": 3130,
      "render": 3131,
      "ilar": 3132,
      "amb": 3133,
      "Ġ`[": 3134,
      "ĠSum": 3135,
      "ĠAWS": 3136,
      "olic": 3137,
      "empty": 3138,
      "ĠGit": 3139,
      "ĠGood": 3140,
      "igration": 3141,
      "Ġrecords": 3142,
      "Approach": 3143,
      "ĠSELECT": 3144,
      "Ġprobably": 3145,
      "AN": 3146,
      "Ref": 3147,
      "UR": 3148,
      "go": 3149,
      "hook": 3150,
      "ration": 3151,
      "sk": 3152,
      "Ġsent": 3153,
      "alice": 3154,
      "ĠAll": 3155,
      "eck": 3156,
      "Ġoff": 3157,
      "ĠREF": 3158,
      "Ġcomments": 3159,
      "....": 3160,
      "Start": 3161,
      "append": 3162,
      "__(": 3163,
      "Ġchecking": 3164,
      "ĠJS": 3165,
      "Ġfailures": 3166,
      "ERENC": 3167,
      "Ġmaximum": 3168,
      "ĠNOW": 3169,
      "Context": 3170,
      "Ġpoints": 3171,
      "ĠJSONB": 3172,
      "Ġflag": 3173,
      "Ġpipeline": 3174,
      "Ġlayer": 3175,
      "ilename": 3176,
      "ĠREFERENC": 3177,
      "ĠREFERENCES": 3178,
      "(*": 3179,
      "19": 3180,
      "44": 3181,
      "Def": 3182,
      "RU": 3183,
      "UB": 3184,
      "]);": 3185,
      "actions": 3186,
      "split": 3187,
      "Īâĸ": 3188,
      "atform": 3189,
      "allow": 3190,
      "Ġearly": 3191,
      "ĠIN": 3192,
      "Ġstop": 3193,
      "Ġstaging": 3194,
      "ĠCSS": 3195,
      "Ġconvert": 3196,
      "ĠPOST": 3197,
      "rior": 3198,
      "ĠMethod": 3199,
      "Ġtesting": 3200,
      "Ġworker": 3201,
      "Ġscop": 3202,
      "contain": 3203,
      "headers": 3204,
      "ĠNeed": 3205,
      "Ġmonitor": 3206,
      "ĠShould": 3207,
      "Ġinvestig": 3208,
      "Client": 3209,
      "specific": 3210,
      "utils": 3211,
      "Ġanalyze": 3212,
      "Ġapproaches": 3213,
      "empot": 3214,
      "alindrome": 3215,
      "></": 3216,
      "?\"": 3217,
      "CS": 3218,
      "orrect": 3219,
      "Ġdate": 3220,
      "Ġduplic": 3221,
      "Ġreport": 3222,
      "Ġwra": 3223,
      "Ġbott": 3224,
      "Ġstrict": 3225,
      "Ġexit": 3226,
      "Ġwhole": 3227,
      "Ġalmost": 3228,
      "allback": 3229,
      "ĠâĨĲ": 3230,
      "Ġchain": 3231,
      "Ġchild": 3232,
      "service": 3233,
      "ebug": 3234,
      "afety": 3235,
      "ING": 3236,
      "Ġbuilding": 3237,
      "Ġdescription": 3238,
      "Ġoperation": 3239,
      "leneck": 3240,
      "Ġmanager": 3241,
      "Ġavoid": 3242,
      "Ġcrash": 3243,
      "---|---|": 3244,
      "Ġexplicitly": 3245,
      "Ġqueue": 3246,
      "Ġbottleneck": 3247,
      "(`": 3248,
      "500": 3249,
      "JSON": 3250,
      "Un": 3251,
      "`:": 3252,
      "tx": 3253,
      "Ġurl": 3254,
      "Ġcap": 3255,
      "Ġrep": 3256,
      "Ġmode": 3257,
      "this": 3258,
      "Ġev": 3259,
      "Ġefficient": 3260,
      "ĠCON": 3261,
      "Ġview": 3262,
      "rib": 3263,
      "izes": 3264,
      "ĠLow": 3265,
      "Ġserial": 3266,
      "Ġmeas": 3267,
      "ĠStore": 3268,
      "Ġdelet": 3269,
      "ensitive": 3270,
      "iveness": 3271,
      "--------------------------------": 3272,
      "ĠVerify": 3273,
      "IONS": 3274,
      "ĠConsider": 3275,
      "chedul": 3276,
      "olicy": 3277,
      "01": 3278,
      "90": 3279,
      "AIN": 3280,
      "Count": 3281,
      "Hub": 3282,
      "IAL": 3283,
      "df": 3284,
      "wrap": 3285,
      "âĨ": 3286,
      "Ġdid": 3287,
      "etry": 3288,
      "nders": 3289,
      "cket": 3290,
      "raw": 3291,
      "Ġheight": 3292,
      "ĠBuild": 3293,
      "Ġ400": 3294,
      "Ġcannot": 3295,
      "Ġprinciple": 3296,
      "Ġarr": 3297,
      "Ġunder": 3298,
      "Ġscan": 3299,
      "ĠâľĹ": 3300,
      "primary": 3301,
      "delete": 3302,
      "ĠâĶľâĶĢâĶĢ": 3303,
      "Ġexamples": 3304,
      "Ġinfo": 3305,
      "Ġamount": 3306,
      "OPY": 3307,
      "Verification": 3308,
      "AS": 3309,
      "Most": 3310,
      "cr": 3311,
      "day": 3312,
      "lass": 3313,
      "ties": 3314,
      "hello": 3315,
      "Ġdeter": 3316,
      "Ġrepl": 3317,
      "Ġinjection": 3318,
      "ading": 3319,
      "adata": 3320,
      "Ġ`<": 3321,
      "unch": 3322,
      "ctionary": 3323,
      "Ġgot": 3324,
      "ership": 3325,
      "ĠBIG": 3326,
      "services": 3327,
      "ternative": 3328,
      "Ġdeep": 3329,
      "Ġvert": 3330,
      "produ": 3331,
      "ORDER": 3332,
      "IMEST": 3333,
      "requests": 3334,
      "Response": 3335,
      "ĠCloud": 3336,
      "Ġcookies": 3337,
      "connect": 3338,
      "ĠUpdate": 3339,
      "IMESTAM": 3340,
      "por": 3341,
      "vant": 3342,
      "ycle": 3343,
      "Ġerr": 3344,
      "hether": 3345,
      "health": 3346,
      "leg": 3347,
      "Ġfree": 3348,
      "Ġrestart": 3349,
      "Ġmuch": 3350,
      "used": 3351,
      "lose": 3352,
      "very": 3353,
      "ĠTwo": 3354,
      "ppercase": 3355,
      "ĠUPDATE": 3356,
      "ĠEX": 3357,
      "Ġshare": 3358,
      "Ġquant": 3359,
      "ationship": 3360,
      "Ġaddress": 3361,
      "Ġenfor": 3362,
      "Ġsecure": 3363,
      "|---------": 3364,
      "Ġstarts": 3365,
      "Ġdefaults": 3366,
      "Ġlocks": 3367,
      "Ġpasswords": 3368,
      "Ġproducts": 3369,
      "Ġavailable": 3370,
      "aintain": 3371,
      "ributed": 3372,
      "party": 3373,
      "EAD": 3374,
      "IC": 3375,
      "QU": 3376,
      "Tools": 3377,
      "UPDATE": 3378,
      "WUB": 3379,
      "ZE": 3380,
      "bin": 3381,
      "gs": 3382,
      "memory": 3383,
      "require": 3384,
      "âĶĶ": 3385,
      "account": 3386,
      "aclass": 3387,
      "emon": 3388,
      "orepo": 3389,
      "ĠLook": 3390,
      "cons": 3391,
      "client": 3392,
      "ĠRequest": 3393,
      "Ġactive": 3394,
      "ogle": 3395,
      "Ġmatters": 3396,
      "Ġcondition": 3397,
      "âĶģâĶģâĶģâĶģ": 3398,
      "herit": 3399,
      "\".": 3400,
      ")]": 3401,
      "/*": 3402,
      "66": 3403,
      "];": 3404,
      "ience": 3405,
      "uid": 3406,
      "yd": 3407,
      "Ðµ": 3408,
      "Ð¸": 3409,
      "Ġcore": 3410,
      "Ġredis": 3411,
      "Ġthird": 3412,
      "ĠAuth": 3413,
      "Ġround": 3414,
      "ĠFinal": 3415,
      "Ġbackground": 3416,
      "tings": 3417,
      "ensive": 3418,
      "ĠNew": 3419,
      "Ġcleanup": 3420,
      "Ġgrid": 3421,
      "Ġcorrectly": 3422,
      "Ġeasy": 3423,
      "Ġmistake": 3424,
      "Ġdevelopment": 3425,
      "ĠPromise": 3426,
      "currency": 3427,
      "Ġlangu": 3428,
      "].": 3429,
      "ople": 3430,
      "patch": 3431,
      "inner": 3432,
      "ats": 3433,
      "orization": 3434,
      "Ġcell": 3435,
      "leep": 3436,
      "Ġmaking": 3437,
      "arm": 3438,
      "Ġbig": 3439,
      "Ġ({": 3440,
      "iffer": 3441,
      "Ġisol": 3442,
      "igin": 3443,
      "ĠCOL": 3444,
      "abc": 3445,
      "rip": 3446,
      "##..": 3447,
      "pli": 3448,
      "ĠGraphQL": 3449,
      "\"><": 3450,
      "Ġ>=": 3451,
      "Ġsolid": 3452,
      "Ġcompiler": 3453,
      "param": 3454,
      "|------": 3455,
      "Ġorigin": 3456,
      "position": 3457,
      "Server": 3458,
      "Ġbalance": 3459,
      "instance": 3460,
      "ember": 3461,
      "ĪâĸĪâĸ": 3462,
      "Head": 3463,
      "With": 3464,
      "Write": 3465,
      "mine": 3466,
      "sign": 3467,
      "Ð°": 3468,
      "erate": 3469,
      "inct": 3470,
      "info": 3471,
      "Ġtitle": 3472,
      "stems": 3473,
      "ense": 3474,
      "Ġsur": 3475,
      "Ġfore": 3476,
      "ann": 3477,
      "ounc": 3478,
      "Ġrecur": 3479,
      "odes": 3480,
      "Ġstatic": 3481,
      "ĠSw": 3482,
      "Ġlarg": 3483,
      "ĠDo": 3484,
      "Ġuseful": 3485,
      "Ġcomprehen": 3486,
      "oute": 3487,
      "ĠUnderstand": 3488,
      "Ġappears": 3489,
      "ired": 3490,
      "ayer": 3491,
      "Ġ47": 3492,
      "Ġperiod": 3493,
      "Ġadding": 3494,
      "Ġinstance": 3495,
      "ĠExtract": 3496,
      "Ġspecifically": 3497,
      "Ġfailing": 3498,
      "return": 3499,
      "postgres": 3500,
      "Ġlikely": 3501,
      "idden": 3502,
      "Ġroutes": 3503,
      "|-------": 3504,
      "ĠOrder": 3505,
      "ĠORDER": 3506,
      "Ġpairs": 3507,
      "200": 3508,
      "33": 3509,
      "Create": 3510,
      "drop": 3511,
      "ln": 3512,
      "parent": 3513,
      "then": 3514,
      "Ġ```": 3515,
      "ĳâĸ": 3516,
      "stream": 3517,
      "enari": 3518,
      "Ġsay": 3519,
      "Ġsrc": 3520,
      "als": 3521,
      "Ġdrop": 3522,
      "asy": 3523,
      "ĊĠĠĠĠĠĠ": 3524,
      "Ġok": 3525,
      "Ġthrow": 3526,
      "ĠSp": 3527,
      "ends": 3528,
      "Ġ24": 3529,
      "ĠFastAPI": 3530,
      "ultip": 3531,
      "Ġresource": 3532,
      "ĠOpen": 3533,
      "Ġchoice": 3534,
      "Ġtrust": 3535,
      "grid": 3536,
      "Ġadds": 3537,
      "Ġfixes": 3538,
      "Ġlimiting": 3539,
      "Ġexpect": 3540,
      "Ġeverywhere": 3541,
      "INSERT": 3542,
      "ALTER": 3543,
      "ĠAnswer": 3544,
      "Ġallowed": 3545,
      "Ġmethods": 3546,
      "Ġconditions": 3547,
      "Ġâī¤": 3548,
      "ĠDefine": 3549,
      "include": 3550,
      "14": 3551,
      "17": 3552,
      "Ar": 3553,
      "counter": 3554,
      "target": 3555,
      "};": 3556,
      "Ð½": 3557,
      "Ġtags": 3558,
      "Ġactions": 3559,
      "oring": 3560,
      "**,": 3561,
      "Ġpick": 3562,
      "Ġrepo": 3563,
      "Ġrecommend": 3564,
      "using": 3565,
      "ndex": 3566,
      "Ġoptional": 3567,
      "ĠTIMESTAM": 3568,
      "istic": 3569,
      "ote": 3570,
      "cel": 3571,
      "Ġusername": 3572,
      "update": 3573,
      "ayload": 3574,
      "ĠHigh": 3575,
      "Ġunit": 3576,
      "Ġprevious": 3577,
      "chemy": 3578,
      "Ġparameters": 3579,
      "Ġmanagement": 3580,
      "Ġproperties": 3581,
      "modules": 3582,
      "PTZ": 3583,
      "meta": 3584,
      "Ġglobal": 3585,
      "ĠDevTools": 3586,
      "Ġsilently": 3587,
      "!(\"": 3588,
      "75": 3589,
      "EG": 3590,
      "Hel": 3591,
      "Run": 3592,
      "first": 3593,
      "sl": 3594,
      "Ġtax": 3595,
      "Ġtake": 3596,
      "Ġage": 3597,
      "heap": 3598,
      "enef": 3599,
      "Ġsync": 3600,
      "root": 3601,
      "());": 3602,
      "lower": 3603,
      "index": 3604,
      "avy": 3605,
      "umbers": 3606,
      "ĠReview": 3607,
      "Ġ1024": 3608,
      "Ġsimilar": 3609,
      "ĠForm": 3610,
      "Ġoverhead": 3611,
      "ĠTrans": 3612,
      "header": 3613,
      "echan": 3614,
      "Ġconnect": 3615,
      "Ġdiag": 3616,
      "Ġidentify": 3617,
      "13": 3618,
      "Each": 3619,
      "GET": 3620,
      "None": 3621,
      "Ph": 3622,
      "Rate": 3623,
      "Web": 3624,
      "ah": 3625,
      "cident": 3626,
      "ha": 3627,
      "hell": 3628,
      "Ġcrypt": 3629,
      "Ġdays": 3630,
      "Ġhooks": 3631,
      "Ġvol": 3632,
      "ĠFeature": 3633,
      "Ġapplic": 3634,
      "ĠâĨĵ": 3635,
      "Ġverification": 3636,
      "Ġunless": 3637,
      "ograph": 3638,
      "Ġwants": 3639,
      "which": 3640,
      "ĠXSS": 3641,
      "Ġteams": 3642,
      "transform": 3643,
      "ĠGenerate": 3644,
      "Ġdebugging": 3645,
      "mptom": 3646,
      "secret": 3647,
      "ambda": 3648,
      "pliance": 3649,
      "ĠTIMESTAMPTZ": 3650,
      "$.": 3651,
      "Access": 3652,
      "UID": 3653,
      "close": 3654,
      "fail": 3655,
      "zone": 3656,
      "Ġener": 3657,
      "Ġtri": 3658,
      "edit": 3659,
      "Ġforce": 3660,
      "emplate": 3661,
      "ĠĠĠĠĠĠĠĠĠĠĠĠ": 3662,
      "ĠFr": 3663,
      "Ġhealth": 3664,
      "ĠMost": 3665,
      "tocol": 3666,
      "ĠStart": 3667,
      "pytest": 3668,
      "Ġdecorator": 3669,
      "Ġcapt": 3670,
      "Allow": 3671,
      "Trans": 3672,
      "Ġthreads": 3673,
      "tenant": 3674,
      "Ġprojects": 3675,
      "Ġconflicts": 3676,
      "Ġtyping": 3677,
      "ĠAtt": 3678,
      "Ġrepresent": 3679,
      "92": 3680,
      "Event": 3681,
      "Email": 3682,
      "Is": 3683,
      "Only": 3684,
      "VAL": 3685,
      "label": 3686,
      "pending": 3687,
      "table": 3688,
      "Â²": 3689,
      "onac": 3690,
      "Ġsafety": 3691,
      "ission": 3692,
      "aract": 3693,
      "ometimes": 3694,
      "ĠCount": 3695,
      "ĠCDN": 3696,
      "Ġprop": 3697,
      "ĠFirst": 3698,
      "ĠOn": 3699,
      "Ġleast": 3700,
      "Ġcontin": 3701,
      "Ġenable": 3702,
      "ibonac": 3703,
      "Ġservers": 3704,
      "ĠComp": 3705,
      "Ġscore": 3706,
      "overy": 3707,
      "Ġtiming": 3708,
      "ĠKubernetes": 3709,
      "Ġremo": 3710,
      "ĠCSRF": 3711,
      "Ġ!=": 3712,
      "Ġlocally": 3713,
      "attempt": 3714,
      "empotency": 3715,
      "ibonacci": 3716,
      ":{": 3717,
      "After": 3718,
      "Best": 3719,
      "CM": 3720,
      "COPY": 3721,
      "Find": 3722,
      "ipping": 3723,
      "me": 3724,
      "push": 3725,
      "atency": 3726,
      "Ġcross": 3727,
      "itize": 3728,
      "Ġsql": 3729,
      "alcul": 3730,
      "Ġrename": 3731,
      "Ġmay": 3732,
      "Ġbo": 3733,
      "Ġlive": 3734,
      "Ġ18": 3735,
      "Ġprogress": 3736,
      "ĠPar": 3737,
      "Ġrace": 3738,
      "ĠRisk": 3739,
      "ntax": 3740,
      "Ġprocesses": 3741,
      "Ġparse": 3742,
      "Ġsystems": 3743,
      "engine": 3744,
      "Ġbackup": 3745,
      "price": 3746,
      "Exception": 3747,
      "Ġentry": 3748,
      "Ġpaths": 3749,
      "Ġknows": 3750,
      "Connection": 3751,
      "Ġbreaking": 3752,
      "Ġpositions": 3753,
      "Ġexceptions": 3754,
      "Ġtasks": 3755,
      "ĠExamples": 3756,
      "âķĲâķĲâķĲâķĲâķĲâķĲâķĲâķĲâķĲâķĲâķĲâķĲâķĲâķĲâķĲâķĲ": 3757,
      "UMN": 3758,
      "Interval": 3759,
      "ĠCOLUMN": 3760,
      "Ġenergy": 3761,
      "CD": 3762,
      "Rec": 3763,
      "][": 3764,
      "bit": 3765,
      "how": 3766,
      "Ġwon": 3767,
      "Ġwhether": 3768,
      "arant": 3769,
      "ental": 3770,
      "Ġnginx": 3771,
      "username": 3772,
      "Ġ`?": 3773,
      "ĠSpace": 3774,
      "oll": 3775,
      "unk": 3776,
      "agic": 3777,
      "rastructure": 3778,
      "ĠuserId": 3779,
      "ĠLe": 3780,
      "come": 3781,
      "Ġcodebase": 3782,
      "Ġmodern": 3783,
      "Ġtransactions": 3784,
      "Ġimportant": 3785,
      "Ġupdated": 3786,
      "Ġcached": 3787,
      "Ġasks": 3788,
      "Ġtells": 3789,
      "Ġindependently": 3790,
      "Ð¾Ð": 3791,
      "Ġdefinition": 3792,
      "18": 3793,
      "21": 3794,
      ">{": 3795,
      "PA": 3796,
      "Pre": 3797,
      "Two": 3798,
      "depend": 3799,
      "gap": 3800,
      "has": 3801,
      "rid": 3802,
      "sync": 3803,
      "ÑĤ": 3804,
      "Ġdp": 3805,
      "Ġrele": 3806,
      "entify": 3807,
      "Ġstud": 3808,
      "ĠĠĠĠĠĠĠĠĠĠĠĠĠĠĠ": 3809,
      "Ġstrategy": 3810,
      "Ġimpro": 3811,
      "Ġenum": 3812,
      "\"></": 3813,
      "spect": 3814,
      "issions": 3815,
      "Ġremove": 3816,
      "Config": 3817,
      "React": 3818,
      "Ġloops": 3819,
      "ĠAlgorithm": 3820,
      "Ġcommands": 3821,
      "ĠUsing": 3822,
      "Timeout": 3823,
      "ĠWithout": 3824,
      "5432": 3825,
      "Ġants": 3826,
      "Ġinformation": 3827,
      "ĠGitHub": 3828,
      "ifferent": 3829,
      "ĳâĸĳâĸ": 3830,
      "++": 3831,
      ".\"\"\"": 3832,
      "78": 3833,
      "De": 3834,
      "Look": 3835,
      "VE": 3836,
      "bot": 3837,
      "pg": 3838,
      "wt": 3839,
      "writ": 3840,
      "ana": 3841,
      "Ġwins": 3842,
      "asing": 3843,
      "entry": 3844,
      "ĠâĢ¢": 3845,
      "ĠOOM": 3846,
      "Ġalert": 3847,
      "ival": 3848,
      "omething": 3849,
      "Ġdocs": 3850,
      "Ġrelationship": 3851,
      "Ġnamed": 3852,
      "Ġguess": 3853,
      "Ġdictionary": 3854,
      "Ġwrites": 3855,
      "roller": 3856,
      "Ġcarefully": 3857,
      "txt": 3858,
      "haust": 3859,
      "\"`": 3860,
      "96": 3861,
      "UT": 3862,
      "del": 3863,
      "gan": 3864,
      "hover": 3865,
      "nginx": 3866,
      "pected": 3867,
      "uation": 3868,
      "your": 3869,
      "heit": 3870,
      "Ġmiss": 3871,
      "Ġbash": 3872,
      "Ġbool": 3873,
      "ents": 3874,
      "Ġoption": 3875,
      "Ġstd": 3876,
      "Ġprompt": 3877,
      "Ġvars": 3878,
      "antic": 3879,
      "ĠOnly": 3880,
      "upload": 3881,
      "ĠUN": 3882,
      "plan": 3883,
      "ĠThese": 3884,
      "Ġcreating": 3885,
      "clus": 3886,
      "|-----------": 3887,
      "flight": 3888,
      "Ġkeeps": 3889,
      "Ġrelated": 3890,
      "renheit": 3891,
      "Ġgroups": 3892,
      "Ġoccur": 3893,
      "âĨĴ": 3894,
      "ahrenheit": 3895,
      ")):": 3896,
      "DI": 3897,
      "Map": 3898,
      "ba": 3899,
      "coded": 3900,
      "fect": 3901,
      "fill": 3902,
      "pact": 3903,
      "var": 3904,
      "ĿĮ": 3905,
      "ouch": 3906,
      "ouble": 3907,
      "ula": 3908,
      "abilities": 3909,
      "Ġitself": 3910,
      "izer": 3911,
      "Ġshape": 3912,
      "Ġbeen": 3913,
      "connection": 3914,
      "Ġdefine": 3915,
      "udo": 3916,
      "Ġexpir": 3917,
      "Ġexpires": 3918,
      "Ġemails": 3919,
      "Invalid": 3920,
      "Ġ90": 3921,
      "Ġstarting": 3922,
      "Ġgenerator": 3923,
      "Ġraw": 3924,
      "Ġblocking": 3925,
      "Ġbreaks": 3926,
      "Ġzero": 3927,
      "ĠClient": 3928,
      "Ġboundaries": 3929,
      "Ġlayout": 3930,
      "Ġâī¥": 3931,
      "\"{": 3932,
      ".*": 3933,
      "But": 3934,
      "DD": 3935,
      "Node": 3936,
      "bed": 3937,
      "cert": 3938,
      "high": 3939,
      "oh": 3940,
      "page": 3941,
      "public": 3942,
      "Ġrepe": 3943,
      "Ġâķ": 3944,
      "omes": 3945,
      "Ġhook": 3946,
      "Ġhold": 3947,
      "iginal": 3948,
      "ĠId": 3949,
      "ĠTo": 3950,
      "ĠAc": 3951,
      "ĠAss": 3952,
      "Ġconcurrency": 3953,
      "Ġexper": 3954,
      "ĠDNS": 3955,
      "ĠDeploy": 3956,
      "ultane": 3957,
      "Ġdoing": 3958,
      "Ġdead": 3959,
      "group": 3960,
      "pointer": 3961,
      "Ġlisten": 3962,
      "ĠJOIN": 3963,
      "Ġdecl": 3964,
      "ĠHTTPS": 3965,
      "Ġstored": 3966,
      "edia": 3967,
      "ierarch": 3968,
      "Ġmatching": 3969,
      "Ġreasoning": 3970,
      "ĠSecrets": 3971,
      "ĠArgs": 3972,
      "auto": 3973,
      "ĠPrint": 3974,
      "Should": 3975,
      "Ġpractical": 3976,
      "ggle": 3977,
      "chitecture": 3978,
      "csv": 3979,
      "95": 3980,
      "EW": 3981,
      "Sub": 3982,
      "Token": 3983,
      "aa": 3984,
      "cat": 3985,
      "cceed": 3986,
      "field": 3987,
      "feature": 3988,
      "lap": 3989,
      "non": 3990,
      "sol": 3991,
      "uilt": 3992,
      "what": 3993,
      "}'": 3994,
      "âľ": 3995,
      "Ġes": 3996,
      "Ġsa": 3997,
      "Ġsometimes": 3998,
      "**`": 3999,
      "Ġpur": 4000,
      "Ġpagination": 4001,
      "Ġreverse": 4002,
      "Ġ('": 4003,
      "ĠâĿĮ": 4004,
      "ift": 4005,
      "urst": 4006,
      "ĠCase": 4007,
      "ĠSu": 4008,
      "Ġliter": 4009,
      "sec": 4010,
      "istent": 4011,
      "Ġyet": 4012,
      "ĠĠĠĠĠĠĠĠĠĠĠĠĠĠ": 4013,
      "ĠRem": 4014,
      "ĠDis": 4015,
      "ĠFunction": 4016,
      "Ġserve": 4017,
      "complete": 4018,
      "SET": 4019,
      "Ġreadable": 4020,
      "Ġsimultane": 4021,
      "Ġinterval": 4022,
      "strings": 4023,
      "Ġsomeone": 4024,
      "Ġrefactor": 4025,
      "Request": 4026,
      "Ġdistinct": 4027,
      "Ġhttps": 4028,
      "Ġdetails": 4029,
      "PTIONS": 4030,
      "ĠINTEG": 4031,
      "ynam": 4032,
      "ĠâĶĶâĶĢâĶĢ": 4033,
      "ĠLoop": 4034,
      "Ġcalculate": 4035,
      "Ġborrow": 4036,
      "Ġmonitoring": 4037,
      ")$": 4038,
      ".)": 4039,
      "1000": 4040,
      "82": 4041,
      "?;": 4042,
      "CK": 4043,
      "Case": 4044,
      "Log": 4045,
      "MA": 4046,
      "ORE": 4047,
      "bes": 4048,
      "fit": 4049,
      "numbers": 4050,
      "oint": 4051,
      "tra": 4052,
      "ĠÎ": 4053,
      "store": 4054,
      "strict": 4055,
      "Ġsave": 4056,
      "Ġshell": 4057,
      "Ġfilename": 4058,
      "roject": 4059,
      "Ġreach": 4060,
      "imin": 4061,
      "Ġop": 4062,
      "ĠCle": 4063,
      "Ġ14": 4064,
      "elcome": 4065,
      "yproject": 4066,
      "ĠMy": 4067,
      "achine": 4068,
      "open": 4069,
      "Ġbucket": 4070,
      "illing": 4071,
      "Ġeng": 4072,
      "Ġmodify": 4073,
      "Ġ70": 4074,
      "space": 4075,
      "Ġscale": 4076,
      "Ġgoes": 4077,
      "Ġdistributed": 4078,
      "Ġprogramming": 4079,
      "ĠORM": 4080,
      "Ġargument": 4081,
      "Ġbalanc": 4082,
      "Ġindependent": 4083,
      "success": 4084,
      "HTML": 4085,
      "Ġrotation": 4086,
      "Quick": 4087,
      "Ġtermin": 4088,
      "cheduler": 4089,
      "planation": 4090,
      "Dec": 4091,
      "SI": 4092,
      "block": 4093,
      "cap": 4094,
      "tom": 4095
    },
    "merges": [
      [
        "Ġ",
        "Ġ"
      ],
      [
        "e",
        "r"
      ],
      [
        "i",
        "n"
      ],
      [
        "o",
        "n"
      ],
      [
        "Ġ",
        "t"
      ],
      [
        "r",
        "e"
      ],
      [
        "Ġ",
        "a"
      ],
      [
        "s",
        "t"
      ],
      [
        "a",
        "t"
      ],
      [
        "h",
        "e"
      ],
      [
        "o",
        "r"
      ],
      [
        "ĠĠ",
        "ĠĠ"
      ],
      [
        "Ġ",
        "c"
      ],
      [
        "e",
        "n"
      ],
      [
        "i",
        "t"
      ],
      [
        "l",
        "e"
      ],
      [
        "Ġ",
        "s"
      ],
      [
        "*",
        "*"
      ],
      [
        "Ġ",
        "f"
      ],
      [
        "e",
        "s"
      ],
      [
        "a",
        "l"
      ],
      [
        "a",
        "n"
      ],
      [
        "o",
        "u"
      ],
      [
        "ĠĠ",
        "Ġ"
      ],
      [
        "in",
        "g"
      ],
      [
        "Ġ",
        "p"
      ],
      [
        "`",
        "`"
      ],
      [
        "i",
        "on"
      ],
      [
        "Ġt",
        "he"
      ],
      [
        "-",
        "-"
      ],
      [
        "Ġ",
        "d"
      ],
      [
        "i",
        "s"
      ],
      [
        "r",
        "o"
      ],
      [
        "Ġ",
        "re"
      ],
      [
        "Ġ",
        "m"
      ],
      [
        "c",
        "t"
      ],
      [
        "u",
        "s"
      ],
      [
        "Ġ",
        "w"
      ],
      [
        "â",
        "Ķ"
      ],
      [
        "e",
        "d"
      ],
      [
        "a",
        "s"
      ],
      [
        "a",
        "r"
      ],
      [
        "Ġ",
        "b"
      ],
      [
        "Ġ",
        "("
      ],
      [
        "Ġ",
        "in"
      ],
      [
        "en",
        "t"
      ],
      [
        "Ġ",
        "="
      ],
      [
        "t",
        "h"
      ],
      [
        "<",
        "|"
      ],
      [
        "|",
        ">"
      ],
      [
        "Ġ",
        "n"
      ],
      [
        "i",
        "c"
      ],
      [
        "Ċ",
        "ĠĠĠ"
      ],
      [
        "âĶ",
        "Ģ"
      ],
      [
        "e",
        "t"
      ],
      [
        "âĶĢ",
        "âĶĢ"
      ],
      [
        "l",
        "o"
      ],
      [
        "Ġt",
        "o"
      ],
      [
        "i",
        "m"
      ],
      [
        "Ġ",
        "e"
      ],
      [
        "Ġ",
        "â"
      ],
      [
        "n",
        "d"
      ],
      [
        "a",
        "c"
      ],
      [
        "``",
        "`"
      ],
      [
        "Ġ",
        "|"
      ],
      [
        "i",
        "d"
      ],
      [
        "o",
        "m"
      ],
      [
        "Ċ",
        "ĠĠĠĠ"
      ],
      [
        "u",
        "t"
      ],
      [
        "Ġ",
        "o"
      ],
      [
        "u",
        "l"
      ],
      [
        "i",
        "l"
      ],
      [
        "i",
        "f"
      ],
      [
        "Ġ",
        "is"
      ],
      [
        "a",
        "m"
      ],
      [
        "a",
        "d"
      ],
      [
        "us",
        "er"
      ],
      [
        "at",
        "e"
      ],
      [
        "Ġt",
        "h"
      ],
      [
        "at",
        "ion"
      ],
      [
        "Ġ",
        "h"
      ],
      [
        "o",
        "d"
      ],
      [
        "Ġ",
        "`"
      ],
      [
        "i",
        "g"
      ],
      [
        "Ġ",
        "I"
      ],
      [
        "Ġ",
        "st"
      ],
      [
        "u",
        "r"
      ],
      [
        "v",
        "er"
      ],
      [
        "e",
        "st"
      ],
      [
        "Ġf",
        "or"
      ],
      [
        "Ġ",
        "T"
      ],
      [
        "Ġ",
        "C"
      ],
      [
        "Ġ",
        "S"
      ],
      [
        "Ġâ",
        "Ģ"
      ],
      [
        "--",
        "--"
      ],
      [
        "Ġ",
        "\""
      ],
      [
        "Ġ",
        "l"
      ],
      [
        "l",
        "y"
      ],
      [
        "s",
        "e"
      ],
      [
        "Ġ",
        "A"
      ],
      [
        "ĠâĢ",
        "Ķ"
      ],
      [
        "Ġa",
        "nd"
      ],
      [
        "Ġc",
        "on"
      ],
      [
        "i",
        "st"
      ],
      [
        "q",
        "u"
      ],
      [
        "o",
        "l"
      ],
      [
        "p",
        "p"
      ],
      [
        "Ġ",
        "1"
      ],
      [
        "u",
        "n"
      ],
      [
        "v",
        "e"
      ],
      [
        "Ċ",
        "Ġ"
      ],
      [
        "e",
        "c"
      ],
      [
        "=",
        "="
      ],
      [
        "it",
        "h"
      ],
      [
        "Ġ",
        "on"
      ],
      [
        "a",
        "g"
      ],
      [
        "p",
        "t"
      ],
      [
        "o",
        "t"
      ],
      [
        ":",
        "**"
      ],
      [
        "e",
        "m"
      ],
      [
        "u",
        "m"
      ],
      [
        "t",
        "er"
      ],
      [
        "a",
        "b"
      ],
      [
        "Ġp",
        "ro"
      ],
      [
        "s",
        "s"
      ],
      [
        "Ġ",
        "y"
      ],
      [
        "Ġ",
        "**"
      ],
      [
        "Ġ",
        "it"
      ],
      [
        "Ġ",
        "P"
      ],
      [
        "Ġ",
        "r"
      ],
      [
        "ct",
        "ion"
      ],
      [
        "âĶĢâĶĢ",
        "âĶĢâĶĢ"
      ],
      [
        "c",
        "k"
      ],
      [
        "Ġ",
        "g"
      ],
      [
        "Ġo",
        "f"
      ],
      [
        "ĠĠĠĠ",
        "ĠĠĠĠ"
      ],
      [
        "c",
        "e"
      ],
      [
        "in",
        "k"
      ],
      [
        "e",
        "p"
      ],
      [
        "Ġ",
        "-"
      ],
      [
        "Ġy",
        "ou"
      ],
      [
        "e",
        "f"
      ],
      [
        "ĊĠĠĠĠ",
        "ĠĠĠ"
      ],
      [
        "e",
        "x"
      ],
      [
        "o",
        "s"
      ],
      [
        "Ġw",
        "ith"
      ],
      [
        "(",
        ")"
      ],
      [
        "Ġ",
        "or"
      ],
      [
        "c",
        "h"
      ],
      [
        "Ġ",
        "{"
      ],
      [
        "p",
        "le"
      ],
      [
        "Ġ",
        "R"
      ],
      [
        "Ġ",
        "v"
      ],
      [
        "es",
        "s"
      ],
      [
        "e",
        "l"
      ],
      [
        "an",
        "d"
      ],
      [
        "Ġe",
        "x"
      ],
      [
        "r",
        "i"
      ],
      [
        "o",
        "w"
      ],
      [
        "Ġ",
        "lo"
      ],
      [
        "i",
        "le"
      ],
      [
        "th",
        "ink"
      ],
      [
        "er",
        "s"
      ],
      [
        "en",
        "d"
      ],
      [
        "Ġ",
        "2"
      ],
      [
        "0",
        "0"
      ],
      [
        "Ġ",
        "D"
      ],
      [
        "Ġ",
        "us"
      ],
      [
        "an",
        "t"
      ],
      [
        "Ġa",
        "re"
      ],
      [
        "am",
        "e"
      ],
      [
        "Ġc",
        "om"
      ],
      [
        "Ġ",
        "'"
      ],
      [
        "Ġn",
        "e"
      ],
      [
        "m",
        "ent"
      ],
      [
        "Ġ",
        "F"
      ],
      [
        "y",
        "s"
      ],
      [
        "ac",
        "k"
      ],
      [
        "ou",
        "t"
      ],
      [
        "k",
        "e"
      ],
      [
        ")",
        ";"
      ],
      [
        "ul",
        "t"
      ],
      [
        "y",
        "p"
      ],
      [
        "Ġ",
        "N"
      ],
      [
        "y",
        "th"
      ],
      [
        "e",
        "os"
      ],
      [
        "o",
        "st"
      ],
      [
        "r",
        "a"
      ],
      [
        "n",
        "t"
      ],
      [
        "Ġre",
        "s"
      ],
      [
        "or",
        "t"
      ],
      [
        "<",
        "/"
      ],
      [
        "Ġ",
        "he"
      ],
      [
        "r",
        "or"
      ],
      [
        "o",
        "re"
      ],
      [
        "/",
        "/"
      ],
      [
        "Ġ",
        "O"
      ],
      [
        "ur",
        "n"
      ],
      [
        "at",
        "a"
      ],
      [
        "e",
        "ct"
      ],
      [
        "Ġw",
        "h"
      ],
      [
        "Ġ",
        "#"
      ],
      [
        "ro",
        "m"
      ],
      [
        "Ġ",
        "user"
      ],
      [
        ".",
        "<|"
      ],
      [
        "od",
        "e"
      ],
      [
        "u",
        "p"
      ],
      [
        "Ġ",
        "if"
      ],
      [
        "Ġre",
        "t"
      ],
      [
        "a",
        "il"
      ],
      [
        "Ġa",
        "l"
      ],
      [
        "in",
        "t"
      ],
      [
        "Ġ",
        "B"
      ],
      [
        "as",
        "s"
      ],
      [
        "Ġ",
        "U"
      ],
      [
        "u",
        "re"
      ],
      [
        "Y",
        "ou"
      ],
      [
        "Ġ",
        "E"
      ],
      [
        "yth",
        "on"
      ],
      [
        "u",
        "e"
      ],
      [
        "im",
        "e"
      ],
      [
        "or",
        "d"
      ],
      [
        "'",
        "t"
      ],
      [
        "Ġa",
        "n"
      ],
      [
        "Ġa",
        "pp"
      ],
      [
        "i",
        "r"
      ],
      [
        "'",
        "s"
      ],
      [
        "as",
        "e"
      ],
      [
        "#",
        "#"
      ],
      [
        "ag",
        "e"
      ],
      [
        "i",
        "z"
      ],
      [
        "Ġret",
        "urn"
      ],
      [
        "h",
        "t"
      ],
      [
        "p",
        "ut"
      ],
      [
        "Ġa",
        "ss"
      ],
      [
        "al",
        "l"
      ],
      [
        "p",
        "l"
      ],
      [
        "a",
        "p"
      ],
      [
        "ab",
        "le"
      ],
      [
        "Ġd",
        "o"
      ],
      [
        "a",
        "in"
      ],
      [
        "Ġ",
        "M"
      ],
      [
        "Ġ",
        "3"
      ],
      [
        "u",
        "st"
      ],
      [
        "Ġâ",
        "Ĩ"
      ],
      [
        "Ġ",
        "+"
      ],
      [
        "==",
        "=="
      ],
      [
        "Ġs",
        "h"
      ],
      [
        "ac",
        "h"
      ],
      [
        "Ġc",
        "h"
      ],
      [
        "s",
        "er"
      ],
      [
        "Ġ",
        "W"
      ],
      [
        "a",
        "ct"
      ],
      [
        "Ġ",
        "}"
      ],
      [
        "g",
        "e"
      ],
      [
        "Ġth",
        "at"
      ],
      [
        "Ġn",
        "ot"
      ],
      [
        "Ġt",
        "r"
      ],
      [
        "i",
        "ve"
      ],
      [
        "f",
        "ul"
      ],
      [
        ".",
        "."
      ],
      [
        "ĠT",
        "he"
      ],
      [
        "i",
        "re"
      ],
      [
        "l",
        "d"
      ],
      [
        "a",
        "y"
      ],
      [
        "it",
        "y"
      ],
      [
        "----",
        "----"
      ],
      [
        "Ġus",
        "e"
      ],
      [
        "l",
        "p"
      ],
      [
        "ĠâĨ",
        "Ĵ"
      ],
      [
        "Ġ",
        "*"
      ],
      [
        "Ġhe",
        "lp"
      ],
      [
        "i",
        "v"
      ],
      [
        "ex",
        "t"
      ],
      [
        "on",
        "t"
      ],
      [
        "c",
        "ri"
      ],
      [
        "Ġa",
        "s"
      ],
      [
        "or",
        "k"
      ],
      [
        "er",
        "ror"
      ],
      [
        "t",
        "o"
      ],
      [
        "he",
        "n"
      ],
      [
        "i",
        "es"
      ],
      [
        ")",
        "."
      ],
      [
        "Ġa",
        "t"
      ],
      [
        ")",
        ","
      ],
      [
        "Ġt",
        "est"
      ],
      [
        "Ġ",
        "L"
      ],
      [
        "lo",
        "w"
      ],
      [
        "âĶĢâĶĢâĶĢâĶĢ",
        "âĶĢâĶĢâĶĢâĶĢ"
      ],
      [
        "Ġ",
        "4"
      ],
      [
        "Ġv",
        "al"
      ],
      [
        "Ġne",
        "ed"
      ],
      [
        "c",
        "ess"
      ],
      [
        "Ġ",
        "H"
      ],
      [
        "in",
        "e"
      ],
      [
        "he",
        "ck"
      ],
      [
        "l",
        "m"
      ],
      [
        "Ġf",
        "rom"
      ],
      [
        "qu",
        "est"
      ],
      [
        "cri",
        "pt"
      ],
      [
        "as",
        "st"
      ],
      [
        "|>",
        "<|"
      ],
      [
        "|>",
        "<"
      ],
      [
        "ar",
        "t"
      ],
      [
        "p",
        "on"
      ],
      [
        "ig",
        "ht"
      ],
      [
        ")",
        ":"
      ],
      [
        "as",
        "h"
      ],
      [
        "s",
        "ys"
      ],
      [
        "Ġhelp",
        "ful"
      ],
      [
        "ist",
        "ant"
      ],
      [
        "Ġass",
        "istant"
      ],
      [
        "Ġst",
        "r"
      ],
      [
        "i",
        "x"
      ],
      [
        "Ġb",
        "e"
      ],
      [
        "yp",
        "e"
      ],
      [
        "Ġc",
        "an"
      ],
      [
        "Ġ",
        "["
      ],
      [
        "un",
        "ction"
      ],
      [
        "f",
        "er"
      ],
      [
        "Ġs",
        "p"
      ],
      [
        "S",
        "t"
      ],
      [
        "p",
        "ort"
      ],
      [
        "\"",
        ","
      ],
      [
        "Ġ",
        "5"
      ],
      [
        "ĠĠĠĠ",
        "ĠĠĠ"
      ],
      [
        "in",
        "d"
      ],
      [
        "Ġc",
        "l"
      ],
      [
        "âĶ",
        "Ĥ"
      ],
      [
        "b",
        "le"
      ],
      [
        "ou",
        "ld"
      ],
      [
        "Ġth",
        "is"
      ],
      [
        "E",
        "R"
      ],
      [
        "Ġ",
        "G"
      ],
      [
        "T",
        "he"
      ],
      [
        "'",
        ","
      ],
      [
        "if",
        "ic"
      ],
      [
        "Ġ",
        "le"
      ],
      [
        "Ġ",
        "im"
      ],
      [
        "d",
        "d"
      ],
      [
        "Ġs",
        "er"
      ],
      [
        "ar",
        "d"
      ],
      [
        "Ġd",
        "ata"
      ],
      [
        "a",
        "re"
      ],
      [
        "a",
        "pp"
      ],
      [
        "i",
        "al"
      ],
      [
        "u",
        "b"
      ],
      [
        "=",
        "\""
      ],
      [
        "er",
        "e"
      ],
      [
        "\"",
        ")"
      ],
      [
        "Ġm",
        "e"
      ],
      [
        "en",
        "c"
      ],
      [
        "c",
        "on"
      ],
      [
        "f",
        "or"
      ],
      [
        "l",
        "ic"
      ],
      [
        "re",
        "s"
      ],
      [
        "o",
        "k"
      ],
      [
        "(",
        "'"
      ],
      [
        "j",
        "s"
      ],
      [
        "ro",
        "w"
      ],
      [
        "Ġs",
        "e"
      ],
      [
        "Ġcon",
        "t"
      ],
      [
        "ar",
        "y"
      ],
      [
        "Ġlo",
        "g"
      ],
      [
        "al",
        "ly"
      ],
      [
        "ou",
        "nd"
      ],
      [
        "Ġ",
        "error"
      ],
      [
        "g",
        "et"
      ],
      [
        "ter",
        "n"
      ],
      [
        "an",
        "s"
      ],
      [
        "on",
        "e"
      ],
      [
        "ou",
        "nt"
      ],
      [
        "ion",
        "s"
      ],
      [
        "(",
        "\""
      ],
      [
        "a",
        "x"
      ],
      [
        "n",
        "c"
      ],
      [
        "\"",
        ":"
      ],
      [
        "Ġ",
        "."
      ],
      [
        "a",
        "st"
      ],
      [
        "Ġyou",
        "r"
      ],
      [
        "p",
        "ython"
      ],
      [
        "Ġ",
        "<"
      ],
      [
        "Ġ",
        "qu"
      ],
      [
        "c",
        "om"
      ],
      [
        "Ġf",
        "ile"
      ],
      [
        "d",
        "u"
      ],
      [
        "a",
        "k"
      ],
      [
        "Ġc",
        "ode"
      ],
      [
        "Ġh",
        "and"
      ],
      [
        "Ġb",
        "y"
      ],
      [
        "Ġb",
        "ut"
      ],
      [
        "h",
        "r"
      ],
      [
        "P",
        "I"
      ],
      [
        "ic",
        "e"
      ],
      [
        "o",
        "p"
      ],
      [
        "iz",
        "e"
      ],
      [
        "Ġw",
        "ork"
      ],
      [
        "ac",
        "e"
      ],
      [
        "Ġb",
        "u"
      ],
      [
        "Ġon",
        "e"
      ],
      [
        "ig",
        "n"
      ],
      [
        "ĠS",
        "t"
      ],
      [
        "n",
        "ame"
      ],
      [
        "v",
        "ent"
      ],
      [
        "or",
        "y"
      ],
      [
        "f",
        "ile"
      ],
      [
        "Ġ",
        "up"
      ],
      [
        "Ġ",
        "$"
      ],
      [
        "Ġd",
        "e"
      ],
      [
        "Ġd",
        "ef"
      ],
      [
        "a",
        "v"
      ],
      [
        "p",
        "er"
      ],
      [
        "_",
        "_"
      ],
      [
        "ĊĠĠĠĠ",
        "ĠĠĠĠĠĠĠ"
      ],
      [
        "hr",
        "m"
      ],
      [
        "Ġp",
        "r"
      ],
      [
        ".",
        "**"
      ],
      [
        "f",
        "f"
      ],
      [
        "k",
        "en"
      ],
      [
        "Ġs",
        "et"
      ],
      [
        "Ġf",
        "unction"
      ],
      [
        "um",
        "b"
      ],
      [
        "ation",
        "s"
      ],
      [
        "at",
        "ed"
      ],
      [
        "Ġr",
        "un"
      ],
      [
        "Ġw",
        "hen"
      ],
      [
        "Ċ",
        "ĠĠ"
      ],
      [
        "Ġwh",
        "at"
      ],
      [
        "Ġ",
        "ke"
      ],
      [
        "Ġ",
        "âĶĤ"
      ],
      [
        "n",
        "e"
      ],
      [
        "c",
        "he"
      ],
      [
        "i",
        "p"
      ],
      [
        "r",
        "y"
      ],
      [
        "v",
        "al"
      ],
      [
        "Ġ",
        "0"
      ],
      [
        "Ġcom",
        "m"
      ],
      [
        "d",
        "ef"
      ],
      [
        "re",
        "ad"
      ],
      [
        "g",
        "r"
      ],
      [
        "us",
        "e"
      ],
      [
        "Ġ=",
        ">"
      ],
      [
        "o",
        "ck"
      ],
      [
        "Ġ",
        "//"
      ],
      [
        "Ġd",
        "ep"
      ],
      [
        "Ġ",
        "ver"
      ],
      [
        "en",
        "er"
      ],
      [
        "id",
        "e"
      ],
      [
        "Ġsh",
        "ould"
      ],
      [
        "Ġch",
        "an"
      ],
      [
        "p",
        "o"
      ],
      [
        "Ġ",
        "/"
      ],
      [
        "Ġ",
        "6"
      ],
      [
        "Ġt",
        "ime"
      ],
      [
        "a",
        "ve"
      ],
      [
        "r",
        "it"
      ],
      [
        "Ġcon",
        "st"
      ],
      [
        "i",
        "ent"
      ],
      [
        "L",
        "E"
      ],
      [
        "h",
        "is"
      ],
      [
        "t",
        "e"
      ],
      [
        "w",
        "a"
      ],
      [
        "il",
        "l"
      ],
      [
        "Ġp",
        "er"
      ],
      [
        "?",
        "<|"
      ],
      [
        "at",
        "h"
      ],
      [
        "ble",
        "m"
      ],
      [
        "ĠI",
        "f"
      ],
      [
        "im",
        "it"
      ],
      [
        "====",
        "===="
      ],
      [
        "Ġ",
        "V"
      ],
      [
        "Ġc",
        "re"
      ],
      [
        "j",
        "ect"
      ],
      [
        "**",
        ":"
      ],
      [
        "for",
        "m"
      ],
      [
        "ou",
        "r"
      ],
      [
        "pon",
        "se"
      ],
      [
        "at",
        "ab"
      ],
      [
        "Ġc",
        "heck"
      ],
      [
        "em",
        "s"
      ],
      [
        "Ġal",
        "l"
      ],
      [
        "Ġ",
        "j"
      ],
      [
        "Ġ",
        "id"
      ],
      [
        "Ġ",
        "un"
      ],
      [
        "c",
        "l"
      ],
      [
        "at",
        "ch"
      ],
      [
        "Ġa",
        "dd"
      ],
      [
        "le",
        "s"
      ],
      [
        "Ġsp",
        "ec"
      ],
      [
        "Ġin",
        "st"
      ],
      [
        "Ġ",
        "8"
      ],
      [
        "Ġre",
        "quest"
      ],
      [
        "Ġqu",
        "er"
      ],
      [
        "nd",
        "er"
      ],
      [
        "ĠR",
        "e"
      ],
      [
        "Ġe",
        "m"
      ],
      [
        "ir",
        "st"
      ],
      [
        "d",
        "er"
      ],
      [
        "ĠA",
        "PI"
      ],
      [
        "u",
        "d"
      ],
      [
        "r",
        "ror"
      ],
      [
        "atab",
        "ase"
      ],
      [
        "f",
        "ig"
      ],
      [
        "Ġp",
        "re"
      ],
      [
        "--",
        "-"
      ],
      [
        "if",
        "y"
      ],
      [
        "p",
        "ro"
      ],
      [
        "Ġ",
        "en"
      ],
      [
        "Ġl",
        "ist"
      ],
      [
        "h",
        "at"
      ],
      [
        "il",
        "d"
      ],
      [
        "am",
        "ple"
      ],
      [
        "A",
        "T"
      ],
      [
        "y",
        "nc"
      ],
      [
        "Ġn",
        "o"
      ],
      [
        "Ġm",
        "od"
      ],
      [
        "at",
        "es"
      ],
      [
        "on",
        "g"
      ],
      [
        "st",
        "r"
      ],
      [
        "Ġa",
        "c"
      ],
      [
        "Ġd",
        "if"
      ],
      [
        "Ġne",
        "w"
      ],
      [
        "S",
        "E"
      ],
      [
        "Ġres",
        "ult"
      ],
      [
        "Ġh",
        "ave"
      ],
      [
        "Ġa",
        "r"
      ],
      [
        "ul",
        "l"
      ],
      [
        "Ġs",
        "ec"
      ],
      [
        "w",
        "ord"
      ],
      [
        "Ġre",
        "ad"
      ],
      [
        "u",
        "th"
      ],
      [
        "ĠP",
        "ython"
      ],
      [
        "l",
        "l"
      ],
      [
        "Ġstr",
        "ing"
      ],
      [
        "Ġc",
        "all"
      ],
      [
        "an",
        "ce"
      ],
      [
        "i",
        "e"
      ],
      [
        "O",
        "N"
      ],
      [
        "Ġ",
        "J"
      ],
      [
        "t",
        "s"
      ],
      [
        "js",
        "on"
      ],
      [
        "e",
        "b"
      ],
      [
        "at",
        "us"
      ],
      [
        "Ġf",
        "ix"
      ],
      [
        "ĠĠĠĠĠĠĠĠ",
        "ĠĠĠĠĠĠĠĠ"
      ],
      [
        "â",
        "ķ"
      ],
      [
        "$",
        "$"
      ],
      [
        "Ġe",
        "ver"
      ],
      [
        "ac",
        "he"
      ],
      [
        "Ġin",
        "d"
      ],
      [
        "re",
        "m"
      ],
      [
        "o",
        "ok"
      ],
      [
        "it",
        "ion"
      ],
      [
        "|",
        "--------"
      ],
      [
        "c",
        "re"
      ],
      [
        "i",
        "b"
      ],
      [
        "Ġ",
        "--"
      ],
      [
        "Ġval",
        "id"
      ],
      [
        "d",
        "ata"
      ],
      [
        "Ġ",
        "k"
      ],
      [
        "Ġg",
        "et"
      ],
      [
        "âķ",
        "Ĳ"
      ],
      [
        "g",
        "re"
      ],
      [
        "Ġdo",
        "es"
      ],
      [
        "Ġm",
        "in"
      ],
      [
        "ĠE",
        "x"
      ],
      [
        "b",
        "ash"
      ],
      [
        "c",
        "ur"
      ],
      [
        "Ġe",
        "ach"
      ],
      [
        "ĊĠĠĠĠ",
        "Ġ"
      ],
      [
        "er",
        "t"
      ],
      [
        "..",
        "."
      ],
      [
        "Ġdif",
        "fer"
      ],
      [
        "en",
        "ce"
      ],
      [
        "Ġ1",
        "0"
      ],
      [
        "Ġh",
        "as"
      ],
      [
        "Ġn",
        "ame"
      ],
      [
        "Ġm",
        "an"
      ],
      [
        "âķĲ",
        "âķĲ"
      ],
      [
        "Ġ",
        "u"
      ],
      [
        "s",
        "ion"
      ],
      [
        "p",
        "re"
      ],
      [
        "Ġp",
        "o"
      ],
      [
        "ĊĠĠĠĠ",
        "ĊĠĠĠ"
      ],
      [
        "Ġser",
        "ver"
      ],
      [
        "b",
        "ack"
      ],
      [
        "Ġc",
        "ol"
      ],
      [
        "ic",
        "al"
      ],
      [
        "yp",
        "es"
      ],
      [
        "Ġpro",
        "blem"
      ],
      [
        "ment",
        "s"
      ],
      [
        "Ġpro",
        "cess"
      ],
      [
        "Ġn",
        "umb"
      ],
      [
        "qu",
        "ire"
      ],
      [
        "ass",
        "word"
      ],
      [
        "ĠI",
        "n"
      ],
      [
        "K",
        "e"
      ],
      [
        "Ġon",
        "ly"
      ],
      [
        "C",
        "T"
      ],
      [
        "ord",
        "er"
      ],
      [
        "E",
        "S"
      ],
      [
        "at",
        "or"
      ],
      [
        "at",
        "tern"
      ],
      [
        "Ġ",
        "out"
      ],
      [
        "Ġres",
        "ponse"
      ],
      [
        "Ġd",
        "atabase"
      ],
      [
        "Ġf",
        "irst"
      ],
      [
        "Ġp",
        "ar"
      ],
      [
        "o",
        "th"
      ],
      [
        "p",
        "y"
      ],
      [
        "Ġt",
        "ype"
      ],
      [
        "Ġin",
        "put"
      ],
      [
        "Ġst",
        "ate"
      ],
      [
        "a",
        "f"
      ],
      [
        "Ġ",
        "ro"
      ],
      [
        "lo",
        "g"
      ],
      [
        "Ġcl",
        "ass"
      ],
      [
        "ut",
        "ion"
      ],
      [
        "ro",
        "ach"
      ],
      [
        "Ġs",
        "im"
      ],
      [
        "Ġ",
        "7"
      ],
      [
        "is",
        "e"
      ],
      [
        "Ġto",
        "ken"
      ],
      [
        "E",
        "rror"
      ],
      [
        "Ġspec",
        "ific"
      ],
      [
        "##",
        "#"
      ],
      [
        "r",
        "ou"
      ],
      [
        "at",
        "ure"
      ],
      [
        "Ġm",
        "ost"
      ],
      [
        "ĠC",
        "om"
      ],
      [
        "ow",
        "n"
      ],
      [
        "ce",
        "pt"
      ],
      [
        "Ġpro",
        "du"
      ],
      [
        "ult",
        "i"
      ],
      [
        "a",
        "ult"
      ],
      [
        "d",
        "iv"
      ],
      [
        "Ġth",
        "an"
      ],
      [
        "F",
        "or"
      ],
      [
        "a",
        "ke"
      ],
      [
        "Ġpr",
        "int"
      ],
      [
        "c",
        "al"
      ],
      [
        "Ġp",
        "l"
      ],
      [
        "Ġf",
        "ail"
      ],
      [
        "U",
        "ser"
      ],
      [
        "wa",
        "it"
      ],
      [
        "lo",
        "ck"
      ],
      [
        "c",
        "ol"
      ],
      [
        "ar",
        "ch"
      ],
      [
        "Ġke",
        "y"
      ],
      [
        "R",
        "E"
      ],
      [
        "u",
        "ct"
      ],
      [
        "\"",
        ">"
      ],
      [
        "Ġ=",
        "="
      ],
      [
        "t",
        "p"
      ],
      [
        "ap",
        "i"
      ],
      [
        "Ġa",
        "ct"
      ],
      [
        "ĠF",
        "or"
      ],
      [
        "con",
        "st"
      ],
      [
        "Q",
        "L"
      ],
      [
        "Ġl",
        "imit"
      ],
      [
        "ag",
        "es"
      ],
      [
        "g",
        "h"
      ],
      [
        "v",
        "ice"
      ],
      [
        "O",
        "M"
      ],
      [
        "t",
        "ime"
      ],
      [
        "u",
        "al"
      ],
      [
        "Ġor",
        "der"
      ],
      [
        "Ġex",
        "p"
      ],
      [
        "Ġs",
        "y"
      ],
      [
        "um",
        "n"
      ],
      [
        "s",
        "p"
      ],
      [
        "Ġuser",
        "s"
      ],
      [
        "Ġem",
        "ail"
      ],
      [
        "I",
        "n"
      ],
      [
        "lo",
        "ad"
      ],
      [
        "ef",
        "ore"
      ],
      [
        "enc",
        "y"
      ],
      [
        "a",
        "use"
      ],
      [
        "ĠU",
        "se"
      ],
      [
        "Ġ",
        "9"
      ],
      [
        "ne",
        "ction"
      ],
      [
        "ie",
        "w"
      ],
      [
        "em",
        "ory"
      ],
      [
        "âĶĢâĶĢâĶĢâĶĢâĶĢâĶĢâĶĢâĶĢ",
        "âĶĢâĶĢâĶĢâĶĢâĶĢâĶĢâĶĢâĶĢ"
      ],
      [
        "m",
        "in"
      ],
      [
        "Ġ",
        ">"
      ],
      [
        "ER",
        "E"
      ],
      [
        "t",
        "est"
      ],
      [
        "en",
        "g"
      ],
      [
        "e",
        "ad"
      ],
      [
        "Ġa",
        "b"
      ],
      [
        "Ġ",
        "You"
      ],
      [
        "im",
        "port"
      ],
      [
        "\"",
        "\""
      ],
      [
        "le",
        "d"
      ],
      [
        "ad",
        "d"
      ],
      [
        "Ġever",
        "y"
      ],
      [
        "Ġb",
        "ack"
      ],
      [
        "Ġs",
        "ol"
      ],
      [
        "ic",
        "h"
      ],
      [
        ")",
        ":**"
      ],
      [
        "u",
        "es"
      ],
      [
        "Ġs",
        "c"
      ],
      [
        "ar",
        "g"
      ],
      [
        "t",
        "r"
      ],
      [
        "Ġdep",
        "end"
      ],
      [
        "Ke",
        "y"
      ],
      [
        "I",
        "N"
      ],
      [
        "ig",
        "r"
      ],
      [
        "om",
        "e"
      ],
      [
        "Ġtr",
        "ans"
      ],
      [
        "ple",
        "x"
      ],
      [
        "ĊĠĠĠĠ",
        "ĠĠĠĠĠĠĠĠ"
      ],
      [
        "1",
        "0"
      ],
      [
        "d",
        "s"
      ],
      [
        "Ġm",
        "ore"
      ],
      [
        "Ġm",
        "ax"
      ],
      [
        "Ġval",
        "ue"
      ],
      [
        "ĠC",
        "on"
      ],
      [
        "ire",
        "ct"
      ],
      [
        "Ġchan",
        "g"
      ],
      [
        "`",
        ","
      ],
      [
        "Ġc",
        "ur"
      ],
      [
        "Ġâ",
        "ľ"
      ],
      [
        "ĠP",
        "ro"
      ],
      [
        "Ġa",
        "ut"
      ],
      [
        "St",
        "ep"
      ],
      [
        "ra",
        "p"
      ],
      [
        "u",
        "le"
      ],
      [
        "re",
        "nt"
      ],
      [
        "Ġs",
        "u"
      ],
      [
        "s",
        "et"
      ],
      [
        "ple",
        "ment"
      ],
      [
        "Ġf",
        "e"
      ],
      [
        "w",
        "o"
      ],
      [
        "A",
        "L"
      ],
      [
        "p",
        "r"
      ],
      [
        "re",
        "e"
      ],
      [
        "00",
        "0"
      ],
      [
        "i",
        "ke"
      ],
      [
        "Ġcon",
        "s"
      ],
      [
        "um",
        "ent"
      ],
      [
        "Ġd",
        "on"
      ],
      [
        "Ġind",
        "ex"
      ],
      [
        "w",
        "e"
      ],
      [
        "Ġs",
        "ame"
      ],
      [
        "et",
        "ch"
      ],
      [
        "ar",
        "i"
      ],
      [
        "i",
        "el"
      ],
      [
        "ou",
        "s"
      ],
      [
        "q",
        "l"
      ],
      [
        "Ġc",
        "le"
      ],
      [
        "Ġthe",
        "y"
      ],
      [
        "Ġfile",
        "s"
      ],
      [
        "Ġcom",
        "p"
      ],
      [
        "ra",
        "ct"
      ],
      [
        "s",
        "h"
      ],
      [
        "Ġs",
        "el"
      ],
      [
        "st",
        "atus"
      ],
      [
        "Ġim",
        "port"
      ],
      [
        "LE",
        "CT"
      ],
      [
        "ĠĠĠĠ",
        "Ġ"
      ],
      [
        "Ġst",
        "art"
      ],
      [
        "o",
        "g"
      ],
      [
        "T",
        "his"
      ],
      [
        "t",
        "ing"
      ],
      [
        "at",
        "ic"
      ],
      [
        "Ġat",
        "t"
      ],
      [
        "Ġ",
        "end"
      ],
      [
        "se",
        "l"
      ],
      [
        "rit",
        "e"
      ],
      [
        "'",
        ")"
      ],
      [
        "o",
        "b"
      ],
      [
        "Ġp",
        "attern"
      ],
      [
        "th",
        "er"
      ],
      [
        "u",
        "ally"
      ],
      [
        "Ġthe",
        "m"
      ],
      [
        "Ġre",
        "quire"
      ],
      [
        "Ġm",
        "ulti"
      ],
      [
        "ic",
        "k"
      ],
      [
        "Ġdiffer",
        "ent"
      ],
      [
        "AT",
        "E"
      ],
      [
        "R",
        "L"
      ],
      [
        "b",
        "o"
      ],
      [
        "ĠN",
        "O"
      ],
      [
        "Ġsel",
        "f"
      ],
      [
        "Ġex",
        "ist"
      ],
      [
        "it",
        "s"
      ],
      [
        "sel",
        "f"
      ],
      [
        "o",
        "ver"
      ],
      [
        "Ġch",
        "ar"
      ],
      [
        "Ġb",
        "efore"
      ],
      [
        "Ġa",
        "wait"
      ],
      [
        "Ġw",
        "e"
      ],
      [
        "Ġquer",
        "y"
      ],
      [
        "is",
        "s"
      ],
      [
        "ĠC",
        "heck"
      ],
      [
        "Ġwith",
        "out"
      ],
      [
        "Ġapp",
        "roach"
      ],
      [
        "Ġj",
        "ust"
      ],
      [
        "v",
        "iew"
      ],
      [
        "H",
        "ERE"
      ],
      [
        "P",
        "ro"
      ],
      [
        "Ġd",
        "b"
      ],
      [
        "Ġs",
        "o"
      ],
      [
        "I",
        "d"
      ],
      [
        "Ġf",
        "ind"
      ],
      [
        "Ġwh",
        "ere"
      ],
      [
        "eng",
        "th"
      ],
      [
        "Ġe",
        "le"
      ],
      [
        "Ġg",
        "ener"
      ],
      [
        "c",
        "ount"
      ],
      [
        "g",
        "it"
      ],
      [
        "t",
        "ext"
      ],
      [
        "as",
        "k"
      ],
      [
        "Ġcl",
        "ient"
      ],
      [
        "Ġt",
        "ypes"
      ],
      [
        "Ġ",
        "i"
      ],
      [
        "O",
        "R"
      ],
      [
        "n",
        "ing"
      ],
      [
        "st",
        "em"
      ],
      [
        "Ġs",
        "ub"
      ],
      [
        "w",
        "ork"
      ],
      [
        ":",
        "//"
      ],
      [
        "as",
        "es"
      ],
      [
        "ut",
        "e"
      ],
      [
        "'",
        "re"
      ],
      [
        ")",
        ")"
      ],
      [
        "Ġ",
        "row"
      ],
      [
        "ĠT",
        "his"
      ],
      [
        "pt",
        "ion"
      ],
      [
        "em",
        "ail"
      ],
      [
        "()",
        ";"
      ],
      [
        "Ġbu",
        "ild"
      ],
      [
        "p",
        "m"
      ],
      [
        "Ġnumb",
        "er"
      ],
      [
        "Ġfor",
        "m"
      ],
      [
        "Ġcon",
        "fig"
      ],
      [
        "'",
        ";"
      ],
      [
        "od",
        "y"
      ],
      [
        "Ġcol",
        "umn"
      ],
      [
        "ĠA",
        "n"
      ],
      [
        "Ġan",
        "y"
      ],
      [
        "Ġt",
        "im"
      ],
      [
        "E",
        "x"
      ],
      [
        "s",
        "w"
      ],
      [
        ":",
        "#"
      ],
      [
        "ific",
        "ation"
      ],
      [
        "p",
        "x"
      ],
      [
        "Ġd",
        "is"
      ],
      [
        "R",
        "OM"
      ],
      [
        "f",
        "ter"
      ],
      [
        "u",
        "g"
      ],
      [
        "le",
        "t"
      ],
      [
        "Ġus",
        "ing"
      ],
      [
        "Ġtest",
        "s"
      ],
      [
        "an",
        "g"
      ],
      [
        "Ġd",
        "es"
      ],
      [
        "Ġb",
        "et"
      ],
      [
        "Ġ-",
        ">"
      ],
      [
        "Ġas",
        "ync"
      ],
      [
        "it",
        "e"
      ],
      [
        "Ġin",
        "to"
      ],
      [
        "po",
        "int"
      ],
      [
        "i",
        "ct"
      ],
      [
        "Ġs",
        "low"
      ],
      [
        "ĠH",
        "T"
      ],
      [
        "Ċ",
        "ĊĠĠĠ"
      ],
      [
        "Ġo",
        "ver"
      ],
      [
        "N",
        "D"
      ],
      [
        "f",
        "rom"
      ],
      [
        "in",
        "al"
      ],
      [
        "nder",
        "st"
      ],
      [
        "uct",
        "ure"
      ],
      [
        "Ġe",
        "l"
      ],
      [
        "en",
        "s"
      ],
      [
        "lo",
        "y"
      ],
      [
        "i",
        "ble"
      ],
      [
        "n",
        "ot"
      ],
      [
        "Ġm",
        "y"
      ],
      [
        "Ġw",
        "ant"
      ],
      [
        "an",
        "ge"
      ],
      [
        "Ġcont",
        "ain"
      ],
      [
        "che",
        "m"
      ],
      [
        "ect",
        "ed"
      ],
      [
        "Ġup",
        "d"
      ],
      [
        "(",
        "{"
      ],
      [
        "at",
        "ive"
      ],
      [
        "ĠU",
        "ser"
      ],
      [
        "Ġthe",
        "n"
      ],
      [
        "th",
        "od"
      ],
      [
        "'",
        ");"
      ],
      [
        "d",
        "b"
      ],
      [
        "o",
        "c"
      ],
      [
        "U",
        "L"
      ],
      [
        "SE",
        "LECT"
      ],
      [
        "ib",
        "r"
      ],
      [
        "T",
        "P"
      ],
      [
        "Ġhe",
        "ad"
      ],
      [
        "Ġchan",
        "ge"
      ],
      [
        "nderst",
        "and"
      ],
      [
        "lic",
        "ation"
      ],
      [
        "Ġhand",
        "l"
      ],
      [
        "Ġdoes",
        "n"
      ],
      [
        "Ġa",
        "uth"
      ],
      [
        "Ġf",
        "r"
      ],
      [
        "m",
        "on"
      ],
      [
        "le",
        "x"
      ],
      [
        "Ġd",
        "ec"
      ],
      [
        "1",
        "2"
      ],
      [
        "L",
        "et"
      ],
      [
        "w",
        "n"
      ],
      [
        "Ġc",
        "ount"
      ],
      [
        "as",
        "ed"
      ],
      [
        "Ġerror",
        "s"
      ],
      [
        "Ġm",
        "emory"
      ],
      [
        "il",
        "ter"
      ],
      [
        "act",
        "or"
      ],
      [
        "vent",
        "s"
      ],
      [
        "Ġquer",
        "ies"
      ],
      [
        "tern",
        "al"
      ],
      [
        "che",
        "s"
      ],
      [
        "========",
        "========"
      ],
      [
        "Ġdef",
        "ault"
      ],
      [
        "n",
        "ow"
      ],
      [
        "Ġt",
        "able"
      ],
      [
        "it",
        "ems"
      ],
      [
        "Ġb",
        "ec"
      ],
      [
        "ig",
        "h"
      ],
      [
        "U",
        "se"
      ],
      [
        "l",
        "ist"
      ],
      [
        "Ġhand",
        "le"
      ],
      [
        "ock",
        "er"
      ],
      [
        "m",
        "ax"
      ],
      [
        "Ġc",
        "ache"
      ],
      [
        "Ġm",
        "igr"
      ],
      [
        "er",
        "y"
      ],
      [
        "al",
        "se"
      ],
      [
        "user",
        "s"
      ],
      [
        "Ġwh",
        "ich"
      ],
      [
        "at",
        "ing"
      ],
      [
        "Ġo",
        "per"
      ],
      [
        "Ġcon",
        "nection"
      ],
      [
        "Ġlo",
        "ck"
      ],
      [
        "pon",
        "ent"
      ],
      [
        "cl",
        "ud"
      ],
      [
        "Ġab",
        "out"
      ],
      [
        "s",
        "ide"
      ],
      [
        "el",
        "l"
      ],
      [
        "en",
        "v"
      ],
      [
        "iz",
        "ation"
      ],
      [
        "Ġdo",
        "c"
      ],
      [
        "Ġcomm",
        "on"
      ],
      [
        "A",
        "D"
      ],
      [
        "rou",
        "gh"
      ],
      [
        ":",
        "."
      ],
      [
        "Ġcre",
        "ate"
      ],
      [
        "A",
        "B"
      ],
      [
        "Ġo",
        "wn"
      ],
      [
        "C",
        "om"
      ],
      [
        "`",
        "."
      ],
      [
        "d",
        "e"
      ],
      [
        "Ġin",
        "ter"
      ],
      [
        "ve",
        "l"
      ],
      [
        "Ġmod",
        "el"
      ],
      [
        "Ġp",
        "assword"
      ],
      [
        "Ġ",
        "..."
      ],
      [
        "yth",
        "ing"
      ],
      [
        "C",
        "ont"
      ],
      [
        "Ġ",
        "\\"
      ],
      [
        "s",
        "ize"
      ],
      [
        "Ġpro",
        "v"
      ],
      [
        "str",
        "ing"
      ],
      [
        "ĠT",
        "r"
      ],
      [
        "Ġ",
        "ent"
      ],
      [
        "ar",
        "k"
      ],
      [
        "pl",
        "ay"
      ],
      [
        "o",
        "le"
      ],
      [
        "Ġit",
        "ems"
      ],
      [
        "Ġm",
        "ust"
      ],
      [
        "val",
        "id"
      ],
      [
        "Ġth",
        "rough"
      ],
      [
        "ĠNO",
        "T"
      ],
      [
        "c",
        "es"
      ],
      [
        "ic",
        "es"
      ],
      [
        "Ġp",
        "ath"
      ],
      [
        "2",
        "0"
      ],
      [
        "Ġto",
        "ol"
      ],
      [
        "Ġm",
        "ess"
      ],
      [
        "Ġver",
        "sion"
      ],
      [
        "f",
        "ont"
      ],
      [
        "Ġr",
        "ight"
      ],
      [
        "W",
        "hat"
      ],
      [
        "ke",
        "y"
      ],
      [
        "2",
        "5"
      ],
      [
        "t",
        "ype"
      ],
      [
        "ing",
        "le"
      ],
      [
        "Ġ1",
        "00"
      ],
      [
        "Ġlo",
        "ad"
      ],
      [
        "Ġc",
        "or"
      ],
      [
        "le",
        "ct"
      ],
      [
        "Ġre",
        "c"
      ],
      [
        "Ġin",
        "t"
      ],
      [
        "Ġs",
        "end"
      ],
      [
        "ĠW",
        "HERE"
      ],
      [
        ")",
        "<|"
      ],
      [
        "Ġg",
        "o"
      ],
      [
        "re",
        "t"
      ],
      [
        "pl",
        "ic"
      ],
      [
        "g",
        "er"
      ],
      [
        "p",
        "ost"
      ],
      [
        "Ġ2",
        "0"
      ],
      [
        "Ġb",
        "oth"
      ],
      [
        "Ġwork",
        "s"
      ],
      [
        "Ġ\"",
        "\"\""
      ],
      [
        "Ġl",
        "ike"
      ],
      [
        "Ġchar",
        "act"
      ],
      [
        "d",
        "is"
      ],
      [
        "Ġass",
        "ert"
      ],
      [
        "f",
        "unction"
      ],
      [
        "Ġex",
        "t"
      ],
      [
        "Ġrequest",
        "s"
      ],
      [
        "S",
        "cript"
      ],
      [
        "H",
        "ow"
      ],
      [
        "s",
        "ql"
      ],
      [
        "u",
        "les"
      ],
      [
        "Ġis",
        "s"
      ],
      [
        "ar",
        "ge"
      ],
      [
        "il",
        "ity"
      ],
      [
        "âķĲâķĲ",
        "âķĲâķĲ"
      ],
      [
        "S",
        "ON"
      ],
      [
        "b",
        "ut"
      ],
      [
        "Ġp",
        "ack"
      ],
      [
        "ate",
        "g"
      ],
      [
        "r",
        "on"
      ],
      [
        "ĠN",
        "o"
      ],
      [
        "Ġs",
        "um"
      ],
      [
        "Ġd",
        "irect"
      ],
      [
        "Ġbu",
        "g"
      ],
      [
        "I",
        "M"
      ],
      [
        "Ġs",
        "ome"
      ],
      [
        "ar",
        "get"
      ],
      [
        "E",
        "X"
      ],
      [
        "n",
        "er"
      ],
      [
        "Ġl",
        "ibr"
      ],
      [
        "o",
        "ve"
      ],
      [
        "r",
        "ong"
      ],
      [
        "th",
        "ing"
      ],
      [
        "Ġo",
        "b"
      ],
      [
        "ction",
        "s"
      ],
      [
        "Ġtr",
        "y"
      ],
      [
        "v",
        "en"
      ],
      [
        "pt",
        "y"
      ],
      [
        "sw",
        "er"
      ],
      [
        "Ġt",
        "wo"
      ],
      [
        "Ġv",
        "ari"
      ],
      [
        "ĠF",
        "ROM"
      ],
      [
        "ry",
        "pt"
      ],
      [
        "Ġ",
        "&"
      ],
      [
        "ht",
        "tp"
      ],
      [
        "our",
        "ce"
      ],
      [
        "Ġend",
        "point"
      ],
      [
        "c",
        "cess"
      ],
      [
        "Ġr",
        "a"
      ],
      [
        "to",
        "ken"
      ],
      [
        "()",
        ":"
      ],
      [
        "f",
        "t"
      ],
      [
        "re",
        "ct"
      ],
      [
        "Ġst",
        "ep"
      ],
      [
        "ra",
        "y"
      ],
      [
        "Ġser",
        "vice"
      ],
      [
        "'",
        ":"
      ],
      [
        "o",
        "ol"
      ],
      [
        "Ġre",
        "f"
      ],
      [
        "Ġb",
        "r"
      ],
      [
        "S",
        "T"
      ],
      [
        "ĠA",
        "dd"
      ],
      [
        "re",
        "ak"
      ],
      [
        "Ġb",
        "lock"
      ],
      [
        "are",
        "d"
      ],
      [
        "f",
        "l"
      ],
      [
        "Ġc",
        "ase"
      ],
      [
        "Ġv",
        "s"
      ],
      [
        "gr",
        "ound"
      ],
      [
        "'",
        "]"
      ],
      [
        "Ġ",
        "x"
      ],
      [
        "as",
        "cript"
      ],
      [
        "av",
        "ascript"
      ],
      [
        "af",
        "e"
      ],
      [
        "c",
        "ont"
      ],
      [
        "ĠI",
        "t"
      ],
      [
        "Ġl",
        "ine"
      ],
      [
        "and",
        "om"
      ],
      [
        "ess",
        "ion"
      ],
      [
        "ak",
        "es"
      ],
      [
        "Ġ",
        "âĶ"
      ],
      [
        "in",
        "ed"
      ],
      [
        "he",
        "ad"
      ],
      [
        "Ġs",
        "m"
      ],
      [
        "wa",
        "ys"
      ],
      [
        "g",
        "ing"
      ],
      [
        "j",
        "avascript"
      ],
      [
        "ĠP",
        "ost"
      ],
      [
        "Ġ",
        "K"
      ],
      [
        "Ġf",
        "ull"
      ],
      [
        "Ġsim",
        "ple"
      ],
      [
        "r",
        "ing"
      ],
      [
        "w",
        "h"
      ],
      [
        "Ġa",
        "g"
      ],
      [
        "Ġre",
        "al"
      ],
      [
        "ic",
        "s"
      ],
      [
        "()",
        "`"
      ],
      [
        "ir",
        "on"
      ],
      [
        "Ġcur",
        "rent"
      ],
      [
        "Ġf",
        "ast"
      ],
      [
        "Ġinst",
        "all"
      ],
      [
        "N",
        "T"
      ],
      [
        "Ġc",
        "a"
      ],
      [
        "Ġval",
        "ues"
      ],
      [
        "Ġchang",
        "es"
      ],
      [
        "Ġt",
        "ext"
      ],
      [
        "Ġa",
        "fter"
      ],
      [
        "Ġdep",
        "loy"
      ],
      [
        "E",
        "T"
      ],
      [
        "p",
        "s"
      ],
      [
        "ur",
        "l"
      ],
      [
        "col",
        "or"
      ],
      [
        "Ġf",
        "etch"
      ],
      [
        "pre",
        "ss"
      ],
      [
        ")",
        "`"
      ],
      [
        "Ġ",
        "ed"
      ],
      [
        "Ġâľ",
        "ĵ"
      ],
      [
        "Ġbec",
        "ause"
      ],
      [
        ":",
        ":"
      ],
      [
        "l",
        "ine"
      ],
      [
        "ĠH",
        "ow"
      ],
      [
        "Ġ}",
        ");"
      ],
      [
        "Ġim",
        "plement"
      ],
      [
        "enc",
        "es"
      ],
      [
        "we",
        "en"
      ],
      [
        "ĠN",
        "e"
      ],
      [
        "plex",
        "ity"
      ],
      [
        "iz",
        "ed"
      ],
      [
        "ĠHT",
        "TP"
      ],
      [
        "S",
        "QL"
      ],
      [
        "i",
        "ed"
      ],
      [
        "Ġin",
        "te"
      ],
      [
        "Ġle",
        "t"
      ],
      [
        "Ġen",
        "v"
      ],
      [
        "Ġfe",
        "ature"
      ],
      [
        "d",
        "ers"
      ],
      [
        "ep",
        "end"
      ],
      [
        "Ġprodu",
        "ction"
      ],
      [
        "ĠA",
        "pp"
      ],
      [
        "ff",
        "ic"
      ],
      [
        "val",
        "ue"
      ],
      [
        "Ġf",
        "iel"
      ],
      [
        "p",
        "e"
      ],
      [
        "Ġm",
        "at"
      ],
      [
        "Ġre",
        "g"
      ],
      [
        "id",
        "d"
      ],
      [
        "ĠT",
        "ype"
      ],
      [
        "ith",
        "m"
      ],
      [
        "Ġcont",
        "ent"
      ],
      [
        "Ġw",
        "eb"
      ],
      [
        "et",
        "er"
      ],
      [
        "Ġlog",
        "ic"
      ],
      [
        "Ġpar",
        "am"
      ],
      [
        "O",
        "D"
      ],
      [
        "Ġu",
        "nderstand"
      ],
      [
        "Ġprodu",
        "ct"
      ],
      [
        "S",
        "S"
      ],
      [
        "s",
        "or"
      ],
      [
        "ro",
        "l"
      ],
      [
        "Ġh",
        "ow"
      ],
      [
        "Ġsy",
        "stem"
      ],
      [
        "Ġmulti",
        "ple"
      ],
      [
        "C",
        "RE"
      ],
      [
        "Ġout",
        "put"
      ],
      [
        "\"",
        "]"
      ],
      [
        "m",
        "l"
      ],
      [
        "in",
        "put"
      ],
      [
        "ĠĠĠĠ",
        "ĠĠ"
      ],
      [
        "Ġk",
        "now"
      ],
      [
        "s",
        "o"
      ],
      [
        "qu",
        "e"
      ],
      [
        "ure",
        "s"
      ],
      [
        "Ġre",
        "m"
      ],
      [
        "im",
        "um"
      ],
      [
        "id",
        "er"
      ],
      [
        "Ġinst",
        "ead"
      ],
      [
        "Ġbet",
        "ween"
      ],
      [
        "Ġel",
        "se"
      ],
      [
        "Ġdoc",
        "ument"
      ],
      [
        "Ġh",
        "t"
      ],
      [
        "1",
        "00"
      ],
      [
        "Ġc",
        "ases"
      ],
      [
        "Ġd",
        "own"
      ],
      [
        "ut",
        "put"
      ],
      [
        "Ġr",
        "ange"
      ],
      [
        "res",
        "h"
      ],
      [
        "Ġcont",
        "ext"
      ],
      [
        "n",
        "o"
      ],
      [
        "Ġf",
        "actor"
      ],
      [
        "Ġr",
        "ate"
      ],
      [
        "A",
        "l"
      ],
      [
        "Ġs",
        "cript"
      ],
      [
        "âĶĢ",
        "âĶ"
      ],
      [
        "ĠA",
        "I"
      ],
      [
        "Ġg",
        "re"
      ],
      [
        "Ġhand",
        "les"
      ],
      [
        "ur",
        "ity"
      ],
      [
        "Ġreturn",
        "s"
      ],
      [
        "ust",
        "om"
      ],
      [
        "ĠW",
        "hat"
      ],
      [
        "Ġas",
        "k"
      ],
      [
        "re",
        "quest"
      ],
      [
        "iv",
        "en"
      ],
      [
        "ro",
        "ss"
      ],
      [
        "ent",
        "ial"
      ],
      [
        "Ġtr",
        "ue"
      ],
      [
        "Ġse",
        "arch"
      ],
      [
        "chem",
        "a"
      ],
      [
        "UL",
        "L"
      ],
      [
        "--------",
        "--------"
      ],
      [
        "p",
        "ar"
      ],
      [
        "Ġn",
        "ull"
      ],
      [
        "ĠN",
        "one"
      ],
      [
        "}",
        "\")"
      ],
      [
        "Ġst",
        "ore"
      ],
      [
        "Ġlog",
        "s"
      ],
      [
        "Ġcle",
        "an"
      ],
      [
        "2",
        "4"
      ],
      [
        "g",
        "or"
      ],
      [
        "o",
        "in"
      ],
      [
        "it",
        "ions"
      ],
      [
        "ĠU",
        "RL"
      ],
      [
        "ff",
        "ect"
      ],
      [
        "e",
        "ar"
      ],
      [
        "Ġ",
        "quest"
      ],
      [
        "pt",
        "im"
      ],
      [
        "Ġneed",
        "s"
      ],
      [
        "Ġac",
        "cess"
      ],
      [
        "gor",
        "ithm"
      ],
      [
        "ed",
        "i"
      ],
      [
        "and",
        "ard"
      ],
      [
        "Ġse",
        "e"
      ],
      [
        "Ġsec",
        "on"
      ],
      [
        "rap",
        "h"
      ],
      [
        "Ġw",
        "as"
      ],
      [
        "Ġcom",
        "ponent"
      ],
      [
        "Ġapp",
        "s"
      ],
      [
        "C",
        "on"
      ],
      [
        "I",
        "f"
      ],
      [
        "n",
        "pm"
      ],
      [
        "R",
        "e"
      ],
      [
        "b",
        "order"
      ],
      [
        "h",
        "ost"
      ],
      [
        "Ġs",
        "ort"
      ],
      [
        "Ġb",
        "reak"
      ],
      [
        "et",
        "urn"
      ],
      [
        "Ġlo",
        "op"
      ],
      [
        "ES",
        "T"
      ],
      [
        "b",
        "y"
      ],
      [
        "Ġt",
        "ra"
      ],
      [
        "Ġw",
        "rong"
      ],
      [
        "as",
        "on"
      ],
      [
        "Ġvalid",
        "ation"
      ],
      [
        "Ġpo",
        "int"
      ],
      [
        "iss",
        "ing"
      ],
      [
        "Ġ",
        "__"
      ],
      [
        "Ġp",
        "os"
      ],
      [
        "ep",
        "ar"
      ],
      [
        "m",
        "s"
      ],
      [
        "t",
        "on"
      ],
      [
        "Ġre",
        "fer"
      ],
      [
        "Ġo",
        "ther"
      ],
      [
        "$",
        "{"
      ],
      [
        "m",
        "it"
      ],
      [
        "re",
        "q"
      ],
      [
        "Ġp",
        "ost"
      ],
      [
        "ĠN",
        "ULL"
      ],
      [
        "Ġsol",
        "ution"
      ],
      [
        "Ġ",
        "Q"
      ],
      [
        "er",
        "n"
      ],
      [
        "Ġc",
        "al"
      ],
      [
        "Ġth",
        "ink"
      ],
      [
        "Ġcomm",
        "it"
      ],
      [
        "gr",
        "am"
      ],
      [
        "bo",
        "ard"
      ],
      [
        "as",
        "ync"
      ],
      [
        "cl",
        "ass"
      ],
      [
        "Ġman",
        "y"
      ],
      [
        "Ġ",
        "X"
      ],
      [
        "it",
        "le"
      ],
      [
        "Ġg",
        "r"
      ],
      [
        "Ġke",
        "ep"
      ],
      [
        "T",
        "r"
      ],
      [
        "s",
        "c"
      ],
      [
        "Ġp",
        "art"
      ],
      [
        "ec",
        "ute"
      ],
      [
        "ac",
        "es"
      ],
      [
        "Ġs",
        "ingle"
      ],
      [
        "Ġth",
        "read"
      ],
      [
        "ĠJ",
        "SON"
      ],
      [
        "e",
        "am"
      ],
      [
        "Ġsh",
        "ow"
      ],
      [
        "i",
        "er"
      ],
      [
        "r",
        "c"
      ],
      [
        "Ġp",
        "age"
      ],
      [
        "Ġm",
        "ake"
      ],
      [
        "ol",
        "ution"
      ],
      [
        "Ġrow",
        "s"
      ],
      [
        "g",
        "res"
      ],
      [
        "Ġs",
        "ign"
      ],
      [
        "Ġm",
        "atch"
      ],
      [
        "Ġor",
        "ders"
      ],
      [
        "res",
        "ult"
      ],
      [
        "Ġresult",
        "s"
      ],
      [
        "Ġ",
        "z"
      ],
      [
        "lo",
        "cal"
      ],
      [
        "Ġatt",
        "ack"
      ],
      [
        "c",
        "ul"
      ],
      [
        "l",
        "en"
      ],
      [
        "m",
        "ap"
      ],
      [
        "}",
        ");"
      ],
      [
        "Ġp",
        "ass"
      ],
      [
        "Ġd",
        "ist"
      ],
      [
        "Ġm",
        "ight"
      ],
      [
        "nt",
        "ic"
      ],
      [
        "Ġapp",
        "lication"
      ],
      [
        "Ġob",
        "ject"
      ],
      [
        "Ġvari",
        "able"
      ],
      [
        "E",
        "F"
      ],
      [
        "p",
        "en"
      ],
      [
        "in",
        "es"
      ],
      [
        "Ġre",
        "l"
      ],
      [
        "a",
        "ys"
      ],
      [
        "Ġnumb",
        "ers"
      ],
      [
        "Ġact",
        "ual"
      ],
      [
        "R",
        "es"
      ],
      [
        "v",
        "ices"
      ],
      [
        "ex",
        "ample"
      ],
      [
        "ĠG",
        "O"
      ],
      [
        "ĊĠĠĠĠĠĠĠĠĠĠĠĠ",
        "ĠĠĠ"
      ],
      [
        "v",
        "es"
      ],
      [
        "y",
        "le"
      ],
      [
        "ple",
        "te"
      ],
      [
        "Ġne",
        "ver"
      ],
      [
        "Ġan",
        "swer"
      ],
      [
        "ĠRe",
        "act"
      ],
      [
        "Ġform",
        "at"
      ],
      [
        "Ġsm",
        "all"
      ],
      [
        "w",
        "are"
      ],
      [
        "ec",
        "h"
      ],
      [
        "Ġ{",
        "\""
      ],
      [
        "St",
        "ate"
      ],
      [
        "con",
        "fig"
      ],
      [
        "he",
        "ntic"
      ],
      [
        "is",
        "k"
      ],
      [
        "ent",
        "er"
      ],
      [
        "id",
        "th"
      ],
      [
        "Ġl",
        "ong"
      ],
      [
        "Ġal",
        "low"
      ],
      [
        "Ġstr",
        "ucture"
      ],
      [
        "F",
        "ix"
      ],
      [
        "Ġre",
        "nder"
      ],
      [
        "ĠI",
        "m"
      ],
      [
        "ĠR",
        "ed"
      ],
      [
        "om",
        "ain"
      ],
      [
        "Ġit",
        "s"
      ],
      [
        "Ġit",
        "er"
      ],
      [
        "ĠD",
        "e"
      ],
      [
        "ĠV",
        "al"
      ],
      [
        "Ġcor",
        "rect"
      ],
      [
        "ĠGO",
        "OD"
      ],
      [
        "c",
        "ode"
      ],
      [
        "i",
        "o"
      ],
      [
        "Ġcon",
        "n"
      ],
      [
        "Ġ4",
        "0"
      ],
      [
        "W",
        "hen"
      ],
      [
        "Ġ",
        ":"
      ],
      [
        "ĠO",
        "N"
      ],
      [
        "Com",
        "mon"
      ],
      [
        "1",
        "5"
      ],
      [
        "Ġto",
        "o"
      ],
      [
        "u",
        "ild"
      ],
      [
        "ent",
        "ly"
      ],
      [
        "Ġl",
        "arge"
      ],
      [
        "ĠA",
        "l"
      ],
      [
        "qu",
        "ery"
      ],
      [
        "ot",
        "al"
      ],
      [
        "ock",
        "et"
      ],
      [
        "ing",
        "s"
      ],
      [
        "Ġlo",
        "ok"
      ],
      [
        "Ġman",
        "ag"
      ],
      [
        "Ġra",
        "ise"
      ],
      [
        "t",
        "en"
      ],
      [
        "Ġo",
        "ld"
      ],
      [
        "Ġst",
        "atus"
      ],
      [
        "add",
        "ing"
      ],
      [
        "Ġlibr",
        "ary"
      ],
      [
        "CRE",
        "ATE"
      ],
      [
        "M",
        "L"
      ],
      [
        "a",
        "le"
      ],
      [
        "v",
        "ed"
      ],
      [
        "is",
        "h"
      ],
      [
        "Ġm",
        "er"
      ],
      [
        "ar",
        "ies"
      ],
      [
        "Ġin",
        "clud"
      ],
      [
        "ĠR",
        "eturn"
      ],
      [
        "Ġpack",
        "age"
      ],
      [
        "'",
        "ll"
      ],
      [
        "I",
        "T"
      ],
      [
        "re",
        "ate"
      ],
      [
        "Ġs",
        "epar"
      ],
      [
        "ĊĠĠĠĠ",
        "ĠĠĠĠ"
      ],
      [
        "Ġus",
        "es"
      ],
      [
        "]",
        ","
      ],
      [
        "er",
        "c"
      ],
      [
        "Ġt",
        "eam"
      ],
      [
        "Ġm",
        "on"
      ],
      [
        "us",
        "es"
      ],
      [
        "Ġw",
        "ill"
      ],
      [
        "Ġr",
        "out"
      ],
      [
        "ĠB",
        "AD"
      ],
      [
        "read",
        "y"
      ],
      [
        "Ġver",
        "ify"
      ],
      [
        "n",
        "ter"
      ],
      [
        "ile",
        "d"
      ],
      [
        "'",
        "m"
      ],
      [
        "p",
        "ath"
      ],
      [
        "p",
        "assword"
      ],
      [
        "s",
        "ed"
      ],
      [
        "im",
        "ary"
      ],
      [
        "ol",
        "d"
      ],
      [
        "enc",
        "ies"
      ],
      [
        "re",
        "ts"
      ],
      [
        "le",
        "ss"
      ],
      [
        "Ġd",
        "ur"
      ],
      [
        "Ġal",
        "ways"
      ],
      [
        "Ġme",
        "thod"
      ],
      [
        "or",
        "s"
      ],
      [
        "are",
        "nt"
      ],
      [
        "back",
        "ground"
      ],
      [
        "i",
        "us"
      ],
      [
        "st",
        "art"
      ],
      [
        "iv",
        "es"
      ],
      [
        "Ġaut",
        "om"
      ],
      [
        "iron",
        "ment"
      ],
      [
        "s",
        "es"
      ],
      [
        "|",
        "----"
      ],
      [
        "in",
        "ess"
      ],
      [
        "re",
        "am"
      ],
      [
        "le",
        "te"
      ],
      [
        "Ġn",
        "am"
      ],
      [
        "Ġg",
        "u"
      ],
      [
        "Ġex",
        "cept"
      ],
      [
        "Ġ5",
        "0"
      ],
      [
        "ind",
        "ow"
      ],
      [
        "1",
        "1"
      ],
      [
        "m",
        "y"
      ],
      [
        "Ġh",
        "app"
      ],
      [
        "ĠRe",
        "ad"
      ],
      [
        "Ġar",
        "ray"
      ],
      [
        "Ġtim",
        "es"
      ],
      [
        "t",
        "al"
      ],
      [
        "Ġf",
        "l"
      ],
      [
        "Ġf",
        "ilter"
      ],
      [
        "ro",
        "p"
      ],
      [
        "Ġst",
        "ill"
      ],
      [
        "Ġrun",
        "s"
      ],
      [
        "Ġcall",
        "s"
      ],
      [
        "[",
        "'"
      ],
      [
        "b",
        "ody"
      ],
      [
        "er",
        "r"
      ],
      [
        "it",
        "ial"
      ],
      [
        "Ġf",
        "ound"
      ],
      [
        "Ġw",
        "rite"
      ],
      [
        "Ġto",
        "tal"
      ],
      [
        "ĠI",
        "D"
      ],
      [
        "ĠS",
        "er"
      ],
      [
        "ot",
        "t"
      ],
      [
        "Ġpro",
        "per"
      ],
      [
        "ĠR",
        "es"
      ],
      [
        "ĠV",
        "er"
      ],
      [
        "$$",
        "$"
      ],
      [
        "Ġht",
        "tp"
      ],
      [
        "5",
        "0"
      ],
      [
        "m",
        "od"
      ],
      [
        "Ġth",
        "ere"
      ],
      [
        "ve",
        "lo"
      ],
      [
        "Ġneed",
        "ed"
      ],
      [
        "Ġever",
        "ything"
      ],
      [
        "Ġpo",
        "ol"
      ],
      [
        "Ġtoken",
        "s"
      ],
      [
        "f",
        "lex"
      ],
      [
        "â",
        "ĸ"
      ],
      [
        "al",
        "ys"
      ],
      [
        "Ġthe",
        "ir"
      ],
      [
        "Ġn",
        "on"
      ],
      [
        "il",
        "t"
      ],
      [
        "Ġl",
        "ength"
      ],
      [
        "Ġde",
        "b"
      ],
      [
        "alys",
        "is"
      ],
      [
        "b",
        "e"
      ],
      [
        "Ġl",
        "ast"
      ],
      [
        "Ġ1",
        "2"
      ],
      [
        "em",
        "pt"
      ],
      [
        "Ġex",
        "ample"
      ],
      [
        "tr",
        "ans"
      ],
      [
        "A",
        "R"
      ],
      [
        "t",
        "ypes"
      ],
      [
        "Ġt",
        "arget"
      ],
      [
        "il",
        "y"
      ],
      [
        "Ġquest",
        "ion"
      ],
      [
        "=",
        "{"
      ],
      [
        "s",
        "cript"
      ],
      [
        "ĠT",
        "est"
      ],
      [
        "idd",
        "le"
      ],
      [
        "Ġ",
        "]"
      ],
      [
        "Ġ`",
        "."
      ],
      [
        "Ġst",
        "andard"
      ],
      [
        "Ġbr",
        "an"
      ],
      [
        "a",
        "iled"
      ],
      [
        "c",
        "d"
      ],
      [
        "Ġ",
        "Y"
      ],
      [
        "im",
        "al"
      ],
      [
        "ĠC",
        "l"
      ],
      [
        "Ġupd",
        "ate"
      ],
      [
        "ĠS",
        "h"
      ],
      [
        "Ġpro",
        "ject"
      ],
      [
        "Ġpro",
        "gram"
      ],
      [
        "Ġ3",
        "0"
      ],
      [
        "it",
        "ive"
      ],
      [
        "Ġre",
        "view"
      ],
      [
        "Ġex",
        "act"
      ],
      [
        "Ġcle",
        "ar"
      ],
      [
        "W",
        "h"
      ],
      [
        "Ċ",
        "ĊĠ"
      ],
      [
        "ĠC",
        "h"
      ],
      [
        "ĠS",
        "e"
      ],
      [
        "ĠA",
        "ND"
      ],
      [
        "8",
        "0"
      ],
      [
        "i",
        "a"
      ],
      [
        "us",
        "h"
      ],
      [
        "Ġe",
        "vent"
      ],
      [
        "Ġmigr",
        "ation"
      ],
      [
        "Ġrec",
        "ord"
      ],
      [
        "plic",
        "it"
      ],
      [
        "ĠP",
        "R"
      ],
      [
        "Ġsh",
        "ared"
      ],
      [
        "Ġbe",
        "h"
      ],
      [
        "AB",
        "LE"
      ],
      [
        "4",
        "0"
      ],
      [
        "I",
        "ON"
      ],
      [
        "g",
        "in"
      ],
      [
        "ĠC",
        "ont"
      ],
      [
        "ĠL",
        "et"
      ],
      [
        "Ġin",
        "f"
      ],
      [
        "Ġn",
        "ode"
      ],
      [
        "el",
        "s"
      ],
      [
        "lic",
        "e"
      ],
      [
        "Ġcharact",
        "ers"
      ],
      [
        "Ġt",
        "ask"
      ],
      [
        "ĠI",
        "P"
      ],
      [
        "ab",
        "ility"
      ],
      [
        "()",
        "."
      ],
      [
        "Ġor",
        "ig"
      ],
      [
        "A",
        "M"
      ],
      [
        "l",
        "ength"
      ],
      [
        "Ġa",
        "d"
      ],
      [
        "Ġthe",
        "se"
      ],
      [
        "Ġm",
        "ain"
      ],
      [
        "Ġ=",
        "=="
      ],
      [
        "pp",
        "ort"
      ],
      [
        "ter",
        "s"
      ],
      [
        "ĠO",
        "r"
      ],
      [
        "ĠE",
        "rror"
      ],
      [
        "U",
        "RL"
      ],
      [
        "a",
        "it"
      ],
      [
        "Ġ1",
        "5"
      ],
      [
        "Ġon",
        "ce"
      ],
      [
        "ĠO",
        "R"
      ],
      [
        "lic",
        "k"
      ],
      [
        "gre",
        "SQL"
      ],
      [
        "Ġele",
        "ments"
      ],
      [
        "Ġhead",
        "ers"
      ],
      [
        "a",
        "ction"
      ],
      [
        "c",
        "i"
      ],
      [
        "i",
        "que"
      ],
      [
        "ash",
        "board"
      ],
      [
        "row",
        "ser"
      ],
      [
        "A",
        "PI"
      ],
      [
        "Ġs",
        "chema"
      ],
      [
        "Ġre",
        "ason"
      ],
      [
        "im",
        "es"
      ],
      [
        "ad",
        "e"
      ],
      [
        "Ġle",
        "ss"
      ],
      [
        "(\"",
        "/"
      ],
      [
        "atic",
        "ally"
      ],
      [
        "Ġele",
        "ment"
      ],
      [
        "d",
        "ate"
      ],
      [
        "Ġc",
        "ook"
      ],
      [
        "al",
        "le"
      ],
      [
        "et",
        "c"
      ],
      [
        "Ġh",
        "ard"
      ],
      [
        "Ġcon",
        "d"
      ],
      [
        "el",
        "ine"
      ],
      [
        "ĠD",
        "ocker"
      ],
      [
        "Ġem",
        "pty"
      ],
      [
        "Ġa",
        "v"
      ],
      [
        "or",
        "age"
      ],
      [
        "ou",
        "gh"
      ],
      [
        "Ġd",
        "et"
      ],
      [
        "Ġ2",
        "00"
      ],
      [
        "ĠEx",
        "ample"
      ],
      [
        "ĠType",
        "Script"
      ],
      [
        "D",
        "on"
      ],
      [
        "b",
        "ase"
      ],
      [
        "o",
        "od"
      ],
      [
        "w",
        "ith"
      ],
      [
        "Ġp",
        "ip"
      ],
      [
        "ĠS",
        "QL"
      ],
      [
        "Ġfactor",
        "ial"
      ],
      [
        "w",
        "idth"
      ],
      [
        "in",
        "ary"
      ],
      [
        "Ġ(",
        "`"
      ],
      [
        "Ġn",
        "ow"
      ],
      [
        "et",
        "work"
      ],
      [
        "Ġres",
        "pon"
      ],
      [
        "Ġcomm",
        "and"
      ],
      [
        "form",
        "ance"
      ],
      [
        "gre",
        "p"
      ],
      [
        "I",
        "G"
      ],
      [
        "Ġ",
        "~"
      ],
      [
        "C",
        "H"
      ],
      [
        "p",
        "os"
      ],
      [
        "Ġe",
        "ven"
      ],
      [
        "Ġ}",
        ","
      ],
      [
        "Ġme",
        "ans"
      ],
      [
        "pr",
        "int"
      ],
      [
        "Ġcontain",
        "er"
      ],
      [
        "e",
        "k"
      ],
      [
        "l",
        "imit"
      ],
      [
        "â",
        "Ĥ"
      ],
      [
        "Ġs",
        "w"
      ],
      [
        "ex",
        "ecute"
      ],
      [
        "Ġse",
        "qu"
      ],
      [
        "Ġfail",
        "s"
      ],
      [
        "dis",
        "play"
      ],
      [
        "Ġsepar",
        "ate"
      ],
      [
        "it",
        "ies"
      ],
      [
        "Ġb",
        "ody"
      ],
      [
        "ver",
        "t"
      ],
      [
        "ri",
        "ct"
      ],
      [
        "Ġwh",
        "ile"
      ],
      [
        "ĠB",
        "Y"
      ],
      [
        "ont",
        "end"
      ],
      [
        "Ġhandl",
        "ing"
      ],
      [
        "Ġ",
        "%"
      ],
      [
        "re",
        "ss"
      ],
      [
        "Ġc",
        "r"
      ],
      [
        "Ġb",
        "ound"
      ],
      [
        "ĠTr",
        "ue"
      ],
      [
        "Ġmess",
        "age"
      ],
      [
        "i",
        "ous"
      ],
      [
        "in",
        "s"
      ],
      [
        "ĠS",
        "ec"
      ],
      [
        "Ġexist",
        "ing"
      ],
      [
        "Ġenv",
        "ironment"
      ],
      [
        "3",
        "0"
      ],
      [
        ">",
        "`"
      ],
      [
        "Ġw",
        "ord"
      ],
      [
        "lo",
        "b"
      ],
      [
        "ame",
        "work"
      ],
      [
        "pl",
        "it"
      ],
      [
        "---",
        "|"
      ],
      [
        ")",
        ");"
      ],
      [
        "Ġf",
        "ol"
      ],
      [
        "Ġn",
        "ext"
      ],
      [
        "Ġe",
        "qu"
      ],
      [
        "id",
        "es"
      ],
      [
        "Ġst",
        "ack"
      ],
      [
        "ĠT",
        "h"
      ],
      [
        "ĠC",
        "I"
      ],
      [
        "p",
        "adding"
      ],
      [
        "ub",
        "lic"
      ],
      [
        "cur",
        "rent"
      ],
      [
        "Ġro",
        "ot"
      ],
      [
        "types",
        "cript"
      ],
      [
        "S",
        "ER"
      ],
      [
        "a",
        "ir"
      ],
      [
        "e",
        "thod"
      ],
      [
        "p",
        "ace"
      ],
      [
        "Ġd",
        "i"
      ],
      [
        "Ġh",
        "ash"
      ],
      [
        "pt",
        "ions"
      ],
      [
        "ĠD",
        "on"
      ],
      [
        "act",
        "ive"
      ],
      [
        "sp",
        "an"
      ],
      [
        "\"",
        "}"
      ],
      [
        "Ġ(",
        ")"
      ],
      [
        "ĠW",
        "eb"
      ],
      [
        "ĠSt",
        "ep"
      ],
      [
        "Ġact",
        "ually"
      ],
      [
        "a",
        "uth"
      ],
      [
        "et",
        "s"
      ],
      [
        "Ġim",
        "m"
      ],
      [
        "Ġ$",
        "$$"
      ],
      [
        "av",
        "a"
      ],
      [
        "Ġcre",
        "ated"
      ],
      [
        "it",
        "or"
      ],
      [
        "Ġs",
        "ize"
      ],
      [
        "Ġm",
        "et"
      ],
      [
        "Ġl",
        "ay"
      ],
      [
        "em",
        "ent"
      ],
      [
        "('",
        "/"
      ],
      [
        "Ġoper",
        "ations"
      ],
      [
        "P",
        "U"
      ],
      [
        "d",
        "own"
      ],
      [
        "o",
        "f"
      ],
      [
        "ou",
        "nter"
      ],
      [
        "Ġlo",
        "cal"
      ],
      [
        "row",
        "s"
      ],
      [
        "Ġde",
        "v"
      ],
      [
        "Ġrun",
        "ning"
      ],
      [
        "P",
        "T"
      ],
      [
        "c",
        "le"
      ],
      [
        "or",
        "m"
      ],
      [
        "ag",
        "s"
      ],
      [
        "du",
        "ct"
      ],
      [
        "po",
        "se"
      ],
      [
        "D",
        "ATE"
      ],
      [
        "M",
        "y"
      ],
      [
        "u",
        "nd"
      ],
      [
        "Ġd",
        "omain"
      ],
      [
        "ut",
        "es"
      ],
      [
        "Ġid",
        "ent"
      ],
      [
        "Ġmod",
        "ule"
      ],
      [
        "fl",
        "ict"
      ],
      [
        "B",
        "y"
      ],
      [
        "S",
        "ocket"
      ],
      [
        "le",
        "ment"
      ],
      [
        "Ġp",
        "od"
      ],
      [
        "ĠT",
        "ABLE"
      ],
      [
        "Ġal",
        "ready"
      ],
      [
        "Ġac",
        "ross"
      ],
      [
        "Ġsec",
        "urity"
      ],
      [
        "Ġdepend",
        "encies"
      ],
      [
        "w",
        "ard"
      ],
      [
        "Ġe",
        "vents"
      ],
      [
        "Ġo",
        "ptim"
      ],
      [
        "Ġit",
        "em"
      ],
      [
        "ess",
        "age"
      ],
      [
        "Ġvalid",
        "ate"
      ],
      [
        "but",
        "ton"
      ],
      [
        "]",
        ")"
      ],
      [
        "f",
        "ix"
      ],
      [
        "re",
        "n"
      ],
      [
        "Ġc",
        "ause"
      ],
      [
        "al",
        "y"
      ],
      [
        "Ġâ",
        "ī"
      ],
      [
        "ĠN",
        "ode"
      ],
      [
        "Ġconnection",
        "s"
      ],
      [
        "i",
        "or"
      ],
      [
        "t",
        "es"
      ],
      [
        "Ġ",
        "?"
      ],
      [
        "Ġa",
        "m"
      ],
      [
        "he",
        "s"
      ],
      [
        "it",
        "er"
      ],
      [
        "Ġf",
        "alse"
      ],
      [
        "im",
        "ple"
      ],
      [
        "Ġdepend",
        "ency"
      ],
      [
        "m",
        "ail"
      ],
      [
        "n",
        "um"
      ],
      [
        "ľ",
        "âĶĢâĶĢ"
      ],
      [
        "Ġr",
        "andom"
      ],
      [
        "ri",
        "es"
      ],
      [
        "Ġcom",
        "plex"
      ],
      [
        "arg",
        "in"
      ],
      [
        "L",
        "ist"
      ],
      [
        "T",
        "ER"
      ],
      [
        "a",
        "int"
      ],
      [
        "Ġc",
        "ustom"
      ],
      [
        "Ġf",
        "ine"
      ],
      [
        "id",
        "ed"
      ],
      [
        "un",
        "c"
      ],
      [
        "end",
        "ing"
      ],
      [
        "Ġke",
        "ys"
      ],
      [
        "Ġag",
        "ain"
      ],
      [
        "Ġdur",
        "ing"
      ],
      [
        "Ġw",
        "rit"
      ],
      [
        "ĠN",
        "ot"
      ],
      [
        "ĠO",
        "utput"
      ],
      [
        "up",
        "lic"
      ],
      [
        "ay",
        "ment"
      ],
      [
        "|--------",
        "--"
      ],
      [
        "gre",
        "ss"
      ],
      [
        "Ġchang",
        "ed"
      ],
      [
        "Ġiss",
        "ues"
      ],
      [
        "A",
        "SE"
      ],
      [
        "g",
        "ers"
      ],
      [
        "re",
        "qu"
      ],
      [
        "Ġw",
        "indow"
      ],
      [
        "Ġl",
        "en"
      ],
      [
        "ra",
        "int"
      ],
      [
        "Ġset",
        "up"
      ],
      [
        "ne",
        "w"
      ],
      [
        "Ġ6",
        "0"
      ],
      [
        "re",
        "d"
      ],
      [
        "an",
        "k"
      ],
      [
        "âĶ",
        "ģ"
      ],
      [
        "Ġn",
        "pm"
      ],
      [
        "Ġcon",
        "flict"
      ],
      [
        "Ġus",
        "ed"
      ],
      [
        "ĠU",
        "s"
      ],
      [
        "Ġcolumn",
        "s"
      ],
      [
        "`",
        ")"
      ],
      [
        "m",
        "ost"
      ],
      [
        "on",
        "ly"
      ],
      [
        "he",
        "d"
      ],
      [
        "ĠS",
        "olution"
      ],
      [
        "Ġle",
        "ak"
      ],
      [
        "Ġstring",
        "s"
      ],
      [
        "12",
        "3"
      ],
      [
        "f",
        "low"
      ],
      [
        "f",
        "etch"
      ],
      [
        "o",
        "id"
      ],
      [
        "in",
        "ter"
      ],
      [
        "Ġs",
        "ession"
      ],
      [
        "Ġn",
        "um"
      ],
      [
        "ic",
        "ally"
      ],
      [
        "Ġca",
        "uses"
      ],
      [
        "h",
        "ip"
      ],
      [
        "Ġ",
        ")"
      ],
      [
        "at",
        "ches"
      ],
      [
        "Ġ[",
        "]"
      ],
      [
        "Ġexist",
        "s"
      ],
      [
        "iddle",
        "ware"
      ],
      [
        "3",
        "2"
      ],
      [
        "Ġt",
        "yp"
      ],
      [
        "Ġm",
        "issing"
      ],
      [
        "ĠI",
        "s"
      ],
      [
        "ĠA",
        "r"
      ],
      [
        "Ġle",
        "vel"
      ],
      [
        "Ġim",
        "age"
      ],
      [
        "Ġsec",
        "rets"
      ],
      [
        "|--------",
        "----"
      ],
      [
        "Ġstate",
        "ment"
      ],
      [
        "Ġfiel",
        "ds"
      ],
      [
        "Ġgre",
        "p"
      ],
      [
        "velo",
        "p"
      ],
      [
        "A",
        "pp"
      ],
      [
        "b",
        "ased"
      ],
      [
        "t",
        "he"
      ],
      [
        "t",
        "itle"
      ],
      [
        "Ġw",
        "ould"
      ],
      [
        "Ġis",
        "n"
      ],
      [
        "ĠI",
        "NT"
      ],
      [
        "ef",
        "ined"
      ],
      [
        "cript",
        "ion"
      ],
      [
        "âĶģ",
        "âĶģ"
      ],
      [
        "al",
        "th"
      ],
      [
        "is",
        "ion"
      ],
      [
        "ĠS",
        "E"
      ],
      [
        "pl",
        "ain"
      ],
      [
        "Ġse",
        "lect"
      ],
      [
        "T",
        "ype"
      ],
      [
        "t",
        "otal"
      ],
      [
        "ĠĠĠĠĠĠĠĠ",
        "Ġ"
      ],
      [
        "ĠR",
        "un"
      ],
      [
        "ĠF",
        "ix"
      ],
      [
        "umb",
        "er"
      ],
      [
        "Ġrun",
        "time"
      ],
      [
        "ĠCon",
        "s"
      ],
      [
        "y",
        "stem"
      ],
      [
        "Ã",
        "Ĺ"
      ],
      [
        "Ġf",
        "low"
      ],
      [
        "Ġe",
        "as"
      ],
      [
        "ss",
        "ible"
      ],
      [
        "ĠF",
        "ind"
      ],
      [
        "ĠSt",
        "ring"
      ],
      [
        "Ġfunction",
        "s"
      ],
      [
        "âķĲâķĲâķĲâķĲ",
        "âķĲâķĲâķĲâķĲ"
      ],
      [
        "http",
        "s"
      ],
      [
        "9",
        "9"
      ],
      [
        "D",
        "ER"
      ],
      [
        "P",
        "DATE"
      ],
      [
        "S",
        "e"
      ],
      [
        "c",
        "rypt"
      ],
      [
        "Ġs",
        "ource"
      ],
      [
        "Ġex",
        "plicit"
      ],
      [
        "D",
        "ata"
      ],
      [
        "I",
        "m"
      ],
      [
        "O",
        "U"
      ],
      [
        "o",
        "ff"
      ],
      [
        "p",
        "h"
      ],
      [
        "p",
        "i"
      ],
      [
        "Ġre",
        "d"
      ],
      [
        "```",
        "<|"
      ],
      [
        "Ġcom",
        "plete"
      ],
      [
        "ĠU",
        "n"
      ],
      [
        "res",
        "ent"
      ],
      [
        "Ġbu",
        "ilt"
      ],
      [
        "Ġar",
        "g"
      ],
      [
        "Ġtrans",
        "form"
      ],
      [
        "iel",
        "d"
      ],
      [
        "Ġpattern",
        "s"
      ],
      [
        "bo",
        "x"
      ],
      [
        "T",
        "E"
      ],
      [
        "f",
        "r"
      ],
      [
        "s",
        "ive"
      ],
      [
        "it",
        "em"
      ],
      [
        "le",
        "vel"
      ],
      [
        "Ġto",
        "p"
      ],
      [
        "ore",
        "s"
      ],
      [
        "Ġro",
        "ll"
      ],
      [
        "Ġsu",
        "pport"
      ],
      [
        "ption",
        "al"
      ],
      [
        "Ġhandl",
        "er"
      ],
      [
        "25",
        "6"
      ],
      [
        "edi",
        "ate"
      ],
      [
        ")",
        "}"
      ],
      [
        "R",
        "ule"
      ],
      [
        "S",
        "er"
      ],
      [
        "at",
        "er"
      ],
      [
        "Ġs",
        "afe"
      ],
      [
        "an",
        "c"
      ],
      [
        "Ġw",
        "ay"
      ],
      [
        "Ġin",
        "v"
      ],
      [
        "Ġh",
        "ere"
      ],
      [
        "cre",
        "ate"
      ],
      [
        "Ġsome",
        "thing"
      ],
      [
        "(",
        "()"
      ],
      [
        ".",
        "\""
      ],
      [
        "h",
        "and"
      ],
      [
        "in",
        "it"
      ],
      [
        "Ġb",
        "rowser"
      ],
      [
        "il",
        "er"
      ],
      [
        "od",
        "ing"
      ],
      [
        "Ġhead",
        "er"
      ],
      [
        "Ġdirect",
        "ly"
      ],
      [
        "Ġbran",
        "ch"
      ],
      [
        "O",
        "ST"
      ],
      [
        "T",
        "h"
      ],
      [
        "n",
        "one"
      ],
      [
        "Ġb",
        "ased"
      ],
      [
        "Ġh",
        "ist"
      ],
      [
        "Ġg",
        "rou"
      ],
      [
        "ri",
        "v"
      ],
      [
        "ach",
        "ing"
      ],
      [
        "ĠW",
        "hen"
      ],
      [
        "com",
        "m"
      ],
      [
        "ĠPost",
        "greSQL"
      ],
      [
        "Ġbeh",
        "av"
      ],
      [
        "6",
        "4"
      ],
      [
        "P",
        "ython"
      ],
      [
        "e",
        "ction"
      ],
      [
        "x",
        "y"
      ],
      [
        "Ġ",
        "@"
      ],
      [
        "in",
        "ation"
      ],
      [
        "is",
        "m"
      ],
      [
        "Ġm",
        "ock"
      ],
      [
        "Ġg",
        "cd"
      ],
      [
        "ĠD",
        "B"
      ],
      [
        "ĠD",
        "es"
      ],
      [
        "Ġus",
        "ually"
      ],
      [
        "St",
        "ore"
      ],
      [
        "Ġtime",
        "out"
      ],
      [
        "Ġmess",
        "ages"
      ],
      [
        "Ġiss",
        "ue"
      ],
      [
        "wh",
        "ere"
      ],
      [
        "Ġpost",
        "s"
      ],
      [
        "local",
        "host"
      ],
      [
        "d",
        "ocker"
      ],
      [
        "r",
        "un"
      ],
      [
        "Ġt",
        "em"
      ],
      [
        "ro",
        "ll"
      ],
      [
        "ex",
        "p"
      ],
      [
        "ri",
        "but"
      ],
      [
        "pl",
        "er"
      ],
      [
        "ĠG",
        "ener"
      ],
      [
        "Ġcheck",
        "s"
      ],
      [
        "Ġcons",
        "ole"
      ],
      [
        "ĠAn",
        "alysis"
      ],
      [
        "N",
        "o"
      ],
      [
        "r",
        "ad"
      ],
      [
        "st",
        "ate"
      ],
      [
        "ou",
        "d"
      ],
      [
        "ĠC",
        "S"
      ],
      [
        "ĠĠĠĠĠĠĠĠ",
        "ĠĠ"
      ],
      [
        "Ġal",
        "so"
      ],
      [
        "Ġu",
        "nd"
      ],
      [
        "ĊĠĠĠĠĠĠĠĠĠĠĠĠ",
        "ĠĠĠĠĠĠĠ"
      ],
      [
        "EX",
        "T"
      ],
      [
        "erc",
        "ase"
      ],
      [
        "'",
        ")."
      ],
      [
        ")",
        "**"
      ],
      [
        "E",
        "D"
      ],
      [
        "I",
        "t"
      ],
      [
        "O",
        "r"
      ],
      [
        "W",
        "T"
      ],
      [
        "[",
        "\""
      ],
      [
        "e",
        "ature"
      ],
      [
        "Ġ",
        "!"
      ],
      [
        "Ġt",
        "ell"
      ],
      [
        "Ġf",
        "lex"
      ],
      [
        "Ġh",
        "igh"
      ],
      [
        "Ġr",
        "ules"
      ],
      [
        "()",
        ")"
      ],
      [
        "Ġret",
        "ry"
      ],
      [
        "ĠW",
        "h"
      ],
      [
        "ĠJ",
        "ava"
      ],
      [
        "Ġget",
        "s"
      ],
      [
        "Ġmin",
        "utes"
      ],
      [
        "ateg",
        "y"
      ],
      [
        ".",
        "_"
      ],
      [
        "h",
        "ash"
      ],
      [
        "y",
        "n"
      ],
      [
        "Ġre",
        "q"
      ],
      [
        "ĠS",
        "c"
      ],
      [
        "Ġal",
        "gorithm"
      ],
      [
        "Ġsp",
        "ace"
      ],
      [
        "t",
        "ed"
      ],
      [
        "Ġ",
        "Key"
      ],
      [
        "ĠC",
        "reate"
      ],
      [
        "ht",
        "ml"
      ],
      [
        "con",
        "n"
      ],
      [
        "Ġconst",
        "raint"
      ],
      [
        "Ġaut",
        "hentic"
      ],
      [
        "Ġfol",
        "low"
      ],
      [
        "6",
        "0"
      ],
      [
        "o",
        "se"
      ],
      [
        "am",
        "l"
      ],
      [
        "ĠT",
        "EXT"
      ],
      [
        "Ġr",
        "isk"
      ],
      [
        "Ġg",
        "it"
      ],
      [
        "Ġser",
        "vices"
      ],
      [
        "rit",
        "ical"
      ],
      [
        "ook",
        "s"
      ],
      [
        "Ġdiffer",
        "ence"
      ],
      [
        "âĶĢâĶĢâĶĢâĶĢâĶĢâĶĢâĶĢâĶĢâĶĢâĶĢâĶĢâĶĢâĶĢâĶĢâĶĢâĶĢ",
        "âĶĢâĶĢâĶĢâĶĢâĶĢâĶĢâĶĢâĶĢâĶĢâĶĢâĶĢâĶĢâĶĢâĶĢâĶĢâĶĢ"
      ],
      [
        "plement",
        "ation"
      ],
      [
        "Ġext",
        "ract"
      ],
      [
        "Ġautom",
        "atically"
      ],
      [
        "E",
        "Y"
      ],
      [
        "O",
        "P"
      ],
      [
        "m",
        "at"
      ],
      [
        "Ġ",
        "</"
      ],
      [
        "an",
        "y"
      ],
      [
        "Ġp",
        "ort"
      ],
      [
        "Ġp",
        "air"
      ],
      [
        "Ġb",
        "l"
      ],
      [
        "Ġb",
        "ase"
      ],
      [
        "ul",
        "ar"
      ],
      [
        "ĠCom",
        "plexity"
      ],
      [
        "Ġaut",
        "o"
      ],
      [
        "Ġcharact",
        "er"
      ],
      [
        "cont",
        "ent"
      ],
      [
        "ĠâĶ",
        "Ķ"
      ],
      [
        "alle",
        "l"
      ],
      [
        "C",
        "l"
      ],
      [
        "m",
        "et"
      ],
      [
        "o",
        "ice"
      ],
      [
        "v",
        "ious"
      ],
      [
        "z",
        "e"
      ],
      [
        "ef",
        "ul"
      ],
      [
        "AT",
        "AB"
      ],
      [
        "Ġcur",
        "sor"
      ],
      [
        "sh",
        "ot"
      ],
      [
        "Ġprov",
        "ide"
      ],
      [
        "Ġref",
        "resh"
      ],
      [
        "ĠRed",
        "is"
      ],
      [
        "gin",
        "x"
      ],
      [
        "orm",
        "al"
      ],
      [
        "ATAB",
        "ASE"
      ],
      [
        "a",
        "ut"
      ],
      [
        "b",
        "ound"
      ],
      [
        "m",
        "ain"
      ],
      [
        "Ġ",
        "etc"
      ],
      [
        "Ġc",
        "lo"
      ],
      [
        "Ġw",
        "ait"
      ],
      [
        "am",
        "ily"
      ],
      [
        "ĠP",
        "r"
      ],
      [
        "Ġdepend",
        "s"
      ],
      [
        "Pro",
        "file"
      ],
      [
        "Ġmer",
        "ge"
      ],
      [
        "Ġbehav",
        "ior"
      ],
      [
        "T",
        "ime"
      ],
      [
        "m",
        "essage"
      ],
      [
        "s",
        "rc"
      ],
      [
        "in",
        "ce"
      ],
      [
        "Ġp",
        "arent"
      ],
      [
        "Ġcon",
        "f"
      ],
      [
        "ord",
        "ers"
      ],
      [
        "ĠL",
        "o"
      ],
      [
        "ĠL",
        "ist"
      ],
      [
        "load",
        "s"
      ],
      [
        "ob",
        "ile"
      ],
      [
        "Ġendpoint",
        "s"
      ],
      [
        "A",
        "dd"
      ],
      [
        "f",
        "ilter"
      ],
      [
        "Ġe",
        "ffect"
      ],
      [
        "Ġid",
        "x"
      ],
      [
        "ud",
        "it"
      ],
      [
        "pro",
        "cess"
      ],
      [
        "?",
        "**"
      ],
      [
        "S",
        "ec"
      ],
      [
        "s",
        "ub"
      ],
      [
        "w",
        "s"
      ],
      [
        "y",
        "aml"
      ],
      [
        "Ġ",
        "Ð"
      ],
      [
        "Ġb",
        "al"
      ],
      [
        "ver",
        "sion"
      ],
      [
        "ag",
        "er"
      ],
      [
        "Ġlog",
        "in"
      ],
      [
        "Ġper",
        "m"
      ],
      [
        "Ġspec",
        "ial"
      ],
      [
        "In",
        "put"
      ],
      [
        "ĠT",
        "ime"
      ],
      [
        "Ġg",
        "iven"
      ],
      [
        "Ġv",
        "ia"
      ],
      [
        "cept",
        "ion"
      ],
      [
        "Ġdeb",
        "ug"
      ],
      [
        "b",
        "ab"
      ],
      [
        "t",
        "y"
      ],
      [
        "Ġb",
        "ro"
      ],
      [
        "Ġ[",
        "\""
      ],
      [
        "Ġbet",
        "ter"
      ],
      [
        "Ġparam",
        "eter"
      ],
      [
        "c",
        "ard"
      ],
      [
        "c",
        "ache"
      ],
      [
        "Ġb",
        "inary"
      ],
      [
        "am",
        "p"
      ],
      [
        "ation",
        "al"
      ],
      [
        "ĠA",
        "L"
      ],
      [
        "op",
        "y"
      ],
      [
        "Ġsecon",
        "ds"
      ],
      [
        "Tr",
        "ue"
      ],
      [
        "ĠWeb",
        "Socket"
      ],
      [
        "M",
        "B"
      ],
      [
        "m",
        "pt"
      ],
      [
        "w",
        "rite"
      ],
      [
        "Ġc",
        "o"
      ],
      [
        "ĠP",
        "l"
      ],
      [
        "ĠD",
        "ef"
      ],
      [
        "ĠE",
        "ach"
      ],
      [
        "Ġlog",
        "ging"
      ],
      [
        "Ġexp",
        "ected"
      ],
      [
        "Cont",
        "ent"
      ],
      [
        "ĊĠĠĠĠĠĠĠĠ",
        "ĊĠĠĠĠĠĠĠ"
      ],
      [
        "s",
        "afe"
      ],
      [
        "t",
        "ask"
      ],
      [
        "â",
        "Ģ"
      ],
      [
        "Ġc",
        "atch"
      ],
      [
        "is",
        "on"
      ],
      [
        "us",
        "iness"
      ],
      [
        "Ġtr",
        "ace"
      ],
      [
        "Ġind",
        "epend"
      ],
      [
        "Ke",
        "ep"
      ],
      [
        "oth",
        "er"
      ],
      [
        "sp",
        "ec"
      ],
      [
        "Ġâľ",
        "ħ"
      ],
      [
        "Ġrequire",
        "d"
      ],
      [
        "Ġfr",
        "ontend"
      ],
      [
        "ool",
        "s"
      ],
      [
        "ffic",
        "ient"
      ],
      [
        "Ġsecon",
        "d"
      ],
      [
        "ott",
        "om"
      ],
      [
        "Wh",
        "y"
      ],
      [
        "'",
        "ve"
      ],
      [
        "I",
        "D"
      ],
      [
        "a",
        "wait"
      ],
      [
        "n",
        "ly"
      ],
      [
        "Ġc",
        "ost"
      ],
      [
        "Ġ(",
        "!"
      ],
      [
        "lo",
        "at"
      ],
      [
        "Ġth",
        "ings"
      ],
      [
        "ĠS",
        "et"
      ],
      [
        "Ġle",
        "ft"
      ],
      [
        "Ġcal",
        "cul"
      ],
      [
        "Ġvariable",
        "s"
      ],
      [
        "Ġnam",
        "es"
      ],
      [
        ".",
        ","
      ],
      [
        "N",
        "C"
      ],
      [
        "O",
        "W"
      ],
      [
        "Ġm",
        "ark"
      ],
      [
        "Ġn",
        "etwork"
      ],
      [
        "ce",
        "ed"
      ],
      [
        "pl",
        "ate"
      ],
      [
        "pl",
        "ace"
      ],
      [
        "ĠW",
        "e"
      ],
      [
        "ific",
        "ations"
      ],
      [
        "Ġent",
        "ire"
      ],
      [
        "ĠQ",
        "u"
      ],
      [
        "Ġsequ",
        "ence"
      ],
      [
        "C",
        "h"
      ],
      [
        "m",
        "argin"
      ],
      [
        "Ġa",
        "ction"
      ],
      [
        "Ġm",
        "ist"
      ],
      [
        "se",
        "arch"
      ],
      [
        "ĠP",
        "er"
      ],
      [
        "Ġg",
        "lob"
      ],
      [
        "ĠThe",
        "y"
      ],
      [
        "iv",
        "ity"
      ],
      [
        "Ġcont",
        "rol"
      ],
      [
        "Ġfail",
        "ure"
      ],
      [
        "Ġsu",
        "ccess"
      ],
      [
        "we",
        "ight"
      ],
      [
        "Ġfiel",
        "d"
      ],
      [
        "n",
        "ap"
      ],
      [
        "in",
        "clud"
      ],
      [
        "st",
        "at"
      ],
      [
        "Ġre",
        "st"
      ],
      [
        "Ġw",
        "or"
      ],
      [
        "Ġin",
        "cre"
      ],
      [
        "lo",
        "c"
      ],
      [
        "ri",
        "pe"
      ],
      [
        "ĠF",
        "alse"
      ],
      [
        "Ġadd",
        "ed"
      ],
      [
        "Ġlimit",
        "s"
      ],
      [
        "nap",
        "shot"
      ],
      [
        "1",
        "6"
      ],
      [
        "E",
        "lement"
      ],
      [
        "h",
        "er"
      ],
      [
        "Ġt",
        "akes"
      ],
      [
        "re",
        "f"
      ],
      [
        "Ġp",
        "e"
      ],
      [
        "Ġ|",
        "|"
      ],
      [
        "ag",
        "ing"
      ],
      [
        "ĠR",
        "ep"
      ],
      [
        "to",
        "p"
      ],
      [
        "Ġbe",
        "ing"
      ],
      [
        "js",
        "x"
      ],
      [
        "Ġcre",
        "ates"
      ],
      [
        "ache",
        "s"
      ],
      [
        "Ġcons",
        "um"
      ],
      [
        "Ġfr",
        "amework"
      ],
      [
        "================",
        "================"
      ],
      [
        "Ġprov",
        "ided"
      ],
      [
        "Ġexact",
        "ly"
      ],
      [
        "Ġhist",
        "ory"
      ],
      [
        "`",
        "**"
      ],
      [
        "f",
        "ace"
      ],
      [
        "l",
        "ike"
      ],
      [
        "Ġt",
        "en"
      ],
      [
        "it",
        "ch"
      ],
      [
        "Ġd",
        "at"
      ],
      [
        "Ġh",
        "our"
      ],
      [
        "Ġex",
        "ternal"
      ],
      [
        "ir",
        "d"
      ],
      [
        "Ġ8",
        "0"
      ],
      [
        "Ġdes",
        "ign"
      ],
      [
        "Ġgo",
        "od"
      ],
      [
        "ĠVal",
        "ue"
      ],
      [
        "l",
        "ing"
      ],
      [
        "r",
        "andom"
      ],
      [
        "se",
        "cre"
      ],
      [
        "Ġ**",
        "`"
      ],
      [
        "âĶĢâĶĢâĶĢâĶĢâĶĢâĶĢâĶĢâĶĢ",
        "âĶĢâĶĢâĶĢâĶĢ"
      ],
      [
        "Ġprocess",
        "ing"
      ],
      [
        "Ġsol",
        "ve"
      ],
      [
        "Ġpos",
        "ition"
      ],
      [
        ">",
        ";"
      ],
      [
        "E",
        "N"
      ],
      [
        "r",
        "ust"
      ],
      [
        "re",
        "nc"
      ],
      [
        "ver",
        "s"
      ],
      [
        "ĠR",
        "EST"
      ],
      [
        "Ġlo",
        "c"
      ],
      [
        "ĠU",
        "p"
      ],
      [
        "Ġper",
        "formance"
      ],
      [
        "Ġrequire",
        "s"
      ],
      [
        "rad",
        "ius"
      ],
      [
        "O",
        "L"
      ],
      [
        "f",
        "ind"
      ],
      [
        "w",
        "ay"
      ],
      [
        "Ġ(",
        "\""
      ],
      [
        "Ġin",
        "side"
      ],
      [
        "ĠC",
        "PU"
      ],
      [
        "Ġcom",
        "plexity"
      ],
      [
        "ire",
        "ction"
      ],
      [
        "St",
        "ring"
      ],
      [
        "ĠYou",
        "r"
      ],
      [
        "ential",
        "s"
      ],
      [
        "my",
        "app"
      ],
      [
        "ĠSer",
        "ver"
      ],
      [
        "(",
        "("
      ],
      [
        "R",
        "F"
      ],
      [
        "S",
        "h"
      ],
      [
        "g",
        "ener"
      ],
      [
        "ĊĠĠĠĠ",
        "ĠĠĠĠĠ"
      ],
      [
        "pp",
        "ing"
      ],
      [
        "Ġ1",
        "000"
      ],
      [
        "ĠE",
        "n"
      ],
      [
        "Ġsec",
        "ret"
      ],
      [
        "Ġback",
        "end"
      ],
      [
        "ĠHT",
        "ML"
      ],
      [
        "de",
        "v"
      ],
      [
        "N",
        "ot"
      ],
      [
        "W",
        "S"
      ],
      [
        "st",
        "yle"
      ],
      [
        "Ġwh",
        "y"
      ],
      [
        "',",
        "'"
      ],
      [
        "Ġcomm",
        "its"
      ],
      [
        "Ġen",
        "ough"
      ],
      [
        "Ġatt",
        "empt"
      ],
      [
        "ĠDe",
        "v"
      ],
      [
        "*",
        "."
      ],
      [
        "f",
        "amily"
      ],
      [
        "m",
        "ing"
      ],
      [
        "r",
        "ate"
      ],
      [
        "he",
        "ight"
      ],
      [
        "Ġc",
        "ron"
      ],
      [
        "Ġin",
        "ternal"
      ],
      [
        "Ġin",
        "itial"
      ],
      [
        "if",
        "ied"
      ],
      [
        "out",
        "put"
      ],
      [
        "Ġ4",
        "2"
      ],
      [
        "Ġun",
        "ique"
      ],
      [
        "ĠAPI",
        "s"
      ],
      [
        "ĠIn",
        "put"
      ],
      [
        "arg",
        "s"
      ],
      [
        "Ġcomp",
        "ar"
      ],
      [
        "Ġrout",
        "e"
      ],
      [
        "c",
        "heck"
      ],
      [
        "l",
        "ast"
      ],
      [
        "Ġc",
        "aching"
      ],
      [
        "ĠI",
        "ND"
      ],
      [
        "Ġl",
        "ink"
      ],
      [
        "Ġcon",
        "c"
      ],
      [
        "ve",
        "ct"
      ],
      [
        "ĠSt",
        "r"
      ],
      [
        "ition",
        "al"
      ],
      [
        "Ġgener",
        "ate"
      ],
      [
        "Ġauth",
        "or"
      ],
      [
        "Ġrefer",
        "ence"
      ],
      [
        "ĠIND",
        "EX"
      ],
      [
        "j",
        "oin"
      ],
      [
        "m",
        "ary"
      ],
      [
        "n",
        "ext"
      ],
      [
        "}",
        "</"
      ],
      [
        "Ġ",
        "Z"
      ],
      [
        "in",
        "st"
      ],
      [
        "Ġp",
        "ract"
      ],
      [
        "ar",
        "s"
      ],
      [
        "ver",
        "se"
      ],
      [
        "Ġpro",
        "xy"
      ],
      [
        "ĠP",
        "re"
      ],
      [
        "ak",
        "ing"
      ],
      [
        "Ġpr",
        "imary"
      ],
      [
        "cre",
        "ated"
      ],
      [
        "OR",
        "S"
      ],
      [
        "Ġrespon",
        "ses"
      ],
      [
        "d",
        "ict"
      ],
      [
        "g",
        "g"
      ],
      [
        "l",
        "er"
      ],
      [
        "s",
        "u"
      ],
      [
        "Ġc",
        "ould"
      ],
      [
        "ut",
        "il"
      ],
      [
        "ĠS",
        "ET"
      ],
      [
        "pp",
        "er"
      ],
      [
        "ab",
        "el"
      ],
      [
        "Ġex",
        "ec"
      ],
      [
        "Ġme",
        "an"
      ],
      [
        "post",
        "s"
      ],
      [
        "Ġtra",
        "ffic"
      ],
      [
        "3",
        "6"
      ],
      [
        "O",
        "IN"
      ],
      [
        "e",
        "ed"
      ],
      [
        "n",
        "ode"
      ],
      [
        "t",
        "il"
      ],
      [
        "Ġf",
        "ailed"
      ],
      [
        "ad",
        "min"
      ],
      [
        "Ġth",
        "umb"
      ],
      [
        "Ġcom",
        "put"
      ],
      [
        "Ġtr",
        "ack"
      ],
      [
        "Ġ5",
        "00"
      ],
      [
        "res",
        "ponse"
      ],
      [
        "ign",
        "ore"
      ],
      [
        "ath",
        "er"
      ],
      [
        "cur",
        "sor"
      ],
      [
        "ator",
        "s"
      ],
      [
        "oc",
        "ument"
      ],
      [
        "Ġinclud",
        "e"
      ],
      [
        "By",
        "Id"
      ],
      [
        "Ġund",
        "efined"
      ],
      [
        "8",
        "5"
      ],
      [
        "H",
        "T"
      ],
      [
        "c",
        "all"
      ],
      [
        "e",
        "vent"
      ],
      [
        "l",
        "ight"
      ],
      [
        "at",
        "t"
      ],
      [
        "Ġp",
        "h"
      ],
      [
        "ĠC",
        "ode"
      ],
      [
        "ol",
        "ve"
      ],
      [
        "ĠR",
        "ust"
      ],
      [
        "Ġ2",
        "5"
      ],
      [
        "ail",
        "s"
      ],
      [
        "Ġan",
        "aly"
      ],
      [
        "ap",
        "e"
      ],
      [
        "Ġ}",
        ")"
      ],
      [
        "che",
        "d"
      ],
      [
        "ĠĠĠĠĠĠĠĠĠĠĠĠĠĠĠĠ",
        "ĠĠĠĠĠĠĠĠĠĠĠĠĠĠĠĠ"
      ],
      [
        "ĠPro",
        "blem"
      ],
      [
        "Ġimm",
        "ediate"
      ],
      [
        "P",
        "L"
      ],
      [
        "W",
        "e"
      ],
      [
        "]",
        "`"
      ],
      [
        "g",
        "y"
      ],
      [
        "j",
        "ection"
      ],
      [
        "t",
        "ract"
      ],
      [
        "Ġt",
        "ree"
      ],
      [
        "ĠS",
        "imple"
      ],
      [
        "Ġr",
        "ule"
      ],
      [
        "()",
        ","
      ],
      [
        "Ġapp",
        "ro"
      ],
      [
        "Ex",
        "ample"
      ],
      [
        "Ġbug",
        "s"
      ],
      [
        "ĠValue",
        "Error"
      ],
      [
        "d",
        "o"
      ],
      [
        "v",
        "ing"
      ],
      [
        "ant",
        "s"
      ],
      [
        "ĠB",
        "ut"
      ],
      [
        "ire",
        "s"
      ],
      [
        "ĠSt",
        "ate"
      ],
      [
        "Ġcre",
        "d"
      ],
      [
        "log",
        "in"
      ],
      [
        "UL",
        "T"
      ],
      [
        "Ġtool",
        "s"
      ],
      [
        "Ġed",
        "ge"
      ],
      [
        "l",
        "ate"
      ],
      [
        "Ġ",
        "Keep"
      ],
      [
        "Ġc",
        "over"
      ],
      [
        "Ġc",
        "enter"
      ],
      [
        "le",
        "ase"
      ],
      [
        "Ġm",
        "akes"
      ],
      [
        "ĠA",
        "t"
      ],
      [
        "ĠR",
        "ec"
      ],
      [
        "ess",
        "ions"
      ],
      [
        "Ġhe",
        "ap"
      ],
      [
        "rom",
        "e"
      ],
      [
        "ail",
        "able"
      ],
      [
        "Ġj",
        "oin"
      ],
      [
        "Ġpl",
        "an"
      ],
      [
        "Ġcons",
        "ider"
      ],
      [
        "Cont",
        "rol"
      ],
      [
        "Ġdirect",
        "ory"
      ],
      [
        "ear",
        "s"
      ],
      [
        "Ġorig",
        "inal"
      ],
      [
        "A",
        "uth"
      ],
      [
        "O",
        "utput"
      ],
      [
        "m",
        "ark"
      ],
      [
        "}",
        "`"
      ],
      [
        "Ċ",
        "Ċ"
      ],
      [
        "Ġ",
        "_"
      ],
      [
        "Ġ",
        "ÃĹ"
      ],
      [
        "er",
        "o"
      ],
      [
        "on",
        "d"
      ],
      [
        "Ġa",
        "udit"
      ],
      [
        "Ġin",
        "valid"
      ],
      [
        "et",
        "ers"
      ],
      [
        "Ġh",
        "ost"
      ],
      [
        "Ġcon",
        "current"
      ],
      [
        "Ġon",
        "es"
      ],
      [
        "our",
        "ces"
      ],
      [
        "Ġac",
        "count"
      ],
      [
        "oc",
        "us"
      ],
      [
        "Ġcal",
        "led"
      ],
      [
        "ĠVer",
        "ification"
      ],
      [
        "SER",
        "T"
      ],
      [
        "H",
        "ere"
      ],
      [
        "N",
        "S"
      ],
      [
        "r",
        "ics"
      ],
      [
        "il",
        "en"
      ],
      [
        "ĠA",
        "S"
      ],
      [
        "em",
        "p"
      ],
      [
        "ex",
        "port"
      ],
      [
        "ĠPost",
        "gres"
      ],
      [
        "4",
        "5"
      ],
      [
        "=",
        "'"
      ],
      [
        "k",
        "ip"
      ],
      [
        "n",
        "ess"
      ],
      [
        "p",
        "ack"
      ],
      [
        "Ġ",
        "json"
      ],
      [
        "st",
        "ep"
      ],
      [
        "Ġs",
        "ide"
      ],
      [
        "Ġf",
        "inal"
      ],
      [
        "Ġo",
        "pen"
      ],
      [
        "em",
        "b"
      ],
      [
        "Ġg",
        "ives"
      ],
      [
        "Ġan",
        "ything"
      ],
      [
        "Ġ*",
        "/"
      ],
      [
        "ĠL",
        "og"
      ],
      [
        "Ġde",
        "velop"
      ],
      [
        "Ġpre",
        "vent"
      ],
      [
        "Ġpre",
        "vents"
      ],
      [
        "ĠJ",
        "WT"
      ],
      [
        "Ġmin",
        "us"
      ],
      [
        "Ġrefer",
        "ences"
      ],
      [
        "Ġattack",
        "er"
      ],
      [
        "Ġhapp",
        "en"
      ],
      [
        "ĠY",
        "es"
      ],
      [
        "V",
        "er"
      ],
      [
        "]",
        ":"
      ],
      [
        "Ġc",
        "are"
      ],
      [
        "Ġd",
        "iv"
      ],
      [
        "ul",
        "ner"
      ],
      [
        "Ġpro",
        "file"
      ],
      [
        "ĠD",
        "ec"
      ],
      [
        "Ġun",
        "til"
      ],
      [
        "pre",
        "hen"
      ],
      [
        "Ġsim",
        "pler"
      ],
      [
        "ous",
        "ly"
      ],
      [
        "Ġdis",
        "play"
      ],
      [
        "ĠNe",
        "ver"
      ],
      [
        "vect",
        "or"
      ],
      [
        "A",
        "ULT"
      ],
      [
        "p",
        "attern"
      ],
      [
        "}",
        ","
      ],
      [
        "Ð",
        "¾"
      ],
      [
        "in",
        "ing"
      ],
      [
        "it",
        "ect"
      ],
      [
        "et",
        "ime"
      ],
      [
        "im",
        "age"
      ],
      [
        "Ġth",
        "ree"
      ],
      [
        "Ġl",
        "ines"
      ],
      [
        "ith",
        "er"
      ],
      [
        "Ġg",
        "ive"
      ],
      [
        "ch",
        "itect"
      ],
      [
        "Ġ}",
        ";"
      ],
      [
        "ĠH",
        "and"
      ],
      [
        "Ġset",
        "s"
      ],
      [
        "Ġro",
        "t"
      ],
      [
        "col",
        "umn"
      ],
      [
        "Ġmigr",
        "ations"
      ],
      [
        "EF",
        "AULT"
      ],
      [
        "âĤ",
        "Ĥ"
      ],
      [
        ">",
        "<"
      ],
      [
        "U",
        "M"
      ],
      [
        "l",
        "ish"
      ],
      [
        "t",
        "n"
      ],
      [
        "Ġ",
        "enc"
      ],
      [
        "an",
        "ces"
      ],
      [
        "Ġb",
        "ad"
      ],
      [
        "Ġb",
        "crypt"
      ],
      [
        "Ġl",
        "if"
      ],
      [
        "ect",
        "l"
      ],
      [
        "ub",
        "ectl"
      ],
      [
        "Ġpr",
        "ime"
      ],
      [
        "def",
        "ault"
      ],
      [
        "Ġdif",
        "f"
      ],
      [
        "ĠIm",
        "plementation"
      ],
      [
        "\"",
        "),"
      ],
      [
        "-",
        "|"
      ],
      [
        "W",
        "HERE"
      ],
      [
        "d",
        "a"
      ],
      [
        "or",
        "ies"
      ],
      [
        "Ġf",
[...]
