{
  "version": "1.0",
  "truncation": null,
  "padding": null,
  "added_tokens": [
    {
      "id": 0,
      "content": "<|unk|>",
      "single_word": false,
      "lstrip": false,
      "rstrip": false,
      "normalized": false,
      "special": true
    },
    {
      "id": 1,
      "content": "<|lm|>",
      "single_word": false,
      "lstrip": false,
      "rstrip": false,
      "normalized": false,
      "special": true
    },
    {
      "id": 2,
      "content": "<|hrm|>",
      "single_word": false,
      "lstrip": false,
      "rstrip": false,
      "normalized": false,
      "special": true
    },
    {
      "id": 3,
      "content": "<|sys|>",
      "single_word": false,
      "lstrip": false,
      "rstrip": false,
      "normalized": false,
      "special": true
    },
    {
      "id": 4,
      "content": "<|user|>",
      "single_word": false,
      "lstrip": false,
      "rstrip": false,
      "normalized": false,
      "special": true
    },
    {
      "id": 5,
      "content": "<|asst|>",
      "single_word": false,
      "lstrip": false,
      "rstrip": false,
      "normalized": false,
      "special": true
    },
    {
      "id": 6,
      "content": "<|eos|>",
      "single_word": false,
      "lstrip": false,
      "rstrip": false,
      "normalized": false,
      "special": true
    },
    {
      "id": 7,
      "content": "<|pad|>",
      "single_word": false,
      "lstrip": false,
      "rstrip": false,
      "normalized": false,
      "special": true
    }
  ],
  "normalizer": null,
  "pre_tokenizer": {
    "type": "ByteLevel",
    "add_prefix_space": false,
    "trim_offsets": true,
    "use_regex": true
  },
  "post_processor": null,
  "decoder": {
    "type": "ByteLevel",
    "add_prefix_space": true,
    "trim_offsets": true,
    "use_regex": true
  },
  "model": {
    "type": "BPE",
    "dropout": null,
    "unk_token": "<|unk|>",
    "continuing_subword_prefix": null,
    "end_of_word_suffix": null,
    "fuse_unk": false,
    "byte_fallback": false,
    "ignore_merges": false,
    "vocab": {
      "<|unk|>": 0,
      "<|lm|>": 1,
      "<|hrm|>": 2,
      "<|sys|>": 3,
      "<|user|>": 4,
      "<|asst|>": 5,
      "<|eos|>": 6,
      "<|pad|>": 7,
      "!": 8,
      "\"": 9,
      "#": 10,
      "$": 11,
      "%": 12,
      "&": 13,
      "'": 14,
      "(": 15,
      ")": 16,
      "*": 17,
      "+": 18,
      ",": 19,
      "-": 20,
      ".": 21,
      "/": 22,
      "0": 23,
      "1": 24,
      "2": 25,
      "3": 26,
      "4": 27,
      "5": 28,
      "6": 29,
      "7": 30,
      "8": 31,
      "9": 32,
      ":": 33,
      ";": 34,
      "<": 35,
      "=": 36,
      ">": 37,
      "?": 38,
      "@": 39,
      "A": 40,
      "B": 41,
      "C": 42,
      "D": 43,
      "E": 44,
      "F": 45,
      "G": 46,
      "H": 47,
      "I": 48,
      "J": 49,
      "K": 50,
      "L": 51,
      "M": 52,
      "N": 53,
      "O": 54,
      "P": 55,
      "Q": 56,
      "R": 57,
      "S": 58,
      "T": 59,
      "U": 60,
      "V": 61,
      "W": 62,
      "X": 63,
      "Y": 64,
      "Z": 65,
      "[": 66,
      "\\": 67,
      "]": 68,
      "^": 69,
      "_": 70,
      "`": 71,
      "a": 72,
      "b": 73,
      "c": 74,
      "d": 75,
      "e": 76,
      "f": 77,
      "g": 78,
      "h": 79,
      "i": 80,
      "j": 81,
      "k": 82,
      "l": 83,
      "m": 84,
      "n": 85,
      "o": 86,
      "p": 87,
      "q": 88,
      "r": 89,
      "s": 90,
      "t": 91,
      "u": 92,
      "v": 93,
      "w": 94,
      "x": 95,
      "y": 96,
      "z": 97,
      "{": 98,
      "|": 99,
      "}": 100,
      "~": 101,
      "¡": 102,
      "¢": 103,
      "£": 104,
      "¤": 105,
      "¥": 106,
      "¦": 107,
      "§": 108,
      "¨": 109,
      "©": 110,
      "ª": 111,
      "«": 112,
      "¬": 113,
      "°": 114,
      "±": 115,
      "²": 116,
      "³": 117,
      "´": 118,
      "µ": 119,
      "¶": 120,
      "·": 121,
      "¸": 122,
      "¹": 123,
      "º": 124,
      "»": 125,
      "¼": 126,
      "½": 127,
      "¾": 128,
      "¿": 129,
      "Â": 130,
      "Ã": 131,
      "Ä": 132,
      "Î": 133,
      "Ï": 134,
      "Ð": 135,
      "Ñ": 136,
      "á": 137,
      "â": 138,
      "æ": 139,
      "ï": 140,
      "ð": 141,
      "ā": 142,
      "Ă": 143,
      "Ĉ": 144,
      "ĉ": 145,
      "Ċ": 146,
      "Ġ": 147,
      "Ģ": 148,
      "ģ": 149,
      "Ĥ": 150,
      "ĥ": 151,
      "Ħ": 152,
      "ħ": 153,
      "Ĩ": 154,
      "ĩ": 155,
      "Ī": 156,
      "ī": 157,
      "Ĭ": 158,
      "ĭ": 159,
      "Į": 160,
      "į": 161,
      "İ": 162,
      "ı": 163,
      "Ĳ": 164,
      "ĳ": 165,
      "Ĵ": 166,
      "ĵ": 167,
      "Ķ": 168,
      "ķ": 169,
      "ĸ": 170,
      "Ĺ": 171,
      "ĺ": 172,
      "Ļ": 173,
      "ļ": 174,
      "Ľ": 175,
      "ľ": 176,
      "Ŀ": 177,
      "ŀ": 178,
      "Ł": 179,
      "ł": 180,
      "Ń": 181,
      "ĠĠ": 182,
      "er": 183,
      "in": 184,
      "Ġt": 185,
      "Ġa": 186,
      "on": 187,
      "re": 188,
      "he": 189,
      "st": 190,
      "at": 191,
      "Ġc": 192,
      "or": 193,
      "ĠĠĠĠ": 194,
      "es": 195,
      "Ġs": 196,
      "en": 197,
      "<|": 198,
      "|>": 199,
      "it": 200,
      "an": 201,
      "**": 202,
      "Ġd": 203,
      "le": 204,
      "Ġm": 205,
      "Ġf": 206,
      "al": 207,
      "Ġ=": 208,
      "Ġp": 209,
      "ou": 210,
      "Ġthe": 211,
      "Ġh": 212,
      "ing": 213,
      "Ġb": 214,
      "ion": 215,
      "ĠĠĠ": 216,
      "``": 217,
      "ar": 218,
      "as": 219,
      "is": 220,
      "--": 221,
      "Ġw": 222,
      "Ġre": 223,
      "ct": 224,
      "ro": 225,
      "ed": 226,
      "us": 227,
      "âĶ": 228,
      "Ġto": 229,
      "Ġe": 230,
      "Ġ(": 231,
      "os": 232,
      "ent": 233,
      "Ġin": 234,
      "ic": 235,
      "Ġn": 236,
      "th": 237,
      "Ġ1": 238,
      "nd": 239,
      "ĊĠĠĠ": 240,
      "ac": 241,
      "Ġl": 242,
      "âĶĢ": 243,
      "ow": 244,
      "im": 245,
      "et": 246,
      "eos": 247,
      "âĶĢâĶĢ": 248,
      "ve": 249,
      "Ġco": 250,
      "Ġâ": 251,
      "il": 252,
      "hr": 253,
      "```": 254,
      "id": 255,
      "Ġ|": 256,
      "hrm": 257,
      "ĊĠĠĠĠ": 258,
      "am": 259,
      "ul": 260,
      "Ġis": 261,
      "ad": 262,
      "ut": 263,
      "Ġ-": 264,
      "Ġo": 265,
      "Ġst": 266,
      "Ġ2": 267,
      "Ġand": 268,
      "if": 269,
      "ate": 270,
      "Ġdo": 271,
      "Ġth": 272,
      "user": 273,
      "ation": 274,
      "ur": 275,
      "de": 276,
      "Ġ`": 277,
      "ig": 278,
      "ĠI": 279,
      "ly": 280,
      "ver": 281,
      "Ġfor": 282,
      "pp": 283,
      "est": 284,
      "ĠT": 285,
      "ĠC": 286,
      "ĠS": 287,
      "ĠâĢ": 288,
      "----": 289,
      "Ġcon": 290,
      "Ġ\"": 291,
      "Ġ3": 292,
      "Ġ+": 293,
      "ĠA": 294,
      "ĠâĢĶ": 295,
      "qu": 296,
      "ist": 297,
      "ll": 298,
      "Ġon": 299,
      "Ġhe": 300,
      "Ġg": 301,
      "un": 302,
      "ec": 303,
      "ith": 304,
      "ĊĠ": 305,
      "==": 306,
      "om": 307,
      "em": 308,
      "Ġof": 309,
      "ot": 310,
      "se": 311,
      "Ġ5": 312,
      "ag": 313,
      "pt": 314,
      "Ġ*": 315,
      "ter": 316,
      "um": 317,
      ":**": 318,
      "Ġ4": 319,
      "Ġpro": 320,
      "Ġy": 321,
      "ol": 322,
      "ore": 323,
      "Ġit": 324,
      "ction": 325,
      "ab": 326,
      "ys": 327,
      "ch": 328,
      "ave": 329,
      "Ġ**": 330,
      "Ġhas": 331,
      "ĠP": 332,
      "Ġhow": 333,
      "Ġr": 334,
      "âĶĢâĶĢâĶĢâĶĢ": 335,
      "Ġ8": 336,
      "ce": 337,
      "ck": 338,
      "Ġas": 339,
      "ess": 340,
      "Ġman": 341,
      "Ġare": 342,
      "ĠĠĠĠĠĠĠĠ": 343,
      "and": 344,
      "Ġwith": 345,
      "Ġ6": 346,
      "pl": 347,
      "ink": 348,
      "ers": 349,
      "Ġyou": 350,
      "ĊĠĠĠĠĠĠĠ": 351,
      "()": 352,
      "Ġor": 353,
      "Ġ{": 354,
      "ri": 355,
      "ĠR": 356,
      "Ġv": 357,
      "Ġmany": 358,
      "Ġde": 359,
      "ach": 360,
      "Ġ9": 361,
      "Ġex": 362,
      "Ġ7": 363,
      "ack": 364,
      "ple": 365,
      "Ġhave": 366,
      "think": 367,
      "Ġcom": 368,
      "00": 369,
      "Ġshe": 370,
      "end": 371,
      "ok": 372,
      "te": 373,
      "Ġdoes": 374,
      "Ġne": 375,
      "ĠD": 376,
      "Ġus": 377,
      "ult": 378,
      "ame": 379,
      "ant": 380,
      "res": 381,
      "Ġlo": 382,
      "od": 383,
      "Ġ'": 384,
      "ment": 385,
      "ain": 386,
      "Ġwh": 387,
      "ĠF": 388,
      "ke": 389,
      "all": 390,
      "Ġapp": 391,
      "ies": 392,
      "urn": 393,
      "pe": 394,
      ");": 395,
      "Ġres": 396,
      "ĠN": 397,
      "act": 398,
      "yth": 399,
      "ort": 400,
      "Ġret": 401,
      "</": 402,
      "ay": 403,
      "ror": 404,
      "nt": 405,
      "ht": 406,
      "ile": 407,
      "//": 408,
      "out": 409,
      "ĠO": 410,
      "ost": 411,
      "rom": 412,
      "Ġle": 413,
      "ata": 414,
      "ue": 415,
      "Ġ#": 416,
      "ap": 417,
      "lo": 418,
      "Ġif": 419,
      "ime": 420,
      "ail": 421,
      "Ġuser": 422,
      ".<|": 423,
      "ars": 424,
      "Ġreturn": 425,
      "Ġat": 426,
      "Ġbo": 427,
      "ld": 428,
      "ĠB": 429,
      "ass": 430,
      "ĠU": 431,
      "You": 432,
      "ĠE": 433,
      "ython": 434,
      "put": 435,
      "ord": 436,
      "ir": 437,
      "'s": 438,
      "ase": 439,
      "'t": 440,
      "Ġan": 441,
      "Ġsh": 442,
      "##": 443,
      "age": 444,
      "Ġtr": 445,
      "iz": 446,
      "ser": 447,
      "Ġeach": 448,
      "Ġse": 449,
      "ĠM": 450,
      "Ġbe": 451,
      "xt": 452,
      "ust": 453,
      "ĠâĨ": 454,
      "ful": 455,
      "====": 456,
      "ge": 457,
      "Ġsp": 458,
      "iv": 459,
      "int": 460,
      "Ġch": 461,
      "Ġthat": 462,
      "ĠW": 463,
      "ect": 464,
      "Ġ}": 465,
      "up": 466,
      "les": 467,
      "ork": 468,
      "Ġdoll": 469,
      "Ġnot": 470,
      "Ġdollars": 471,
      "ive": 472,
      "Ġuse": 473,
      "ard": 474,
      "lp": 475,
      "..": 476,
      "ĠThe": 477,
      "enc": 478,
      "Ġmore": 479,
      "ure": 480,
      "ity": 481,
      "--------": 482,
      "ode": 483,
      "ĠâĨĴ": 484,
      "able": 485,
      "Ġass": 486,
      "ary": 487,
      "Ġhelp": 488,
      "hen": 489,
      "cri": 490,
      "ere": 491,
      "error": 492,
      ").": 493,
      "lm": 494,
      "),": 495,
      "Ġtest": 496,
      "fer": 497,
      "ĠL": 498,
      "ice": 499,
      "Ġfrom": 500,
      "ine": 501,
      "âĶĢâĶĢâĶĢâĶĢâĶĢâĶĢâĶĢâĶĢ": 502,
      "Ġbu": 503,
      "Ġval": 504,
      "con": 505,
      "Ġcl": 506,
      "Ġneed": 507,
      "cess": 508,
      "ĠH": 509,
      "ft": 510,
      "heck": 511,
      "Ġj": 512,
      "quest": 513,
      "cript": 514,
      "asst": 515,
      "|><|": 516,
      "|><": 517,
      "art": 518,
      "pon": 519,
      "):": 520,
      "ight": 521,
      "Ġstr": 522,
      "sys": 523,
      "Ġhelpful": 524,
      "istant": 525,
      "Ġal": 526,
      "tr": 527,
      "Ġassistant": 528,
      "ps": 529,
      "ire": 530,
      "dd": 531,
      "ial": 532,
      "app": 533,
      "port": 534,
      "ype": 535,
      "Ġcan": 536,
      "Ġ[": 537,
      "unction": 538,
      "ub": 539,
      "\",": 540,
      "ĠĠĠĠĠĠĠ": 541,
      "âĶĤ": 542,
      "ould": 543,
      "Ġthis": 544,
      "ble": 545,
      "ally": 546,
      "ER": 547,
      "ound": 548,
      "ĠG": 549,
      "The": 550,
      "ix": 551,
      "',": 552,
      "ific": 553,
      "ind": 554,
      "Ġim": 555,
      "Ġser": 556,
      "Ġdata": 557,
      "Ġwhat": 558,
      "Ġme": 559,
      "ash": 560,
      "are": 561,
      "for": 562,
      "to": 563,
      "=\"": 564,
      "Ġleft": 565,
      "\")": 566,
      "du": 567,
      "row": 568,
      "ie": 569,
      "('": 570,
      "nc": 571,
      "Ġby": 572,
      "Ġlog": 573,
      "Ġwork": 574,
      "ast": 575,
      "one": 576,
      "Ġerror": 577,
      "av": 578,
      "get": 579,
      "tern": 580,
      "Ġpr": 581,
      "tal": 582,
      "ans": 583,
      "Ġ10": 584,
      "ne": 585,
      "ount": 586,
      "ions": 587,
      "(\"": 588,
      "ax": 589,
      "\":": 590,
      "js": 591,
      "Ġtotal": 592,
      "ont": 593,
      "Ġ.": 594,
      "Ġyour": 595,
      "Ġall": 596,
      "read": 597,
      "python": 598,
      "Ġ<": 599,
      "Ġqu": 600,
      "com": 601,
      "Ġcont": 602,
      "ace": 603,
      "ick": 604,
      "Ġcode": 605,
      "ak": 606,
      "gr": 607,
      "ems": 608,
      "Ġhand": 609,
      "ex": 610,
      "ins": 611,
      "per": 612,
      "Ġbut": 613,
      "PI": 614,
      "ize": 615,
      "Ġper": 616,
      "Ġdef": 617,
      "ff": 618,
      "Ġone": 619,
      "ign": 620,
      "name": 621,
      "vent": 622,
      "ory": 623,
      "Ġset": 624,
      "val": 625,
      "yp": 626,
      "Ġk": 627,
      "Ġ$": 628,
      "ĠRe": 629,
      "cl": 630,
      "Ġ/": 631,
      "__": 632,
      "ĊĠĠĠĠĠĠĠĠĠĠĠ": 633,
      "Ġwhen": 634,
      ".**": 635,
      "str": 636,
      "file": 637,
      "Ġfunction": 638,
      "umb": 639,
      "ations": 640,
      "Ġ0": 641,
      "ated": 642,
      "Ġrun": 643,
      "oug": 644,
      "ĊĠĠ": 645,
      "Ġke": 646,
      "ĠâĶĤ": 647,
      "own": 648,
      "che": 649,
      "Ġthen": 650,
      "Ġcomm": 651,
      "ep": 652,
      "use": 653,
      "def": 654,
      "Ġ=>": 655,
      "low": 656,
      "ock": 657,
      "ide": 658,
      "Ġtime": 659,
      "op": 660,
      "Ġ//": 661,
      "Ġver": 662,
      "Ġadd": 663,
      "ener": 664,
      "Ġshould": 665,
      "Ġchan": 666,
      "Ġtim": 667,
      "oks": 668,
      "ient": 669,
      "lf": 670,
      "rit": 671,
      "Ġthan": 672,
      "Ġdif": 673,
      "Ġup": 674,
      "LE": 675,
      "his": 676,
      "text": 677,
      "wa": 678,
      "ill": 679,
      "ry": 680,
      "our": 681,
      "?<|": 682,
      "ath": 683,
      "blem": 684,
      "ync": 685,
      "ĠIf": 686,
      "imit": 687,
      "ulti": 688,
      "========": 689,
      "ĠV": 690,
      "Ġcre": 691,
      "ject": 692,
      "**:": 693,
      "form": 694,
      "ponse": 695,
      "atab": 696,
      "pro": 697,
      "Ġcheck": 698,
      "Ġid": 699,
      "Ġun": 700,
      "Ġcoins": 701,
      "Ġresult": 702,
      "atch": 703,
      "Ġspec": 704,
      "Ġrequest": 705,
      "Ġcol": 706,
      "Ġquer": 707,
      "nder": 708,
      "alls": 709,
      "Ġmin": 710,
      "Ġem": 711,
      "ts": 712,
      "irst": 713,
      "Ġsec": 714,
      "ĠAPI": 715,
      "der": 716,
      "Ġno": 717,
      "rror": 718,
      "Ġwe": 719,
      "atabase": 720,
      "Ġinst": 721,
      "pend": 722,
      "fig": 723,
      "ens": 724,
      "Ġar": 725,
      "---": 726,
      "ify": 727,
      "Ġu": 728,
      "Ġlist": 729,
      "Ġ20": 730,
      "hat": 731,
      "ild": 732,
      "AT": 733,
      "Ġdiffer": 734,
      "ence": 735,
      "ance": 736,
      "ates": 737,
      "ong": 738,
      "Ġac": 739,
      "Ġnew": 740,
      "SE": 741,
      "ull": 742,
      "word": 743,
      "Ġread": 744,
      "Ġfil": 745,
      "uth": 746,
      "ĠPython": 747,
      "Ġstring": 748,
      "ON": 749,
      "ĠJ": 750,
      "Ġhad": 751,
      "ib": 752,
      "Ġcook": 753,
      "atus": 754,
      "rem": 755,
      "ĠĠĠĠĠĠĠĠĠĠĠĠĠĠĠĠ": 756,
      "âķ": 757,
      "$$": 758,
      "Ġever": 759,
      "Ġpl": 760,
      "ache": 761,
      "St": 762,
      "ition": 763,
      "py": 764,
      "|--------": 765,
      "Ġpre": 766,
      "Ġbooks": 767,
      "Ġprodu": 768,
      "oint": 769,
      "Ġconst": 770,
      "Ġen": 771,
      "sion": 772,
      "Ġmulti": 773,
      "Ġfix": 774,
      "Ġsol": 775,
      "ake": 776,
      "Ġ--": 777,
      "Ġte": 778,
      "Ġvalid": 779,
      "plo": 780,
      "data": 781,
      "Ġget": 782,
      "âķĲ": 783,
      "fter": 784,
      "ĊĠĠĠĠĠ": 785,
      "...": 786,
      "Ġstore": 787,
      "bash": 788,
      "Ġname": 789,
      "ĠIn": 790,
      "âķĲâķĲ": 791,
      "cur": 792,
      "ĊĠĠĠĠĊĠĠĠ": 793,
      "Ġserver": 794,
      "back": 795,
      "ical": 796,
      "ypes": 797,
      "Ġproblem": 798,
      "ments": 799,
      "Ġprocess": 800,
      "Ġnow": 801,
      "Ġnumb": 802,
      "assword": 803,
      "Ġ12": 804,
      "Ġ15": 805,
      "Ke": 806,
      "ip": 807,
      "json": 808,
      "uch": 809,
      "Ġonly": 810,
      "Ġcookies": 811,
      "CT": 812,
      "ven": 813,
      "order": 814,
      "ES": 815,
      "ator": 816,
      "tep": 817,
      "attern": 818,
      "Ġfile": 819,
      "Ġout": 820,
      "Ġresponse": 821,
      "Ġdatabase": 822,
      "div": 823,
      "Ġfirst": 824,
      "ample": 825,
      "lic": 826,
      "el": 827,
      "Ġtype": 828,
      "Ġinput": 829,
      "Ġstate": 830,
      "Ġmar": 831,
      "Ġro": 832,
      "Ġclass": 833,
      "Ġtok": 834,
      "ution": 835,
      "roach": 836,
      "Ġsim": 837,
      "ise": 838,
      "Error": 839,
      "Ġinde": 840,
      "Ġspecific": 841,
      "###": 842,
      "ef": 843,
      "cre": 844,
      "cal": 845,
      "Ġmost": 846,
      "ĠCom": 847,
      "cept": 848,
      "ĠSt": 849,
      "Ġ18": 850,
      "ault": 851,
      "For": 852,
      "ther": 853,
      "Ġ11": 854,
      "Ġprint": 855,
      "Ġcomp": 856,
      "Ġmuch": 857,
      "Ġfail": 858,
      "ĠEx": 859,
      "Ġitems": 860,
      "Ġcontain": 861,
      "User": 862,
      "Ġfe": 863,
      "wait": 864,
      "lock": 865,
      "pr": 866,
      "we": 867,
      "plic": 868,
      "ns": 869,
      "arch": 870,
      "Ġkey": 871,
      "RE": 872,
      "ud": 873,
      "10": 874,
      "uct": 875,
      "Ġthey": 876,
      "Ġ16": 877,
      "col": 878,
      "log": 879,
      "\">": 880,
      "Ġ==": 881,
      "af": 882,
      "bles": 883,
      "api": 884,
      ")<|": 885,
      "Ġact": 886,
      "ĠFor": 887,
      "QL": 888,
      "Ġcall": 889,
      "Ġlimit": 890,
      "ages": 891,
      "ards": 892,
      "vice": 893,
      "const": 894,
      "OM": 895,
      "ress": 896,
      "Ġbox": 897,
      "ual": 898,
      "time": 899,
      "Ġballs": 900,
      "ds": 901,
      "ils": 902,
      "Ġorder": 903,
      "ough": 904,
      "ĠCon": 905,
      "Ġusers": 906,
      "Ġemail": 907,
      "Ġspent": 908,
      "ency": 909,
      "In": 910,
      "ause": 911,
      "bo": 912,
      "Ġ13": 913,
      "ĠUse": 914,
      "ree": 915,
      "Ġtoys": 916,
      "iew": 917,
      "nection": 918,
      "Ġeve": 919,
      "emory": 920,
      "âĶĢâĶĢâĶĢâĶĢâĶĢâĶĢâĶĢâĶĢâĶĢâĶĢâĶĢâĶĢâĶĢâĶĢâĶĢâĶĢ": 921,
      "min": 922,
      "test": 923,
      "Ġ>": 924,
      "ERE": 925,
      "eng": 926,
      "ĠYou": 927,
      "import": 928,
      "add": 929,
      "ues": 930,
      "\"\"": 931,
      "led": 932,
      "Ġevery": 933,
      "Ġback": 934,
      "ich": 935,
      "):**": 936,
      "ead": 937,
      "Ġsub": 938,
      "Ġpack": 939,
      "Ġapples": 940,
      "igr": 941,
      "Ġdepend": 942,
      "Key": 943,
      "IN": 944,
      "ome": 945,
      "Ġtrans": 946,
      "oc": 947,
      "Ġ40": 948,
      "plex": 949,
      "Ġcost": 950,
      "ĊĠĠĠĠĠĠĠĠĠĠĠĠ": 951,
      "Ġ25": 952,
      "Ġ30": 953,
      "ss": 954,
      "Ġx": 955,
      "odel": 956,
      "Ġmax": 957,
      "Ġvalue": 958,
      "yst": 959,
      "Ġcons": 960,
      "irect": 961,
      "Ġchang": 962,
      "`,": 963,
      "Ġcur": 964,
      "ose": 965,
      "Ġsc": 966,
      "Ġâľ": 967,
      "ĠPro": 968,
      "Ġaut": 969,
      "ool": 970,
      "Ġab": 971,
      "Ġthem": 972,
      "actor": 973,
      "ule": 974,
      "rent": 975,
      "ike": 976,
      "amps": 977,
      "plement": 978,
      "Ġbuys": 979,
      "wo": 980,
      "AL": 981,
      "Ġgr": 982,
      "000": 983,
      "ument": 984,
      "Ġdon": 985,
      "line": 986,
      "Ġindex": 987,
      "ood": 988,
      "quire": 989,
      "Ġafter": 990,
      "gre": 991,
      "Ġsame": 992,
      "etch": 993,
      "ari": 994,
      "Ġfind": 995,
      "ous": 996,
      "Ġ14": 997,
      "Ġ17": 998,
      "Ġstamps": 999,
      "ql": 1000,
      "Step": 1001,
      "Ġ19": 1002,
      "ield": 1003,
      "Ġcle": 1004,
      "Ġfiles": 1005,
      "fore": 1006,
      "px": 1007,
      "sp": 1008,
      "Ġstick": 1009,
      "Ġcand": 1010,
      "Ġgiv": 1011,
      "status": 1012,
      "Ġpar": 1013,
      "Ġimport": 1014,
      "LECT": 1015,
      "ĠĠĠĠĠ": 1016,
      "arg": 1017,
      "Ġstart": 1018,
      "This": 1019,
      "atic": 1020,
      "Ġend": 1021,
      "rite": 1022,
      "sh": 1023,
      "ug": 1024,
      "Ġpattern": 1025,
      "Ġatt": 1026,
      "ually": 1027,
      "ats": 1028,
      "')": 1029,
      "set": 1030,
      "ting": 1031,
      "Ġstickers": 1032,
      "ures": 1033,
      "Ġbob": 1034,
      "Ġpenc": 1035,
      "Ġcandies": 1036,
      "Ġpencils": 1037,
      "ature": 1038,
      "main": 1039,
      "Ġdifferent": 1040,
      "ob": 1041,
      "ATE": 1042,
      "RL": 1043,
      "its": 1044,
      "ily": 1045,
      "Ġ50": 1046,
      "ĠNO": 1047,
      "Ġself": 1048,
      "og": 1049,
      "Ġexist": 1050,
      "Ġgave": 1051,
      "pect": 1052,
      "self": 1053,
      "Ġbefore": 1054,
      "Ġsum": 1055,
      "Ġ24": 1056,
      "par": 1057,
      "Ġawait": 1058,
      "Ġthere": 1059,
      "sert": 1060,
      "25": 1061,
      "Ġmarbles": 1062,
      "Ġcards": 1063,
      "Ġquery": 1064,
      "iss": 1065,
      "ĠCheck": 1066,
      "Ġwithout": 1067,
      "Ġapproach": 1068,
      "Ġjust": 1069,
      "view": 1070,
      "HERE": 1071,
      "Pro": 1072,
      "Ġdb": 1073,
      "ought": 1074,
      "Ġwhere": 1075,
      "Ġi": 1076,
      "ength": 1077,
      "Ġele": 1078,
      "Ġgener": 1079,
      "ays": 1080,
      "count": 1081,
      "git": 1082,
      "ask": 1083,
      "Ġclient": 1084,
      "wer": 1085,
      "Ġtypes": 1086,
      "Ġmod": 1087,
      "OR": 1088,
      "ning": 1089,
      "work": 1090,
      "Ġwr": 1091,
      "ystem": 1092,
      "://": 1093,
      "ases": 1094,
      "isa": 1095,
      "ute": 1096,
      "ody": 1097,
      "'re": 1098,
      "))": 1099,
      "Ġrow": 1100,
      "Ġasync": 1101,
      "ĠThis": 1102,
      "ption": 1103,
      "();": 1104,
      "Ġexp": 1105,
      "Ġbuild": 1106,
      "pm": 1107,
      "Ġnumber": 1108,
      "Ġform": 1109,
      "Ġconfig": 1110,
      "';": 1111,
      "ane": 1112,
      "Ġbought": 1113,
      "Ġlisa": 1114,
      "email": 1115,
      "Ġcolum": 1116,
      "12": 1117,
      "Id": 1118,
      "Ġany": 1119,
      ":#": 1120,
      "ification": 1121,
      "Ġdis": 1122,
      "ROM": 1123,
      "Ġusing": 1124,
      "let": 1125,
      "ibr": 1126,
      "ite": 1127,
      "ĠTr": 1128,
      "Ġtests": 1129,
      "Ġdes": 1130,
      "Ġbet": 1131,
      "Ġ->": 1132,
      "Ġtoken": 1133,
      "point": 1134,
      "ang": 1135,
      "Ġinto": 1136,
      "ict": 1137,
      "ĠHT": 1138,
      "ĊĊĠĠĠ": 1139,
      "Ġsu": 1140,
      "Ġover": 1141,
      "ND": 1142,
      "Ġsam": 1143,
      "from": 1144,
      "inal": 1145,
      "Ġso": 1146,
      "nderst": 1147,
      "Ġel": 1148,
      "20": 1149,
      "Ġslow": 1150,
      "aract": 1151,
      "Ġ80": 1152,
      "ploy": 1153,
      "ible": 1154,
      "not": 1155,
      "ange": 1156,
      "Ġmy": 1157,
      "Ġwant": 1158,
      "Ġmary": 1159,
      "chem": 1160,
      "Ġupd": 1161,
      "({": 1162,
      "ret": 1163,
      "ative": 1164,
      "ĠUser": 1165,
      "Ġtom": 1166,
      "thod": 1167,
      "Ġproduct": 1168,
      "');": 1169,
      "Ġfr": 1170,
      "db": 1171,
      "UL": 1172,
      "SELECT": 1173,
      "TP": 1174,
      "Ġhead": 1175,
      "Ġ60": 1176,
      "Ġchange": 1177,
      "nderstand": 1178,
      "Ġdoesn": 1179,
      "Ġhandl": 1180,
      "mon": 1181,
      "Ġauth": 1182,
      "lex": 1183,
      "Ġdec": 1184,
      "ready": 1185,
      "Let": 1186,
      "Ġcount": 1187,
      "ery": 1188,
      "ased": 1189,
      "Ġerrors": 1190,
      "Ġmemory": 1191,
      "vents": 1192,
      "Ġqueries": 1193,
      "Ġfactor": 1194,
      "ternal": 1195,
      "Ex": 1196,
      "ied": 1197,
      "ches": 1198,
      "================": 1199,
      "Ġdefault": 1200,
      "now": 1201,
      "items": 1202,
      "igh": 1203,
      "Ġbec": 1204,
      "Use": 1205,
      "Ġhandle": 1206,
      "ocker": 1207,
      "list": 1208,
      "max": 1209,
      "Ġcache": 1210,
      "Ġmigr": 1211,
      "alse": 1212,
      "Ġ21": 1213,
      "users": 1214,
      "Ġwhich": 1215,
      "24": 1216,
      "cd": 1217,
      "ating": 1218,
      "Ġoper": 1219,
      "Ġconnection": 1220,
      "Ġpos": 1221,
      "Ġlock": 1222,
      "ponent": 1223,
      "Ġabout": 1224,
      "thing": 1225,
      "play": 1226,
      "hrough": 1227,
      "Ġdoc": 1228,
      "ization": 1229,
      "Ġcommon": 1230,
      "AD": 1231,
      ":.": 1232,
      "side": 1233,
      "Ġcreate": 1234,
      "AB": 1235,
      "Ġown": 1236,
      "ucture": 1237,
      "Com": 1238,
      "`.": 1239,
      "lection": 1240,
      "Ġinter": 1241,
      "Ġ57": 1242,
      "Ġmodel": 1243,
      "Ġpassword": 1244,
      "Ġ...": 1245,
      "ything": 1246,
      "Ġboxes": 1247,
      "Ġ\\": 1248,
      "ined": 1249,
      "size": 1250,
      "string": 1251,
      "vel": 1252,
      "Ġent": 1253,
      "ole": 1254,
      "tt": 1255,
      "Ġmust": 1256,
      "valid": 1257,
      "Ġthrough": 1258,
      "ĠNOT": 1259,
      "ces": 1260,
      "ices": 1261,
      "Ġ100": 1262,
      "oken": 1263,
      "env": 1264,
      "Ġpath": 1265,
      "arge": 1266,
      "Ġwor": 1267,
      "Ġtool": 1268,
      "Ġmess": 1269,
      "Ġeats": 1270,
      "Ġ96": 1271,
      "Ġversion": 1272,
      "font": 1273,
      "Ġfound": 1274,
      "ĠAn": 1275,
      "Ġright": 1276,
      "What": 1277,
      "over": 1278,
      "ook": 1279,
      "key": 1280,
      "type": 1281,
      "Ġrequire": 1282,
      "Ġlibr": 1283,
      "Ġ58": 1284,
      "Ġprov": 1285,
      "Ġload": 1286,
      "Ġcor": 1287,
      "lect": 1288,
      "ingle": 1289,
      "Ġrec": 1290,
      "Con": 1291,
      "Ġsend": 1292,
      "Ġ28": 1293,
      "ĠWHERE": 1294,
      "eb": 1295,
      "Ġint": 1296,
      "ger": 1297,
      "post": 1298,
      "Ġlike": 1299,
      "way": 1300,
      "ples": 1301,
      "Ġ27": 1302,
      "Ġworks": 1303,
      "Ġ\"\"\"": 1304,
      "ĠNo": 1305,
      "Ġcharact": 1306,
      "Ġalready": 1307,
      "dis": 1308,
      "Ġassert": 1309,
      "ĠNe": 1310,
      "function": 1311,
      "ules": 1312,
      "Ġrequests": 1313,
      "Script": 1314,
      "How": 1315,
      "Ġiss": 1316,
      "Ġboth": 1317,
      "Ġjane": 1318,
      "ility": 1319,
      "âķĲâķĲâķĲâķĲ": 1320,
      "SON": 1321,
      "but": 1322,
      "ert": 1323,
      "ateg": 1324,
      "Ġkate": 1325,
      "action": 1326,
      "ner": 1327,
      "11": 1328,
      "Ġdirect": 1329,
      "Ġbug": 1330,
      "lication": 1331,
      "IM": 1332,
      "Ġsome": 1333,
      "arget": 1334,
      "Ġ29": 1335,
      "EX": 1336,
      "sql": 1337,
      "Ġob": 1338,
      "Ġlet": 1339,
      "Ġtry": 1340,
      "Ġ59": 1341,
      "pty": 1342,
      "Ġ90": 1343,
      "Ġtwo": 1344,
      "Ġ39": 1345,
      "Ġvari": 1346,
      "ĠFROM": 1347,
      "rypt": 1348,
      "fil": 1349,
      "Ġ&": 1350,
      "Ġ48": 1351,
      "htt": 1352,
      "ffect": 1353,
      "ource": 1354,
      "Ġendpoint": 1355,
      "ccess": 1356,
      "Ġra": 1357,
      "Ġarr": 1358,
      "Ġbr": 1359,
      "Ġ62": 1360,
      "():": 1361,
      "rect": 1362,
      "Ġgcd": 1363,
      "Ġservice": 1364,
      "':": 1365,
      "Ġref": 1366,
      "Ġ23": 1367,
      "ST": 1368,
      "ater": 1369,
      "ĠAdd": 1370,
      "reak": 1371,
      "Ġcase": 1372,
      "Ġblock": 1373,
      "Ġalice": 1374,
      "ared": 1375,
      "Ġvs": 1376,
      "ground": 1377,
      "']": 1378,
      "ascript": 1379,
      "avascript": 1380,
      "afe": 1381,
      "Ġcr": 1382,
      "Ġline": 1383,
      "ĠIt": 1384,
      "andom": 1385,
      "Ġ76": 1386,
      "Ġ89": 1387,
      "ession": 1388,
      "akes": 1389,
      "ĠâĶ": 1390,
      "head": 1391,
      "Ġsm": 1392,
      "ways": 1393,
      "here": 1394,
      "fl": 1395,
      "ffic": 1396,
      "ging": 1397,
      "javascript": 1398,
      "oin": 1399,
      "ĠPost": 1400,
      "Ġfull": 1401,
      "Ġequ": 1402,
      "Ġ87": 1403,
      "Ġsimple": 1404,
      "Ġag": 1405,
      "ics": 1406,
      "Ġ69": 1407,
      "()`": 1408,
      "iron": 1409,
      "Ġcurrent": 1410,
      "Ġfactorial": 1411,
      "Ġfast": 1412,
      "NT": 1413,
      "oll": 1414,
      "ĠK": 1415,
      "Ġca": 1416,
      "Ġreal": 1417,
      "Ġ78": 1418,
      "Ġvalues": 1419,
      "Ġchanges": 1420,
      "rol": 1421,
      "Ġ68": 1422,
      "Ġdeploy": 1423,
      "Ġtimes": 1424,
      "Ġtext": 1425,
      "ET": 1426,
      "url": 1427,
      "Ġsecon": 1428,
      "color": 1429,
      "Ġfetch": 1430,
      "Ġ34": 1431,
      ")`": 1432,
      "Ġed": 1433,
      "Ġâľĵ": 1434,
      "Ġbecause": 1435,
      "::": 1436,
      "ĠHow": 1437,
      "Ġ26": 1438,
      "Ġ});": 1439,
      "ks": 1440,
      "Ġinte": 1441,
      "ences": 1442,
      "Ġimplement": 1443,
      "ween": 1444,
      "ĠDe": 1445,
      "plexity": 1446,
      "Ġ33": 1447,
      "Ġ98": 1448,
      "ized": 1449,
      "Ġcontains": 1450,
      "ĠHTTP": 1451,
      "Al": 1452,
      "SQL": 1453,
      "ove": 1454,
      "Ġhol": 1455,
      "Ġ42": 1456,
      "Ġ63": 1457,
      "Ġ70": 1458,
      "Ġear": 1459,
      "urity": 1460,
      "Ġ86": 1461,
      "Ġenv": 1462,
      "ders": 1463,
      "Ġ41": 1464,
      "Ġproduction": 1465,
      "no": 1466,
      "ĠApp": 1467,
      "Ġ66": 1468,
      "load": 1469,
      "value": 1470,
      "ires": 1471,
      "ms": 1472,
      "Ġfield": 1473,
      "Re": 1474,
      "Ġtable": 1475,
      "idd": 1476,
      "ĠType": 1477,
      "Ġcontent": 1478,
      "Ġeven": 1479,
      "ables": 1480,
      "Ġcollection": 1481,
      "Ġweb": 1482,
      "Ġgives": 1483,
      "eter": 1484,
      "Ġ88": 1485,
      "Ġlogic": 1486,
      "Ġparam": 1487,
      "OD": 1488,
      "Ġ45": 1489,
      "tract": 1490,
      "Ġinstall": 1491,
      "Ġunderstand": 1492,
      "SS": 1493,
      "sor": 1494,
      "Ġsystem": 1495,
      "Ġ22": 1496,
      "Ġ99": 1497,
      "Ġmultiple": 1498,
      "Cont": 1499,
      "CRE": 1500,
      "Ġoutput": 1501,
      "\"]": 1502,
      "input": 1503,
      "ĠĠĠĠĠĠ": 1504,
      "als": 1505,
      "plit": 1506,
      "Ġknow": 1507,
      "Ġ36": 1508,
      "que": 1509,
      "Ġ71": 1510,
      "pre": 1511,
      "imum": 1512,
      "ider": 1513,
      "Ġ83": 1514,
      "tring": 1515,
      "Ġinstead": 1516,
      "Ġbetween": 1517,
      "Ġelse": 1518,
      "Ġdocument": 1519,
      "rets": 1520,
      "Ġcases": 1521,
      "Ġdown": 1522,
      "utput": 1523,
      "Ġcontext": 1524,
      "Ġrange": 1525,
      "resh": 1526,
      "Ġ32": 1527,
      "Ġrate": 1528,
      "Ġscript": 1529,
      "âĶĢâĶ": 1530,
      "ĠAI": 1531,
      "Ġgre": 1532,
      "Ġhandles": 1533,
      "Ġreturns": 1534,
      "ustom": 1535,
      "ĠWhat": 1536,
      "ml": 1537,
      "so": 1538,
      "request": 1539,
      "Ġ93": 1540,
      "gres": 1541,
      "ross": 1542,
      "ential": 1543,
      "Ġtrue": 1544,
      "Ġsearch": 1545,
      "chema": 1546,
      "ULL": 1547,
      "Ġworth": 1548,
      "----------------": 1549,
      "Ġnull": 1550,
      "Ġ31": 1551,
      "ĠNone": 1552,
      "}\")": 1553,
      "cont": 1554,
      "Ġlogs": 1555,
      "pload": 1556,
      "Ġclean": 1557,
      "gor": 1558,
      "token": 1559,
      "itions": 1560,
      "Ġmain": 1561,
      "ĠURL": 1562,
      "gram": 1563,
      "Ġquest": 1564,
      "Ġdist": 1565,
      "ptim": 1566,
      "Ġneeds": 1567,
      "Ġaccess": 1568,
      "Ġcolumn": 1569,
      "gorith": 1570,
      "host": 1571,
      "edi": 1572,
      "Ġ38": 1573,
      "Ġ73": 1574,
      "aph": 1575,
      "Ġsee": 1576,
      "Tr": 1577,
      "len": 1578,
      "mit": 1579,
      "Ġwas": 1580,
      "Ġcomponent": 1581,
      "Ġapps": 1582,
      "If": 1583,
      "npm": 1584,
      "atches": 1585,
      "Ġ52": 1586,
      "by": 1587,
      "border": 1588,
      "Ġsort": 1589,
      "Ġbreak": 1590,
      "eturn": 1591,
      "Ġ47": 1592,
      "Ġ49": 1593,
      "Ġreturned": 1594,
      "EST": 1595,
      "code": 1596,
      "Ġ37": 1597,
      "venue": 1598,
      "Ġpoint": 1599,
      "ason": 1600,
      "ĠCl": 1601,
      "Ġ35": 1602,
      "Ġ84": 1603,
      "Ġvalidation": 1604,
      "issing": 1605,
      "Ġwrong": 1606,
      "Ġ__": 1607,
      "ton": 1608,
      "Ġ?": 1609,
      "Ġrefer": 1610,
      "Ġother": 1611,
      "${": 1612,
      "Ġlily": 1613,
      "Ġ85": 1614,
      "req": 1615,
      "Ġpost": 1616,
      "ĠNULL": 1617,
      "Ġsolution": 1618,
      "ĠQ": 1619,
      "Ġcal": 1620,
      "Ġthink": 1621,
      "ters": 1622,
      "Ġ44": 1623,
      "Ġ65": 1624,
      "Ġ95": 1625,
      "Ġcommit": 1626,
      "async": 1627,
      "class": 1628,
      "Ġdifference": 1629,
      "ĠX": 1630,
      "itle": 1631,
      "Ġplus": 1632,
      "pos": 1633,
      "Ġpart": 1634,
      "ecute": 1635,
      "Ġans": 1636,
      "Ġlibrary": 1637,
      "ved": 1638,
      "aces": 1639,
      "Ġsingle": 1640,
      "Ġthread": 1641,
      "Ġ55": 1642,
      "andard": 1643,
      "ĠJSON": 1644,
      "15": 1645,
      "100": 1646,
      "ude": 1647,
      "Ġless": 1648,
      "ows": 1649,
      "Ġ74": 1650,
      "ait": 1651,
      "ier": 1652,
      "Ġmake": 1653,
      "Ġpage": 1654,
      "olution": 1655,
      "Ġminus": 1656,
      "Ġrows": 1657,
      "Ġsign": 1658,
      "Ġmatch": 1659,
      "Ġ54": 1660,
      "Ġorders": 1661,
      "Ġcomput": 1662,
      "result": 1663,
      "Ġresults": 1664,
      "map": 1665,
      "Ġz": 1666,
      "Ġreg": 1667,
      "local": 1668,
      "Ġattack": 1669,
      "pected": 1670,
      "cul": 1671,
      "});": 1672,
      "Ġmight": 1673,
      "Ġpass": 1674,
      "Ġapplication": 1675,
      "ntic": 1676,
      "Ġobject": 1677,
      "EF": 1678,
      "pen": 1679,
      "ten": 1680,
      "ines": 1681,
      "oup": 1682,
      "Ġrel": 1683,
      "Ġ67": 1684,
      "Ġaway": 1685,
      "Ġnumbers": 1686,
      "Ġactual": 1687,
      "Res": 1688,
      "ci": 1689,
      "vices": 1690,
      "ĠGO": 1691,
      "example": 1692,
      "ĊĠĠĠĠĠĠĠĠĠĠĠĠĠĠĠ": 1693,
      "ves": 1694,
      "yle": 1695,
      "plete": 1696,
      "Ġnever": 1697,
      "ĠReact": 1698,
      "Ġsmall": 1699,
      "Ġanswer": 1700,
      "rc": 1701,
      "ware": 1702,
      "Ġdays": 1703,
      "Ġcoin": 1704,
      "ech": 1705,
      "Ġ53": 1706,
      "Ġ{\"": 1707,
      "Ġ75": 1708,
      "config": 1709,
      "State": 1710,
      "gorithm": 1711,
      "hentic": 1712,
      "enter": 1713,
      "Ġlong": 1714,
      "idth": 1715,
      "Ġrender": 1716,
      "Ġincl": 1717,
      "Ġlater": 1718,
      "ĠIm": 1719,
      "ĠRed": 1720,
      "Cl": 1721,
      "Ġits": 1722,
      "Ġiter": 1723,
      "Ġ77": 1724,
      "ĠVal": 1725,
      "Ġcorrect": 1726,
      "ĠGOOD": 1727,
      "gin": 1728,
      "Ġrevenue": 1729,
      "Ġ82": 1730,
      "When": 1731,
      "Ġ:": 1732,
      "Ġ56": 1733,
      "ĠON": 1734,
      "Common": 1735,
      "Fix": 1736,
      "Ġtoo": 1737,
      "uild": 1738,
      "Ġmon": 1739,
      "ently": 1740,
      "Ġlarge": 1741,
      "Ġstep": 1742,
      "query": 1743,
      "Ġ94": 1744,
      "ocket": 1745,
      "Ġformat": 1746,
      "fr": 1747,
      "Ġhtt": 1748,
      "ings": 1749,
      "Ġconn": 1750,
      "Ġmanag": 1751,
      "Ġ97": 1752,
      "Ġraise": 1753,
      "ale": 1754,
      "Ġtri": 1755,
      "Ġstatus": 1756,
      "Ġ81": 1757,
      "adding": 1758,
      "CREATE": 1759,
      "ML": 1760,
      "sc": 1761,
      "Ġmer": 1762,
      "aries": 1763,
      "ish": 1764,
      "Ġ72": 1765,
      "Ġ79": 1766,
      "Ġold": 1767,
      "ĠReturn": 1768,
      "Ġpackage": 1769,
      "'ll": 1770,
      "IT": 1771,
      "reate": 1772,
      "ĊĠĠĠĠĠĠĠĠ": 1773,
      "Ġuses": 1774,
      "Ġsepar": 1775,
      "],": 1776,
      "erc": 1777,
      "Ġwill": 1778,
      "otal": 1779,
      "Ġ64": 1780,
      "ĠBAD": 1781,
      "Ġjack": 1782,
      "Ġverify": 1783,
      "Ġteam": 1784,
      "io": 1785,
      "Ġ43": 1786,
      "iled": 1787,
      "'m": 1788,
      "path": 1789,
      "password": 1790,
      "Ġsav": 1791,
      "imary": 1792,
      "encies": 1793,
      "Ġholds": 1794,
      "Ġdur": 1795,
      "Ġday": 1796,
      "Ġgo": 1797,
      "ott": 1798,
      "Ġ92": 1799,
      "Ġalways": 1800,
      "Ġmethod": 1801,
      "uses": 1802,
      "Ġ46": 1803,
      "arent": 1804,
      "background": 1805,
      "ius": 1806,
      "start": 1807,
      "unch": 1808,
      "Ġautom": 1809,
      "ironment": 1810,
      "|----": 1811,
      "err": 1812,
      "iness": 1813,
      "ream": 1814,
      "Ġdave": 1815,
      "lete": 1816,
      "Ġnam": 1817,
      "Ġgu": 1818,
      "Ġexcept": 1819,
      "my": 1820,
      "Ġhapp": 1821,
      "ĠRead": 1822,
      "board": 1823,
      "Ġarray": 1824,
      "Ġcalls": 1825,
      "ors": 1826,
      "Ġfl": 1827,
      "rop": 1828,
      "Ġstill": 1829,
      "Ġruns": 1830,
      "ĠVer": 1831,
      "['": 1832,
      "body": 1833,
      "itial": 1834,
      "Ġwrite": 1835,
      "ĠID": 1836,
      "ĠSer": 1837,
      "Ġproper": 1838,
      "ĠRes": 1839,
      "$$$": 1840,
      "be": 1841,
      "Ġpool": 1842,
      "velo": 1843,
      "Ġneeded": 1844,
      "Ġeverything": 1845,
      "Ġtokens": 1846,
      "flex": 1847,
      "sec": 1848,
      "âĸ": 1849,
      "alys": 1850,
      "Ġtheir": 1851,
      "isk": 1852,
      "Ġnon": 1853,
      "Ġlength": 1854,
      "ilt": 1855,
      "Ġdeb": 1856,
      "alysis": 1857,
      "oun": 1858,
      "Ġlast": 1859,
      "empt": 1860,
      "trans": 1861,
      "AR": 1862,
      "hy": 1863,
      "types": 1864,
      "Ġtarget": 1865,
      "with": 1866,
      "ern": 1867,
      "ĠSe": 1868,
      "Ġquestion": 1869,
      "={": 1870,
      "script": 1871,
      "ĠTest": 1872,
      "iddle": 1873,
      "Ġ]": 1874,
      "Ġ`.": 1875,
      "Ġbran": 1876,
      "ailed": 1877,
      "ĠY": 1878,
      "Ġ200": 1879,
      "Ġask": 1880,
      "Ġstructure": 1881,
      "Ġupdate": 1882,
      "ĠSh": 1883,
      "Ġproject": 1884,
      "Ġprogram": 1885,
      "itive": 1886,
      "Ġreview": 1887,
      "Ġexact": 1888,
      "Ġfeature": 1889,
      "ĊĊĠ": 1890,
      "ĠCh": 1891,
      "ĠAND": 1892,
      "ra": 1893,
      "ush": 1894,
      "Ġevent": 1895,
      "ctions": 1896,
      "Ġshop": 1897,
      "plicit": 1898,
      "Ġmigration": 1899,
      "Ġrecord": 1900,
      "ia": 1901,
      "Ġnode": 1902,
      "Ġconstr": 1903,
      "ĠPR": 1904,
      "Ġshared": 1905,
      "Ġbeh": 1906,
      "ABLE": 1907,
      "ION": 1908,
      "po": 1909,
      "ĠLet": 1910,
      "less": 1911,
      "ĠUs": 1912,
      "Ġclear": 1913,
      "Ġcharacters": 1914,
      "Ġtask": 1915,
      "ĠIP": 1916,
      "ability": 1917,
      "().": 1918,
      "Ġorig": 1919,
      "Ġcosting": 1920,
      "Ġsaved": 1921,
      "AM": 1922,
      "length": 1923,
      "Ġad": 1924,
      "Ġ===": 1925,
      "Ġthese": 1926,
      "pport": 1927,
      "ĠOr": 1928,
      "ĠError": 1929,
      "URL": 1930,
      "Ġstandard": 1931,
      "Ġonce": 1932,
      "plied": 1933,
      "Ġloop": 1934,
      "ĠOR": 1935,
      "greSQL": 1936,
      "Ġelements": 1937,
      "Ġheaders": 1938,
      "base": 1939,
      "ique": 1940,
      "limit": 1941,
      "vers": 1942,
      "rowser": 1943,
      "API": 1944,
      "Ġschema": 1945,
      "Ġreason": 1946,
      "imes": 1947,
      "ade": 1948,
      "ĠAl": 1949,
      "(\"/": 1950,
      "Ġgiven": 1951,
      "atically": 1952,
      "Ġelement": 1953,
      "date": 1954,
      "alle": 1955,
      "Ġhard": 1956,
      "Ġcond": 1957,
      "ĠDocker": 1958,
      "Ġempty": 1959,
      "Ġav": 1960,
      "orage": 1961,
      "Ġdet": 1962,
      "oute": 1963,
      "Ġ91": 1964,
      "indow": 1965,
      "ĠTypeScript": 1966,
      "Don": 1967,
      "requ": 1968,
      "ĠSQL": 1969,
      "width": 1970,
      "inary": 1971,
      "Ġ(`": 1972,
      "etwork": 1973,
      "Ġrespon": 1974,
      "Ġcommand": 1975,
      "formance": 1976,
      "grep": 1977,
      "IG": 1978,
      "Ġ~": 1979,
      "Ġmet": 1980,
      "Ġkeep": 1981,
      "CH": 1982,
      "abel": 1983,
      "Ġ},": 1984,
      "Ġmeans": 1985,
      "Ġmultiplied": 1986,
      "Ġcontainer": 1987,
      "print": 1988,
      "âĤ": 1989,
      "Ġsw": 1990,
      "Ġsequ": 1991,
      "execute": 1992,
      "Ġfails": 1993,
      "display": 1994,
      "Ġseparate": 1995,
      "ities": 1996,
      "Ġbody": 1997,
      "Ġrem": 1998,
      "vert": 1999,
      "rict": 2000,
      "Ġwhile": 2001,
      "ĠBY": 2002,
      "ontend": 2003,
      "Ġhandling": 2004,
      "Ġ%": 2005,
      "Ġbound": 2006,
      "ĠTrue": 2007,
      "Ġmessage": 2008,
      "ĠSec": 2009,
      "Ġsold": 2010,
      "Ġexisting": 2011,
      "Ġenvironment": 2012,
      ">`": 2013,
      "Ġword": 2014,
      "amework": 2015,
      "lob": 2016,
      "Ġallow": 2017,
      "---|": 2018,
      "));": 2019,
      "Ġdi": 2020,
      "Ġfood": 2021,
      "ides": 2022,
      "Ġstack": 2023,
      "ĠCI": 2024,
      "Ġnext": 2025,
      "produ": 2026,
      "padding": 2027,
      "ark": 2028,
      "ublic": 2029,
      "current": 2030,
      "Ġroot": 2031,
      "typescript": 2032,
      "SER": 2033,
      "air": 2034,
      "ethod": 2035,
      "fo": 2036,
      "pace": 2037,
      "ptions": 2038,
      "Ġhash": 2039,
      "ĠDon": 2040,
      "active": 2041,
      "Ġfilter": 2042,
      "Ġtell": 2043,
      "span": 2044,
      "\"}": 2045,
      "Ġ()": 2046,
      "ets": 2047,
      "ĠWeb": 2048,
      "Ġactually": 2049,
      "auth": 2050,
      "Ġ51": 2051,
      "Ġ61": 2052,
      "Ġimm": 2053,
      "Ġworked": 2054,
      "ava": 2055,
      "Ġ$$$": 2056,
      "Ġcreated": 2057,
      "40": 2058,
      "ious": 2059,
      "Ġsize": 2060,
      "itor": 2061,
      "Ġlay": 2062,
      "ement": 2063,
      "('/": 2064,
      "process": 2065,
      "Ġoperations": 2066,
      "PU": 2067,
      "down": 2068,
      "of": 2069,
      "press": 2070,
      "hes": 2071,
      "Ġdev": 2072,
      "Ġlocal": 2073,
      "rows": 2074,
      "Ġrunning": 2075,
      "PT": 2076,
      "cle": 2077,
      "orm": 2078,
      "ags": 2079,
      "Ġlook": 2080,
      "DATE": 2081,
      "My": 2082,
      "und": 2083,
      "utes": 2084,
      "Ġdomain": 2085,
      "Ġident": 2086,
      "Ġmodule": 2087,
      "flict": 2088,
      "By": 2089,
      "Socket": 2090,
      "ell": 2091,
      "mail": 2092,
      "lement": 2093,
      "Ġpod": 2094,
      "ĠTABLE": 2095,
      "Ġsecurity": 2096,
      "Ġacross": 2097,
      "Ġdependencies": 2098,
      "Ġcompute": 2099,
      "Ġevents": 2100,
      "Ġoptim": 2101,
      "Ġitem": 2102,
      "essage": 2103,
      "ĠNode": 2104,
      "Ġprime": 2105,
      "Ġadded": 2106,
      "Ġvalidate": 2107,
      "button": 2108,
      "])": 2109,
      "tes": 2110,
      "ren": 2111,
      "Ġcause": 2112,
      "Ġâī": 2113,
      "Ġconnections": 2114,
      "Ġseconds": 2115,
      "ior": 2116,
      "Ġam": 2117,
      "iter": 2118,
      "Ġfalse": 2119,
      "imple": 2120,
      "ĠGr": 2121,
      "Ġdependency": 2122,
      "num": 2123,
      "ľâĶĢâĶĢ": 2124,
      "aly": 2125,
      "Ġrandom": 2126,
      "Ġcomplex": 2127,
      "Ġearns": 2128,
      "List": 2129,
      "TER": 2130,
      "Ġcustom": 2131,
      "Ġfine": 2132,
      "ided": 2133,
      "unc": 2134,
      "Ġkeys": 2135,
      "Ġagain": 2136,
      "Ġduring": 2137,
      "sible": 2138,
      "Ġwrit": 2139,
      "imal": 2140,
      "plain": 2141,
      "ĠNot": 2142,
      "ayment": 2143,
      "ĠOutput": 2144,
      "|----------": 2145,
      "Ġchanged": 2146,
      "Ġissues": 2147,
      "ASE": 2148,
      "gers": 2149,
      "uplic": 2150,
      "Ġlen": 2151,
      "amples": 2152,
      "ĠStep": 2153,
      "new": 2154,
      "Ġsetup": 2155,
      "Ġtake": 2156,
      "âĶģ": 2157,
      "Ġnpm": 2158,
      "Ġconflict": 2159,
      "Ġused": 2160,
      "Ġcolumns": 2161,
      "`)": 2162,
      "oid": 2163,
      "pi": 2164,
      "only": 2165,
      "hed": 2166,
      "ĠSolution": 2167,
      "Ġleak": 2168,
      "Ġstrings": 2169,
      "123": 2170,
      "flow": 2171,
      "fetch": 2172,
      "Ġsession": 2173,
      "Ġdou": 2174,
      "Ġpars": 2175,
      "ically": 2176,
      "Ġnum": 2177,
      "old": 2178,
      "ĠCons": 2179,
      "Ġcauses": 2180,
      "50": 2181,
      "eps": 2182,
      "Ġ)": 2183,
      "Ġ[]": 2184,
      "ashboard": 2185,
      "prime": 2186,
      "Ġexists": 2187,
      "ounter": 2188,
      "iddleware": 2189,
      "30": 2190,
      "Ġmissing": 2191,
      "Ġbase": 2192,
      "Ġwindow": 2193,
      "ĠIs": 2194,
      "ĠAr": 2195,
      "Ġlevel": 2196,
      "Ġimage": 2197,
      "Ġsecrets": 2198,
      "|------------": 2199,
      "Ġstatement": 2200,
      "Ġfields": 2201,
      "Ġgrep": 2202,
      "velop": 2203,
      "App": 2204,
      "based": 2205,
      "the": 2206,
      "title": 2207,
      "red": 2208,
      "Ġsy": 2209,
      "Ġmat": 2210,
      "Ġwould": 2211,
      "Ġisn": 2212,
      "ĠINT": 2213,
      "cription": 2214,
      "efined": 2215,
      "âĶģâĶģ": 2216,
      "Se": 2217,
      "ses": 2218,
      "Ġtyp": 2219,
      "alth": 2220,
      "ision": 2221,
      "ĠSE": 2222,
      "Ġselect": 2223,
      "32": 2224,
      "Type": 2225,
      "met": 2226,
      "ĠĠĠĠĠĠĠĠĠ": 2227,
      "ĠRun": 2228,
      "ĠUn": 2229,
      "umber": 2230,
      "Ġruntime": 2231,
      "ÃĹ": 2232,
      "atures": 2233,
      "Ġflow": 2234,
      "Ġeas": 2235,
      "ĠString": 2236,
      "ĠPr": 2237,
      "ĠFind": 2238,
      "comm": 2239,
      "Ġfunctions": 2240,
      "âķĲâķĲâķĲâķĲâķĲâķĲâķĲâķĲ": 2241,
      "https": 2242,
      "ollow": 2243,
      "DER": 2244,
      "PDATE": 2245,
      "crypt": 2246,
      "Ġsource": 2247,
      "Ġet": 2248,
      "Ġexplicit": 2249,
      "Ġcomb": 2250,
      "Data": 2251,
      "Im": 2252,
      "OU": 2253,
      "```<|": 2254,
      "Ġcomplete": 2255,
      "resent": 2256,
      "Ġtra": 2257,
      "Ġbuilt": 2258,
      "Ġarg": 2259,
      "box": 2260,
      "Ġtransform": 2261,
      "Ġtransaction": 2262,
      "Ġpatterns": 2263,
      "TE": 2264,
      "off": 2265,
      "ph": 2266,
      "sive": 2267,
      "total": 2268,
      "item": 2269,
      "ank": 2270,
      "level": 2271,
      "Ġtop": 2272,
      "Ġshow": 2273,
      "Ġroll": 2274,
      "256": 2275,
      "ptional": 2276,
      "Ġsupport": 2277,
      "Ġhandler": 2278,
      "ediate": 2279,
      ")}": 2280,
      "Rule": 2281,
      "Ser": 2282,
      "none": 2283,
      "ward": 2284,
      "ond": 2285,
      "Ġsafe": 2286,
      "Ġsplit": 2287,
      "anc": 2288,
      "Ġhere": 2289,
      "Ġway": 2290,
      "ĠCont": 2291,
      "place": 2292,
      "create": 2293,
      "Ġsomething": 2294,
      "(()": 2295,
      ".\"": 2296,
      "hand": 2297,
      "init": 2298,
      "Ġbrowser": 2299,
      "ĠTime": 2300,
      "quires": 2301,
      "ĠFix": 2302,
      "Ġheader": 2303,
      "Ġdirectly": 2304,
      "Ġbranch": 2305,
      "Ġconstrain": 2306,
      "OST": 2307,
      "ear": 2308,
      "Ġhist": 2309,
      "Ġbased": 2310,
      "arr": 2311,
      "aching": 2312,
      "ĠWhen": 2313,
      "Store": 2314,
      "ĠPostgreSQL": 2315,
      "Ġbehav": 2316,
      "No": 2317,
      "Python": 2318,
      "hash": 2319,
      "where": 2320,
      "xy": 2321,
      "Ġ@": 2322,
      "ination": 2323,
      "Ġmock": 2324,
      "ism": 2325,
      "ĠDB": 2326,
      "ĠDes": 2327,
      "Ġusually": 2328,
      "Ġtimeout": 2329,
      "Ġmessages": 2330,
      "Ġissue": 2331,
      "fficient": 2332,
      "Ġposts": 2333,
      "localhost": 2334,
      "docker": 2335,
      "fix": 2336,
      "mod": 2337,
      "Ġtem": 2338,
      "Ġhis": 2339,
      "roll": 2340,
      "pler": 2341,
      "ribut": 2342,
      "ĠGener": 2343,
      "Ġchecks": 2344,
      "Ġconsole": 2345,
      "ĠAnalysis": 2346,
      "ection": 2347,
      "run": 2348,
      "state": 2349,
      "oud": 2350,
      "Ġhour": 2351,
      "ĠCS": 2352,
      "ĠSc": 2353,
      "ĠĠĠĠĠĠĠĠĠĠ": 2354,
      "Ġalso": 2355,
      "Ġund": 2356,
      "ĊĠĠĠĠĠĠĠĠĠĠĠĠĠĠĠĠĠĠĠ": 2357,
      "EXT": 2358,
      "Ġequals": 2359,
      "ercase": 2360,
      "').": 2361,
      ")**": 2362,
      "ED": 2363,
      "It": 2364,
      "Or": 2365,
      "WT": 2366,
      "[\"": 2367,
      "Ġ!": 2368,
      "Ġflex": 2369,
      "Ġhigh": 2370,
      "ots": 2371,
      "Ġrules": 2372,
      "())": 2373,
      "Ġretry": 2374,
      "Ġminutes": 2375,
      "ĠJava": 2376,
      "Ġgets": 2377,
      "ategy": 2378,
      "._": 2379,
      "ply": 2380,
      "wh": 2381,
      "Ġreq": 2382,
      "Ġspace": 2383,
      "ĠKey": 2384,
      "Ġsally": 2385,
      "Ġred": 2386,
      "Ġremain": 2387,
      "ĠCreate": 2388,
      "html": 2389,
      "conn": 2390,
      "Ġauthentic": 2391,
      "80": 2392,
      "sub": 2393,
      "ty": 2394,
      "Ġpi": 2395,
      "aml": 2396,
      "ĠTEXT": 2397,
      "Ġgit": 2398,
      "riv": 2399,
      "Ġextract": 2400,
      "Ġservices": 2401,
      "ritical": 2402,
      "âĶĢâĶĢâĶĢâĶĢâĶĢâĶĢâĶĢâĶĢâĶĢâĶĢâĶĢâĶĢâĶĢâĶĢâĶĢâĶĢâĶĢâĶĢâĶĢâĶĢâĶĢâĶĢâĶĢâĶĢâĶĢâĶĢâĶĢâĶĢâĶĢâĶĢâĶĢâĶĢ": 2403,
      "plementation": 2404,
      "http": 2405,
      "Ġautomatically": 2406,
      "EY": 2407,
      "OP": 2408,
      "mat": 2409,
      "Ġ</": 2410,
      "any": 2411,
      "Ġport": 2412,
      "Ġpair": 2413,
      "Ġbl": 2414,
      "ular": 2415,
      "ĠComplexity": 2416,
      "Ġauto": 2417,
      "Ġcharacter": 2418,
      "ĠâĶĶ": 2419,
      "content": 2420,
      "allel": 2421,
      "oice": 2422,
      "vious": 2423,
      "ze": 2424,
      "Ġlunch": 2425,
      "adius": 2426,
      "ATAB": 2427,
      "Ġcursor": 2428,
      "Ġprovide": 2429,
      "Ġrefresh": 2430,
      "ĠRedis": 2431,
      "ginx": 2432,
      "ormal": 2433,
      "ATABASE": 2434,
      "Time": 2435,
      "aut": 2436,
      "bound": 2437,
      "Ġwait": 2438,
      "amily": 2439,
      "Ġdepends": 2440,
      "Profile": 2441,
      "Ġmerge": 2442,
      "Ġetc": 2443,
      "Ġbehavior": 2444,
      "ding": 2445,
      "message": 2446,
      "src": 2447,
      "ince": 2448,
      "Ġparent": 2449,
      "orders": 2450,
      "ĠList": 2451,
      "obile": 2452,
      "Ġendpoints": 2453,
      "Add": 2454,
      "ract": 2455,
      "incl": 2456,
      "Ġeffect": 2457,
      "Ġidx": 2458,
      "udit": 2459,
      "?**": 2460,
      "Sec": 2461,
      "ws": 2462,
      "yaml": 2463,
      "ĠÐ": 2464,
      "Ġbal": 2465,
      "version": 2466,
      "ager": 2467,
      "ries": 2468,
      "iven": 2469,
      "Ġlogin": 2470,
      "Ġperm": 2471,
      "Ġspecial": 2472,
      "Input": 2473,
      "99": 2474,
      "Th": 2475,
      "gress": 2476,
      "ĠAll": 2477,
      "Ġvia": 2478,
      "ĠLo": 2479,
      "ception": 2480,
      "Ġdebug": 2481,
      "Ġbro": 2482,
      "ores": 2483,
      "Ġ[\"": 2484,
      "Ġbetter": 2485,
      "Ġparameter": 2486,
      "cache": 2487,
      "Ġbinary": 2488,
      "amp": 2489,
      "ational": 2490,
      "ĠAL": 2491,
      "ools": 2492,
      "argin": 2493,
      "filter": 2494,
      "True": 2495,
      "ĠWebSocket": 2496,
      "MB": 2497,
      "mpt": 2498,
      "write": 2499,
      "Ġconf": 2500,
      "ĠPl": 2501,
      "Ġexample": 2502,
      "Ġexpected": 2503,
      "ĠDef": 2504,
      "aining": 2505,
      "ĠEach": 2506,
      "Ġlogging": 2507,
      "comp": 2508,
      "Ġupload": 2509,
      "Content": 2510,
      "ĊĠĠĠĠĠĠĠĠĊĠĠĠĠĠĠĠ": 2511,
      "Why": 2512,
      "task": 2513,
      "âĢ": 2514,
      "Ġcatch": 2515,
      "ison": 2516,
      "usiness": 2517,
      "aps": 2518,
      "Ġtrace": 2519,
      "Ġindepend": 2520,
      "Ġâľħ": 2521,
      "Ġfrontend": 2522,
      "Ġrequired": 2523,
      "Ġsecond": 2524,
      "ottom": 2525,
      "'ve": 2526,
      "16": 2527,
      "ID": 2528,
      "await": 2529,
      "nly": 2530,
      "Ġ(!": 2531,
      "Ġthings": 2532,
      "ĠSet": 2533,
      "spec": 2534,
      "Ġvariables": 2535,
      "Ġcalcul": 2536,
      "Ġnames": 2537,
      ".,": 2538,
      "NC": 2539,
      "OW": 2540,
      "ooks": 2541,
      "pass": 2542,
      "safe": 2543,
      "Ġnetwork": 2544,
      "ceed": 2545,
      "plate": 2546,
      "ends": 2547,
      "ĠWe": 2548,
      "ifications": 2549,
      "Ġentire": 2550,
      "ĠQu": 2551,
      "Ġsequence": 2552,
      "Ch": 2553,
      "margin": 2554,
      "nam": 2555,
      "Ġaction": 2556,
      "Ġmist": 2557,
      "Ġglob": 2558,
      "search": 2559,
      "ĠPer": 2560,
      "ivity": 2561,
      "ĠThey": 2562,
      "Ġcontrol": 2563,
      "Ġfailure": 2564,
      "weight": 2565,
      "Ġsuccess": 2566,
      "Ne": 2567,
      "her": 2568,
      "nap": 2569,
      "Ġsync": 2570,
      "Ġrest": 2571,
      "Ġincre": 2572,
      "ĠCode": 2573,
      "ripe": 2574,
      "ĠFalse": 2575,
      "Keep": 2576,
      "Ġlimits": 2577,
      "napsh": 2578,
      "Element": 2579,
      "Ġtakes": 2580,
      "ref": 2581,
      "Ġpe": 2582,
      "Ġ||": 2583,
      "aging": 2584,
      "loat": 2585,
      "Ġbeing": 2586,
      "top": 2587,
      "jsx": 2588,
      "Ġcreates": 2589,
      "aches": 2590,
      "ĠExample": 2591,
      "Ġconsum": 2592,
      "Ġframework": 2593,
      "================================": 2594,
      "Ġprovided": 2595,
      "Ġexactly": 2596,
      "Ġhistory": 2597,
      "`**": 2598,
      "face": 2599,
      "like": 2600,
      "itch": 2601,
      "Ġdat": 2602,
      "Ġgood": 2603,
      "Ġexternal": 2604,
      "ird": 2605,
      "valu": 2606,
      "Ġdesign": 2607,
      "ĠValue": 2608,
      "ron": 2609,
      "random": 2610,
      "ted": 2611,
      "Ġdid": 2612,
      "Ġ**`": 2613,
      "ĠBo": 2614,
      "âĶĢâĶĢâĶĢâĶĢâĶĢâĶĢâĶĢâĶĢâĶĢâĶĢâĶĢâĶĢ": 2615,
      "Ġalgorithm": 2616,
      "Ġsolve": 2617,
      "Ġprocessing": 2618,
      "Ġposition": 2619,
      ">;": 2620,
      "EN": 2621,
      "Sh": 2622,
      "day": 2623,
      "part": 2624,
      "rust": 2625,
      "radius": 2626,
      "renc": 2627,
      "Ġfollow": 2628,
      "Ġrequires": 2629,
      "ĠREST": 2630,
      "Ġloc": 2631,
      "Ġperformance": 2632,
      "Ġdoubles": 2633,
      "OL": 2634,
      "String": 2635,
      "find": 2636,
      "Ġ(\"": 2637,
      "Ġinside": 2638,
      "ĠCPU": 2639,
      "Ġ500": 2640,
      "Ġcomplexity": 2641,
      "irection": 2642,
      "ĠYour": 2643,
      "entials": 2644,
      "myapp": 2645,
      "ĠServer": 2646,
      "((": 2647,
      "RF": 2648,
      "gener": 2649,
      "sl": 2650,
      "Ġbor": 2651,
      "Ġ1000": 2652,
      "ĊĠĠĠĠĠĠĠĠĠ": 2653,
      "dev": 2654,
      "Ġsecret": 2655,
      "ĠHTML": 2656,
      "Ġtriples": 2657,
      "Not": 2658,
      "WS": 2659,
      "des": 2660,
      "other": 2661,
      "style": 2662,
      "Ġher": 2663,
      "Ġrisk": 2664,
      "Ġwhy": 2665,
      "','": 2666,
      "Ġcommits": 2667,
      "Ġdiff": 2668,
      "Ġenough": 2669,
      "Ġattempt": 2670,
      "ĠDev": 2671,
      "*.": 2672,
      "family": 2673,
      "ming": 2674,
      "rate": 2675,
      "height": 2676,
      "Ġinternal": 2677,
      "Ġinitial": 2678,
      "ified": 2679,
      "Ġprob": 2680,
      "Ġroute": 2681,
      "output": 2682,
      "fully": 2683,
      "Ġunique": 2684,
      "ĠAPIs": 2685,
      "ĠInput": 2686,
      "Ġcompar": 2687,
      "args": 2688,
      "Ġhttp": 2689,
      "check": 2690,
      "Ġcaching": 2691,
      "Ġlink": 2692,
      "vect": 2693,
      "ĠIND": 2694,
      "ĠStr": 2695,
      "Ġconc": 2696,
      "ails": 2697,
      "ĠEn": 2698,
      "Ġgenerate": 2699,
      "Ġauthor": 2700,
      "Ġreference": 2701,
      "ĠINDEX": 2702,
      "ipp": 2703,
      "mary": 2704,
      "ops": 2705,
      "}</": 2706,
      "ĠZ": 2707,
      "inst": 2708,
      "Ġten": 2709,
      "Ġsl": 2710,
      "verse": 2711,
      "Ġproxy": 2712,
      "ably": 2713,
      "Ġpract": 2714,
      "Ġprimary": 2715,
      "next": 2716,
      "aking": 2717,
      "created": 2718,
      "Ġbackend": 2719,
      "ORS": 2720,
      "Ġconnect": 2721,
      "Ġresponses": 2722,
      "Ġpipe": 2723,
      "dict": 2724,
      "ek": 2725,
      "ler": 2726,
      "node": 2727,
      "Ġcould": 2728,
      "ĠSET": 2729,
      "Ġexec": 2730,
      "Ġmean": 2731,
      "ched": 2732,
      "posts": 2733,
      "Ġtraffic": 2734,
      "OIN": 2735,
      "last": 2736,
      "til": 2737,
      "Ġfailed": 2738,
      "Ġthumb": 2739,
      "response": 2740,
      "Ġtrack": 2741,
      "ignore": 2742,
      "ather": 2743,
      "cursor": 2744,
      "ators": 2745,
      "ocument": 2746,
      "Ġinclude": 2747,
      "ById": 2748,
      "Ġundefined": 2749,
      "All": 2750,
      "HT": 2751,
      "ape": 2752,
      "event": 2753,
      "hip": 2754,
      "son": 2755,
      "att": 2756,
      "eters": 2757,
      "olve": 2758,
      "ĠRust": 2759,
      "Ġanaly": 2760,
      "Ġ})": 2761,
      "ĠĠĠĠĠĠĠĠĠĠĠĠĠĠĠĠĠĠĠĠĠĠĠĠĠĠĠĠĠĠĠĠ": 2762,
      "Ġmultiply": 2763,
      "ĠProblem": 2764,
      "Ġvariable": 2765,
      "Ġimmediate": 2766,
      "PL": 2767,
      "We": 2768,
      "]`": 2769,
      "gy": 2770,
      "jection": 2771,
      "Ġtree": 2772,
      "admin": 2773,
      "ĠTh": 2774,
      "ĠSimple": 2775,
      "Ġrule": 2776,
      "(),": 2777,
      "Ġappro": 2778,
      "xtract": 2779,
      "ives": 2780,
      "Ġmark": 2781,
      "Ġbugs": 2782,
      "Ġinclud": 2783,
      "ĠValueError": 2784,
      "do": 2785,
      "ving": 2786,
      "Ġduplic": 2787,
      "Ġph": 2788,
      "ants": 2789,
      "ĠBut": 2790,
      "ĠUp": 2791,
      "Ġcred": 2792,
      "itional": 2793,
      "ĠState": 2794,
      "ULT": 2795,
      "Ġtools": 2796,
      "Ġedge": 2797,
      "400": 2798,
      "ears": 2799,
      "Ġq": 2800,
      "Ġcenter": 2801,
      "lease": 2802,
      "Ġmakes": 2803,
      "Ġwere": 2804,
      "ilities": 2805,
      "Ġheap": 2806,
      "essions": 2807,
      "ĠRec": 2808,
      "rome": 2809,
      "ailable": 2810,
      "login": 2811,
      "Ġconsider": 2812,
      "Ġdirectory": 2813,
      "Ġcron": 2814,
      "Control": 2815,
      "Ġoriginal": 2816,
      "Ġhours": 2817,
      "Auth": 2818,
      "Output": 2819,
      "}`": 2820,
      "ĊĊ": 2821,
      "Ġ_": 2822,
      "ĠÃĹ": 2823,
      "ero": 2824,
      "Ġaudit": 2825,
      "Ġhost": 2826,
      "Ġinvalid": 2827,
      "iler": 2828,
      "Ġconcurrent": 2829,
      "Ġones": 2830,
      "Ġext": 2831,
      "ources": 2832,
      "Ġaccount": 2833,
      "ocus": 2834,
      "Ġcalled": 2835,
      "ĠVerification": 2836,
      "SERT": 2837,
      "Here": 2838,
      "NS": 2839,
      "join": 2840,
      "late": 2841,
      "rics": 2842,
      "su": 2843,
      "wr": 2844,
      "ĠAS": 2845,
      "emb": 2846,
      "export": 2847,
      "Ġdefine": 2848,
      "ĠPostgres": 2849,
      "='": 2850,
      "pack": 2851,
      "Ġside": 2852,
      "Ġfinal": 2853,
      "vest": 2854,
      "Ġopen": 2855,
      "Ġ*/": 2856,
      "Ġdevelop": 2857,
      "Ġanything": 2858,
      "ĠLog": 2859,
      "Ġjson": 2860,
      "ĠJWT": 2861,
      "Ġprevent": 2862,
      "Ġprevents": 2863,
      "els": 2864,
      "Ġreferences": 2865,
      "Ġattacker": 2866,
      "Ġhappen": 2867,
      "ĠYes": 2868,
      "Ġcombined": 2869,
      "Ver": 2870,
      "]:": 2871,
      "ĠKeep": 2872,
      "Ġcare": 2873,
      "Ġdiv": 2874,
      "ulner": 2875,
      "Ġrout": 2876,
      "ĠDec": 2877,
      "Ġuntil": 2878,
      "Ġsimpler": 2879,
      "ĠComp": 2880,
      "ously": 2881,
      "Ġdisplay": 2882,
      "ĠNever": 2883,
      "vector": 2884,
      "AULT": 2885,
      "pattern": 2886,
      "},": 2887,
      "Ð¾": 2888,
      "itect": 2889,
      "Ġlines": 2890,
      "image": 2891,
      "etime": 2892,
      "Ġthree": 2893,
      "Ġgive": 2894,
      "ither": 2895,
      "chitect": 2896,
      "Ġ};": 2897,
      "ĠHand": 2898,
      "Ġsets": 2899,
      "Ġplan": 2900,
      "Ġrot": 2901,
      "colum": 2902,
      "Ġmigrations": 2903,
      "EFAULT": 2904,
      "âĤĤ": 2905,
      "><": 2906,
      "UM": 2907,
      "lish": 2908,
      "mar": 2909,
      "tn": 2910,
      "Ġenc": 2911,
      "ances": 2912,
      "Ġbad": 2913,
      "Ġbcrypt": 2914,
      "Ġlif": 2915,
      "ectl": 2916,
      "ubectl": 2917,
      "default": 2918,
      "ĠImplementation": 2919,
      "\"),": 2920,
      "-|": 2921,
      "WHERE": 2922,
      "az": 2923,
      "card": 2924,
      "da": 2925,
      "upload": 2926,
      "step": 2927,
      "ories": 2928,
      "Ġfrequ": 2929,
      "uration": 2930,
      "ump": 2931,
      "ĠProm": 2932,
      "ived": 2933,
      "tool": 2934,
      "astAPI": 2935,
      "Ġcookie": 2936,
      "Ġparallel": 2937,
      "ĠValid": 2938,
      "eature": 2939,
      "ips": 2940,
      "sions": 2941,
      "Ġden": 2942,
      "acing": 2943,
      "Ġoc": 2944,
      "ural": 2945,
      "ĠSS": 2946,
      "ĠAs": 2947,
      "ending": 2948,
      "currenc": 2949,
      "ĠCommon": 2950,
      "Ġfewer": 2951,
      "âĶĢâĶĲ": 2952,
      "ĠResult": 2953,
      "Ġagainst": 2954,
      "IL": 2955,
      "IP": 2956,
      "Qu": 2957,
      "ged": 2958,
      "oo": 2959,
      "Ġos": 2960,
      "Ġmatches": 2961,
      "alind": 2962,
      "Ġpg": 2963,
      "Ġhit": 2964,
      "Ġlow": 2965,
      "Ġcover": 2966,
      "ĠInc": 2967,
      "ĠWith": 2968,
      "Ġque": 2969,
      "graph": 2970,
      "Ġdefin": 2971,
      "Ġreading": 2972,
      "Ġindexes": 2973,
      "Ġmodels": 2974,
      "Ġlibraries": 2975,
      "ĠReturns": 2976,
      "ĠJavaScript": 2977,
      "Ġcomparison": 2978,
      "Val": 2979,
      "null": 2980,
      "rag": 2981,
      "inci": 2982,
      "Ġpers": 2983,
      "Ġevalu": 2984,
      "Ġlang": 2985,
      "Ġstyle": 2986,
      "ĠPre": 2987,
      "Ġdel": 2988,
      "ferences": 2989,
      "getElement": 2990,
      "ESC": 2991,
      "Ġcallback": 2992,
      "Ġdescri": 2993,
      "Ġ&&": 2994,
      "Ġevenly": 2995,
      "vestig": 2996,
      "getElementById": 2997,
      "64": 2998,
      "Red": 2999,
      "can": 3000,
      "ness": 3001,
      "})": 3002,
      "}\",": 3003,
      "Ġtables": 3004,
      "onac": 3005,
      "Ġfin": 3006,
      "Ġnar": 3007,
      "acity": 3008,
      "ĠCan": 3009,
      "ĠDEFAULT": 3010,
      "server": 3011,
      "Ġseg": 3012,
      "Ġjob": 3013,
      "ĠGo": 3014,
      "Ġlists": 3015,
      "ibonac": 3016,
      "Ġplace": 3017,
      "ĠInst": 3018,
      "Ġinputs": 3019,
      "Ġinteger": 3020,
      "ĠApproach": 3021,
      "Ġregist": 3022,
      "ibonacci": 3023,
      "60": 3024,
      ":'": 3025,
      "DATABASE": 3026,
      "Effect": 3027,
      "build": 3028,
      "call": 3029,
      "sum": 3030,
      "stat": 3031,
      "Ġcatches": 3032,
      "ams": 3033,
      "olum": 3034,
      "Ġdelete": 3035,
      "ĠData": 3036,
      "profile": 3037,
      "Ġsubtract": 3038,
      "Ġupdates": 3039,
      "Post": 3040,
      "Ġsessions": 3041,
      "Ġpython": 3042,
      "Ġpublic": 3043,
      "arning": 3044,
      "isions": 3045,
      "Ġrev": 3046,
      "etimes": 3047,
      "userId": 3048,
      "emo": 3049,
      "Ġprofile": 3050,
      "ĠDESC": 3051,
      "Ġusage": 3052,
      "ĠOption": 3053,
      "Ġtrig": 3054,
      "ĠuseState": 3055,
      "Ġworking": 3056,
      "format": 3057,
      "Ġreads": 3058,
      "Ġconsist": 3059,
      "Problem": 3060,
      "Ġintegr": 3061,
      "ĠDesign": 3062,
      "ĠALL": 3063,
      "AC": 3064,
      "Check": 3065,
      "Read": 3066,
      "Set": 3067,
      "after": 3068,
      "ced": 3069,
      "ention": 3070,
      "ident": 3071,
      "irm": 3072,
      "Ġminimum": 3073,
      "web": 3074,
      "Ġdeployment": 3075,
      "Ġintegers": 3076,
      "Ġcomponents": 3077,
      "Result": 3078,
      "rivate": 3079,
      "'d": 3080,
      ">>": 3081,
      "Lo": 3082,
      "center": 3083,
      "sort": 3084,
      "ux": 3085,
      "ename": 3086,
      "Ġpush": 3087,
      "Ġ+=": 3088,
      "ĠAut": 3089,
      "Ġshows": 3090,
      "LETE": 3091,
      "ultiple": 3092,
      "Ġrole": 3093,
      "Example": 3094,
      "Ġpossible": 3095,
      "Ġedit": 3096,
      "Ġscripts": 3097,
      "ARY": 3098,
      "Ġboundary": 3099,
      "3000": 3100,
      "DN": 3101,
      "FROM": 3102,
      "Gener": 3103,
      "cs": 3104,
      "css": 3105,
      "tod": 3106,
      "Ġcert": 3107,
      "Ġredu": 3108,
      "acy": 3109,
      "utable": 3110,
      "Ġ`/": 3111,
      "ĠDatabase": 3112,
      "ĠOne": 3113,
      "ustand": 3114,
      "____": 3115,
      "Ġnothing": 3116,
      "Ġredirect": 3117,
      "btn": 3118,
      "kip": 3119,
      "kubectl": 3120,
      "lib": 3121,
      "por": 3122,
      "pot": 3123,
      "tain": 3124,
      "times": 3125,
      "}\"": 3126,
      "Ġant": 3127,
      "Ġcritical": 3128,
      "**.": 3129,
      "Ġpages": 3130,
      "Ġbest": 3131,
      "isect": 3132,
      "Ġinform": 3133,
      "thread": 3134,
      "Ġcopy": 3135,
      "Ġcoding": 3136,
      "ĠThat": 3137,
      "llo": 3138,
      "Ġoff": 3139,
      "Ġvulner": 3140,
      "Ġreset": 3141,
      "Ġproblems": 3142,
      "\"\"\"": 3143,
      "Ġclients": 3144,
      "Ġloading": 3145,
      "Ġsends": 3146,
      "Ġborrow": 3147,
      "600": 3148,
      "DB": 3149,
      "ELETE": 3150,
      "dig": 3151,
      "gest": 3152,
      "sight": 3153,
      "anager": 3154,
      "Ġmiddleware": 3155,
      "Ġrece": 3156,
      "Ġind": 3157,
      "etes": 3158,
      "Ġthing": 3159,
      "ĠIter": 3160,
      "ĠCORS": 3161,
      "Ġoften": 3162,
      "Ġwithin": 3163,
      "Ġshort": 3164,
      "ĠWork": 3165,
      "Ġart": 3166,
      "ocation": 3167,
      "âĶĢâĶĺ": 3168,
      "Ġobjects": 3169,
      "Ġconstraints": 3170,
      "connect": 3171,
      "HA": 3172,
      "HE": 3173,
      "ructure": 3174,
      "Ġdro": 3175,
      "left": 3176,
      "Ġmove": 3177,
      "Ġbisect": 3178,
      "ises": 3179,
      "hron": 3180,
      "Ġsteps": 3181,
      "terval": 3182,
      "Ġextr": 3183,
      "oded": 3184,
      "ĠBest": 3185,
      "Ġanother": 3186,
      "izing": 3187,
      "Ġnotifications": 3188,
      "lmost": 3189,
      "Ġinstances": 3190,
      "ibility": 3191,
      "Ġgetting": 3192,
      "ĠConfig": 3193,
      "Ġrequirements": 3194,
      "ointer": 3195,
      "Ġimplementation": 3196,
      "ĠURLs": 3197,
      "commend": 3198,
      "De": 3199,
      "GB": 3200,
      "Limit": 3201,
      "catch": 3202,
      "iod": 3203,
      "Ġapi": 3204,
      "Ġbusiness": 3205,
      "Ġreject": 3206,
      "Ġstream": 3207,
      "ested": 3208,
      "Ġexplain": 3209,
      "ubern": 3210,
      "Storage": 3211,
      "|----------------": 3212,
      "parse": 3213,
      "IMARY": 3214,
      "Ġblocks": 3215,
      "aphQL": 3216,
      "Ġsorted": 3217,
      "ĠPRIMARY": 3218,
      "ĠContent": 3219,
      "Ġtenant": 3220,
      "Ġimmediately": 3221,
      "ubernetes": 3222,
      "54": 3223,
      "fn": 3224,
      "mb": 3225,
      "right": 3226,
      "send": 3227,
      "Ġens": 3228,
      "Ġtech": 3229,
      "rel": 3230,
      "âĶľâĶĢâĶĢ": 3231,
      "Ġeither": 3232,
      "âĶĢâĶĢâĶ": 3233,
      "ĊĠĠĠĠĠĠĠĠĠĠĠĠĠĠĠĠĠĠĠĠ": 3234,
      "Ġstorage": 3235,
      "===": 3236,
      "agination": 3237,
      "ĠĠĠĠĠĠĠĠĠĠĠĠĠ": 3238,
      "Ġapply": 3239,
      "Ġ['": 3240,
      "duct": 3241,
      "commit": 3242,
      "Ġ/>": 3243,
      "Ġaccept": 3244,
      "nswer": 3245,
      "Ġfaster": 3246,
      "ĠKEY": 3247,
      "Alice": 3248,
      "Ġhappens": 3249,
      "Ġswitch": 3250,
      "Ġwords": 3251,
      "nown": 3252,
      "number": 3253,
      "payment": 3254,
      "Ġsnapsh": 3255,
      "Ġfloat": 3256,
      "Ġws": 3257,
      "Ġreplic": 3258,
      "Ġlos": 3259,
      "ety": 3260,
      "very": 3261,
      "estamp": 3262,
      "Ġprote": 3263,
      "Ġwho": 3264,
      "ĠEmail": 3265,
      "Ġversions": 3266,
      "Ġwell": 3267,
      "Ġgroup": 3268,
      "IMIT": 3269,
      "Ġmetrics": 3270,
      "Ġspecialist": 3271,
      "LI": 3272,
      "Test": 3273,
      "bottom": 3274,
      "ges": 3275,
      "just": 3276,
      "Ġour": 3277,
      "Ġcateg": 3278,
      "orator": 3279,
      "Ġsil": 3280,
      "Ġdict": 3281,
      "Ġmobile": 3282,
      "align": 3283,
      "asic": 3284,
      "etter": 3285,
      "ilar": 3286,
      "ĠSame": 3287,
      "Ġvis": 3288,
      "nel": 3289,
      "grade": 3290,
      "exp": 3291,
      "Ġ${": 3292,
      "Ġfeatures": 3293,
      "Ġpackages": 3294,
      "ĠâĶĮ": 3295,
      "Click": 3296,
      "product": 3297,
      "Ġcredentials": 3298,
      "([": 3299,
      "bar": 3300,
      "td": 3301,
      "wise": 3302,
      "Ġut": 3303,
      "Ġ---": 3304,
      "render": 3305,
      "amb": 3306,
      "Ġ`[": 3307,
      "ĠSum": 3308,
      "ĠAWS": 3309,
      "empty": 3310,
      "olic": 3311,
      "ĠGit": 3312,
      "ĠGood": 3313,
      "click": 3314,
      "igration": 3315,
      "Ġrecords": 3316,
      "Approach": 3317,
      "ĠSELECT": 3318,
      "Ġprobably": 3319,
      "500": 3320,
      "AN": 3321,
      "UR": 3322,
      "go": 3323,
      "hook": 3324,
      "ration": 3325,
      "Ġter": 3326,
      "Ġsent": 3327,
      "alice": 3328,
      "ĠREF": 3329,
      "Ġcomments": 3330,
      "....": 3331,
      "Ġclos": 3332,
      "try": 3333,
      "append": 3334,
      "__(": 3335,
      "Ġchecking": 3336,
      "ĠJS": 3337,
      "Start": 3338,
      "Ġfailures": 3339,
      "ERENC": 3340,
      "Ġmaximum": 3341,
      "ĠNOW": 3342,
      "Context": 3343,
      "Ġpoints": 3344,
      "ĠJSONB": 3345,
      "Ġflag": 3346,
      "Ġlayer": 3347,
      "Ġpipeline": 3348,
      "ĠREFERENC": 3349,
      "ĠREFERENCES": 3350,
      "(*": 3351,
      "RU": 3352,
      "UB": 3353,
      "Un": 3354,
      "]);": 3355,
      "split": 3356,
      "Īâĸ": 3357,
      "atform": 3358,
      "Ġinvestig": 3359,
      "Ġop": 3360,
      "Ġstaging": 3361,
      "ĠIN": 3362,
      "ĠCSS": 3363,
      "Ġconvert": 3364,
      "ĠPOST": 3365,
      "rior": 3366,
      "ĠMethod": 3367,
      "Ġtesting": 3368,
      "Ġworker": 3369,
      "ĠNeed": 3370,
      "headers": 3371,
      "Ġearly": 3372,
      "contain": 3373,
      "Client": 3374,
      "Ġmonitor": 3375,
      "ĠShould": 3376,
      "Ġcondition": 3377,
      "specific": 3378,
      "Ġanalyze": 3379,
      "Ġapproaches": 3380,
      "alindrome": 3381,
      "01": 3382,
      "></": 3383,
      "?\"": 3384,
      "CS": 3385,
      "pip": 3386,
      "Ġalmost": 3387,
      "Ġcell": 3388,
      "orrect": 3389,
      "Ġdate": 3390,
      "Ġmap": 3391,
      "Ġbott": 3392,
      "Ġreport": 3393,
      "Ġstrict": 3394,
      "Ġ400": 3395,
      "Ġexit": 3396,
      "Ġwhole": 3397,
      "allow": 3398,
      "allback": 3399,
      "service": 3400,
      "ĠâĨĲ": 3401,
      "Ġchain": 3402,
      "Ġchild": 3403,
      "ĠWh": 3404,
      "Ġstruct": 3405,
      "ĠExpress": 3406,
      "afety": 3407,
      "ING": 3408,
      "Ġwrapp": 3409,
      "Ġbuilding": 3410,
      "Ġdescription": 3411,
      "Ġoperation": 3412,
      "Ġcrash": 3413,
      "lenec": 3414,
      "Ġmanager": 3415,
      "Ġavoid": 3416,
      "---|---|": 3417,
      "Ġexplicitly": 3418,
      "Ġqueue": 3419,
      "Ġbottlenec": 3420,
      "(`": 3421,
      "JSON": 3422,
      "Us": 3423,
      "`:": 3424,
      "cr": 3425,
      "fail": 3426,
      "most": 3427,
      "present": 3428,
      "Ġurl": 3429,
      "inde": 3430,
      "Ġmode": 3431,
      "Ġev": 3432,
      "Ġefficient": 3433,
      "this": 3434,
      "ĠCON": 3435,
      "rib": 3436,
      "Ġview": 3437,
      "Ġdelet": 3438,
      "reser": 3439,
      "izes": 3440,
      "ĠLow": 3441,
      "Ġserial": 3442,
      "Ġmeas": 3443,
      "ensitive": 3444,
      "ĠStore": 3445,
      "--------------------------------": 3446,
      "ĠVerify": 3447,
      "raw": 3448,
      "IONS": 3449,
      "ĠConsider": 3450,
      "iveness": 3451,
      "chedul": 3452,
      "Ġevaluate": 3453,
      "olicy": 3454,
      "36": 3455,
      "AIN": 3456,
      "Count": 3457,
      "Hub": 3458,
      "IAL": 3459,
      "df": 3460,
      "âĨ": 3461,
      "Ġinfo": 3462,
      "nders": 3463,
      "etry": 3464,
      "Ġthrow": 3465,
      "delete": 3466,
      "Ġheight": 3467,
      "agn": 3468,
      "cket": 3469,
      "Ġexamples": 3470,
      "ayload": 3471,
      "ĠBuild": 3472,
      "Ġcannot": 3473,
      "Ġprinci": 3474,
      "Ġunder": 3475,
      "primary": 3476,
      "Ġscan": 3477,
      "ĠâľĹ": 3478,
      "ĠâĶľâĶĢâĶĢ": 3479,
      "Ġequal": 3480,
      "Ġamount": 3481,
      "OPY": 3482,
      "Verification": 3483,
      "AS": 3484,
      "Most": 3485,
      "ken": 3486,
      "lass": 3487,
      "light": 3488,
      "label": 3489,
      "ope": 3490,
      "ties": 3491,
      "hello": 3492,
      "Ġcap": 3493,
      "Ġdeter": 3494,
      "Ġrepl": 3495,
      "Ġinjection": 3496,
      "ading": 3497,
      "adata": 3498,
      "Ġ`<": 3499,
      "Ġgot": 3500,
      "ctionary": 3501,
      "ĠBIG": 3502,
      "services": 3503,
      "ternative": 3504,
      "ORDER": 3505,
      "IMEST": 3506,
      "requests": 3507,
      "ĠCloud": 3508,
      "Response": 3509,
      "ĠUpdate": 3510,
      "IMESTAM": 3511,
      "Gr": 3512,
      "vant": 3513,
      "ycle": 3514,
      "Ġerr": 3515,
      "rec": 3516,
      "hether": 3517,
      "health": 3518,
      "leg": 3519,
      "Ġfree": 3520,
      "Ġrestart": 3521,
      "used": 3522,
      "ppercase": 3523,
      "ĠTwo": 3524,
      "ĠUPDATE": 3525,
      "ĠEX": 3526,
      "Ġquant": 3527,
      "Ġaddress": 3528,
      "Ġsecure": 3529,
      "|---------": 3530,
      "Ġenfor": 3531,
      "Ġstarts": 3532,
      "Ġproducts": 3533,
      "Ġdefaults": 3534,
      "Ġlocks": 3535,
      "Ġpasswords": 3536,
      "rypto": 3537,
      "Ġavailable": 3538,
      "ributed": 3539,
      "party": 3540,
      "EAD": 3541,
      "IC": 3542,
      "QU": 3543,
      "Tools": 3544,
      "UPDATE": 3545,
      "WUB": 3546,
      "ZE": 3547,
      "bin": 3548,
      "gs": 3549,
      "ling": 3550,
      "memory": 3551,
      "root": 3552,
      "âĶĶ": 3553,
      "account": 3554,
      "aclass": 3555,
      "orepo": 3556,
      "ĠLook": 3557,
      "cons": 3558,
      "ĠRequest": 3559,
      "client": 3560,
      "Ġactive": 3561,
      "ogle": 3562,
      "Ġmatters": 3563,
      "âĶģâĶģâĶģâĶģ": 3564,
      "herit": 3565,
      "\".": 3566,
      ")]": 3567,
      "/*": 3568,
      "Ref": 3569,
      "];": 3570,
      "aunch": 3571,
      "field": 3572,
      "ience": 3573,
      "Ðµ": 3574,
      "Ð¸": 3575,
      "oups": 3576,
      "arn": 3577,
      "Ġredis": 3578,
      "Ġthird": 3579,
      "ĠAuth": 3580,
      "emon": 3581,
      "Ġround": 3582,
      "ĠFinal": 3583,
      "Ġassum": 3584,
      "pending": 3585,
      "ensive": 3586,
      "Ġbackground": 3587,
      "Ġgrid": 3588,
      "tings": 3589,
      "ĠNew": 3590,
      "Ġcleanup": 3591,
      "Ġcorrectly": 3592,
      "Ġeasy": 3593,
      "Ġmistake": 3594,
      "Ġdevelopment": 3595,
      "ĠPromise": 3596,
      "currency": 3597,
      "Ġlangu": 3598,
      "200": 3599,
      "].": 3600,
      "ople": 3601,
      "patch": 3602,
      "inner": 3603,
      "orization": 3604,
      "leep": 3605,
      "Ġmaking": 3606,
      "Ġpip": 3607,
      "Ġbig": 3608,
      "Ġ({": 3609,
      "Ġcore": 3610,
      "illed": 3611,
      "Ġisol": 3612,
      "iffer": 3613,
      "igin": 3614,
      "ĠCOL": 3615,
      "abc": 3616,
      "pli": 3617,
      "ership": 3618,
      "okens": 3619,
      "ĠFr": 3620,
      "Ġshare": 3621,
      "##..": 3622,
      "Ġsolid": 3623,
      "Ġcompiler": 3624,
      "\"><": 3625,
      "Ġ>=": 3626,
      "position": 3627,
      "|------": 3628,
      "Ġorigin": 3629,
      "ĠGraphQL": 3630,
      "Server": 3631,
      "Ġbalance": 3632,
      "instance": 3633,
      "ember": 3634,
      "ĪâĸĪâĸ": 3635,
      "Head": 3636,
      "With": 3637,
      "Write": 3638,
      "mine": 3639,
      "sign": 3640,
      "Ð°": 3641,
      "erate": 3642,
      "inct": 3643,
      "info": 3644,
      "Ġtitle": 3645,
      "rehen": 3646,
      "Ġsur": 3647,
      "ense": 3648,
      "Ġfore": 3649,
      "ounc": 3650,
      "Ġrecur": 3651,
      "Ġlarg": 3652,
      "Ġstatic": 3653,
      "ĠSw": 3654,
      "older": 3655,
      "ĠDo": 3656,
      "Ġappears": 3657,
      "ayer": 3658,
      "ĠUnderstand": 3659,
      "ĠExtract": 3660,
      "Ġuseful": 3661,
      "ired": 3662,
      "Ġperiod": 3663,
      "Ġadding": 3664,
      "Ġinstance": 3665,
      "Ġspecifically": 3666,
      "Ġcomprehen": 3667,
      "Ġfailing": 3668,
      "ystems": 3669,
      "return": 3670,
      "postgres": 3671,
      "Ġlikely": 3672,
      "idden": 3673,
      "|-------": 3674,
      "ĠOrder": 3675,
      "ĠORDER": 3676,
      "Ġpairs": 3677,
      "Ġroutes": 3678,
      "column": 3679,
      "azy": 3680,
      "22": 3681,
      "85": 3682,
      "An": 3683,
      "Create": 3684,
      "drop": 3685,
      "ln": 3686,
      "parent": 3687,
      "then": 3688,
      "Ġ```": 3689,
      "ĳâĸ": 3690,
      "stream": 3691,
      "Ġsay": 3692,
      "Ġsrc": 3693,
      "enari": 3694,
      "Ġdrop": 3695,
      "arm": 3696,
      "asy": 3697,
      "iles": 3698,
      "ĊĠĠĠĠĠĠ": 3699,
      "Ġok": 3700,
      "ĠAnswer": 3701,
      "Ġexpect": 3702,
      "ĠFastAPI": 3703,
      "Ġresource": 3704,
      "ĠOpen": 3705,
      "Ġtrust": 3706,
      "Ġchoice": 3707,
      "grid": 3708,
      "Ġadds": 3709,
      "Ġfixes": 3710,
      "efore": 3711,
      "Ġfew": 3712,
      "Ġlimiting": 3713,
      "Ġeverywhere": 3714,
      "INSERT": 3715,
      "ALTER": 3716,
      "quired": 3717,
      "Ġmethods": 3718,
      "Ġconditions": 3719,
      "Ġallowed": 3720,
      "Ġâī¤": 3721,
      "include": 3722,
      "ĠDefine": 3723,
      "Ġnarrow": 3724,
      "Ar": 3725,
      "counter": 3726,
      "ext": 3727,
      "target": 3728,
      "};": 3729,
      "Ð½": 3730,
      "Ġtags": 3731,
      "Ġactions": 3732,
      "oring": 3733,
      "**,": 3734,
      "Ġpick": 3735,
      "Ġrepo": 3736,
      "using": 3737,
      "ndex": 3738,
      "Ġoptional": 3739,
      "ĠTIMESTAM": 3740,
      "istic": 3741,
      "ote": 3742,
      "cel": 3743,
      "Ġusername": 3744,
      "gex": 3745,
      "update": 3746,
      "ferred": 3747,
      "ĠHigh": 3748,
      "Ġjoin": 3749,
      "Ġunit": 3750,
      "Ġprevious": 3751,
      "Ġsimilar": 3752,
      "chemy": 3753,
      "Ġparameters": 3754,
      "Ġmanagement": 3755,
      "Ġproperties": 3756,
      "PTZ": 3757,
      "meta": 3758,
      "modules": 3759,
      "Ġglobal": 3760,
      "ĠDevTools": 3761,
      "Ġsilently": 3762,
      "!(\"": 3763,
      "45": 3764,
      "Def": 3765,
      "EG": 3766,
      "Run": 3767,
      "first": 3768,
      "ixt": 3769,
      "lines": 3770,
      "var": 3771,
      "Ġtax": 3772,
      "Ġage": 3773,
      "Ġscal": 3774,
      "enef": 3775,
      "Ġprod": 3776,
      "());": 3777,
      "avy": 3778,
      "Ġ1024": 3779,
      "ĠReview": 3780,
      "umbers": 3781,
      "lower": 3782,
      "ĠForm": 3783,
      "ĠTrans": 3784,
      "Ġoverhead": 3785,
      "header": 3786,
      "echan": 3787,
      "Ġidentify": 3788,
      "index": 3789,
      "Each": 3790,
      "GET": 3791,
      "None": 3792,
      "Ph": 3793,
      "Rate": 3794,
      "Web": 3795,
      "ah": 3796,
      "cident": 3797,
      "eks": 3798,
      "pec": 3799,
      "uit": 3800,
      "Ġcrypto": 3801,
      "Ġhooks": 3802,
      "Ġprop": 3803,
      "rip": 3804,
      "Ġapplic": 3805,
      "ĠâĨĵ": 3806,
      "Ġverification": 3807,
      "Ġunless": 3808,
      "Ġ404": 3809,
      "uggest": 3810,
      "Ġwrap": 3811,
      "Ġwants": 3812,
      "ĠXSS": 3813,
      "Ġteams": 3814,
      "transform": 3815,
      "ĠGenerate": 3816,
      "which": 3817,
      "Ġdebugging": 3818,
      "mptom": 3819,
      "ambda": 3820,
      "pliance": 3821,
      "ĠTIMESTAMPTZ": 3822,
      "$.": 3823,
      "Access": 3824,
      "UID": 3825,
      "gle": 3826,
      "zone": 3827,
      "Ġener": 3828,
      "Ġrecommend": 3829,
      "Ġrepresent": 3830,
      "edit": 3831,
      "Ġforce": 3832,
      "ĠThere": 3833,
      "ĠAtt": 3834,
      "Ġhealth": 3835,
      "emplate": 3836,
      "ĠĠĠĠĠĠĠĠĠĠĠĠ": 3837,
      "ĠMost": 3838,
      "tocol": 3839,
      "close": 3840,
      "pytest": 3841,
      "ĠStart": 3842,
      "Ġdecorator": 3843,
      "Ġcapt": 3844,
      "Trans": 3845,
      "Ġthreads": 3846,
      "tenant": 3847,
      "secret": 3848,
      "Ġprojects": 3849,
      "Ġconflicts": 3850,
      "Ġtyping": 3851,
      "Allow": 3852,
      "As": 3853,
      "Event": 3854,
      "Email": 3855,
      "Is": 3856,
      "Only": 3857,
      "VAL": 3858,
      "bit": 3859,
      "Â²": 3860,
      "Ġsafety": 3861,
      "ission": 3862,
      "ĠCount": 3863,
      "ĠCDN": 3864,
      "ometimes": 3865,
      "Ġyield": 3866,
      "ĠFirst": 3867,
      "ĠOn": 3868,
      "Ġleast": 3869,
      "ĠLe": 3870,
      "Ġcontin": 3871,
      "Ġtiming": 3872,
      "Ġservers": 3873,
      "Ġscore": 3874,
      "overy": 3875,
      "ĠKubernetes": 3876,
      "Ġdetect": 3877,
      "Ġremo": 3878,
      "ĠCSRF": 3879,
      "Ġ!=": 3880,
      "Ġlocally": 3881,
      "attempt": 3882,
      "wrap": 3883,
      "potency": 3884,
      ":{": 3885,
      "After": 3886,
      "Best": 3887,
      "CM": 3888,
      "COPY": 3889,
      "Find": 3890,
      "me": 3891,
      "push": 3892,
      "your": 3893,
      "atency": 3894,
      "Ġcross": 3895,
      "Ġsql": 3896,
      "Ġsystems": 3897,
      "itize": 3898,
      "Ġdashboard": 3899,
      "Ġmay": 3900,
      "alcul": 3901,
      "Ġrename": 3902,
      "Ġlive": 3903,
      "abilities": 3904,
      "Ġrace": 3905,
      "ĠRisk": 3906,
      "Ġdeep": 3907,
      "ression": 3908,
      "ntax": 3909,
      "Ġprocesses": 3910,
      "ĠExamples": 3911,
      "price": 3912,
      "Interval": 3913,
      "engine": 3914,
      "Ġbackup": 3915,
      "Ġparse": 3916,
      "Exception": 3917,
      "Ġpositions": 3918,
      "Ġentry": 3919,
      "Ġpaths": 3920,
      "Connection": 3921,
      "Ġknows": 3922,
      "Ġbreaking": 3923,
      "Ġsignature": 3924,
      "Ġexceptions": 3925,
      "Ġtasks": 3926,
      "âķĲâķĲâķĲâķĲâķĲâķĲâķĲâķĲâķĲâķĲâķĲâķĲâķĲâķĲâķĲâķĲ": 3927,
      "ipping": 3928,
      "UMN": 3929,
      "ĠCOLUMN": 3930,
      "Ġenergy": 3931,
      "CD": 3932,
      "Deb": 3933,
      "Rec": 3934,
      "Sl": 3935,
      "][": 3936,
      "fin": 3937,
      "how": 3938,
      "ned": 3939,
      "ouse": 3940,
      "Ġwon": 3941,
      "Ġwhether": 3942,
      "ental": 3943,
      "Ġnginx": 3944,
      "username": 3945,
      "Ġ`?": 3946,
      "ĠSpace": 3947,
      "agic": 3948,
      "Ġasks": 3949,
      "ĠuserId": 3950,
      "astructure": 3951,
      "come": 3952,
      "Ġcodebase": 3953,
      "Ġplain": 3954,
      "Ġimportant": 3955,
      "Ġmodern": 3956,
      "Ġupdated": 3957,
      "Ġcached": 3958,
      "frastructure": 3959,
      "Ġtells": 3960,
      "Ġtransactions": 3961,
      "Ġindependently": 3962,
      "Ð¾Ð": 3963,
      "Ġdefinition": 3964,
      ">{": 3965,
      "Bo": 3966,
      "En": 3967,
      "Two": 3968,
      "fill": 3969,
      "gap": 3970,
      "pth": 3971,
      "ÑĤ": 3972,
      "Ġdp": 3973,
      "Ġrele": 3974,
      "entify": 3975,
      "Ġstud": 3976,
      "ecut": 3977,
      "ĠĠĠĠĠĠĠĠĠĠĠĠĠĠĠ": 3978,
      "Ġloops": 3979,
      "Ġstrategy": 3980,
      "Ġimpro": 3981,
      "Ġarri": 3982,
      "Ġenum": 3983,
      "\"></": 3984,
      "issions": 3985,
      "Config": 3986,
      "React": 3987,
      "ĠUsing": 3988,
      "ĠAlgorithm": 3989,
      "Ġcommands": 3990,
      "Ġremove": 3991,
      "Timeout": 3992,
      "ĠWithout": 3993,
      "Ġrevok": 3994,
      "Ġants": 3995,
      "Ġinformation": 3996,
      "5432": 3997,
      "ĠGitHub": 3998,
      "ifferent": 3999,
      "ĳâĸĳâĸ": 4000,
      "++": 4001,
      ".\"\"\"": 4002,
      "55": 4003,
      "Look": 4004,
      "Pre": 4005,
      "VE": 4006,
      "aust": 4007,
      "coded": 4008,
      "haust": 4009,
      "pg": 4010,
      "txt": 4011,
      "table": 4012,
      "wt": 4013,
      "writ": 4014,
      "ana": 4015,
      "ante": 4016,
      "outer": 4017,
      "arante": 4018,
      "asing": 4019,
      "Ġwins": 4020,
      "entry": 4021,
      "Ġinv": 4022,
      "Ġinsert": 4023,
      "ĠâĢ¢": 4024,
      "ĠPar": 4025,
      "ĠOOM": 4026,
      "ival": 4027,
      "omething": 4028,
      "Ġdocs": 4029,
      "Ġrelations": 4030,
      "Ġnamed": 4031,
      "Ġguess": 4032,
      "Ġdictionary": 4033,
      "Ġwrites": 4034,
      "roller": 4035,
      "Ġcarefully": 4036,
      "\"`": 4037,
      "UT": 4038,
      "bot": 4039,
      "gan": 4040,
      "hover": 4041,
      "nginx": 4042,
      "heit": 4043,
      "Ġdri": 4044,
      "Ġmiss": 4045,
      "ents": 4046,
      "Ġoption": 4047,
      "Ġstd": 4048,
      "Ġprompt": 4049,
      "plan": 4050,
      "Ġvars": 4051,
      "antic": 4052,
      "ĠOnly": 4053,
      "Ġbool": 4054,
      "ĠUN": 4055,
      "ĠThese": 4056,
      "Ġkeeps": 4057,
      "Ġcreating": 4058,
      "|-----------": 4059,
      "Ġgroups": 4060,
      "flight": 4061,
      "Ġrelated": 4062,
      "renheit": 4063,
      "Ġoccur": 4064,
      "Ġbottleneck": 4065,
      "âĨĴ": 4066,
      "ahrenheit": 4067,
      ")):": 4068,
      "42": 4069,
      "DI": 4070,
      "ba": 4071,
      "dom": 4072,
      "li": 4073,
      "pact": 4074,
      "sw": 4075,
      "ĿĮ": 4076,
      "heap": 4077,
      "Ġspe": 4078,
      "ouch": 4079,
      "Ġbash": 4080,
      "ula": 4081,
      "Ġgrow": 4082,
      "Ġitself": 4083,
      "Ġshape": 4084,
      "izer": 4085,
      "Ġbeen": 4086,
      "connection": 4087,
      "Ġ204": 4088,
      "udo": 4089,
      "Ġemails": 4090,
      "Invalid": 4091,
      "Ġstarting": 4092,
      "Ġgenerator": 4093,
      "Ġexpir": 4094,
      "Ġexpires": 4095,
      "files": 4096,
      "Ġraw": 4097,
      "Ġblocking": 4098,
      "Ġbreaks": 4099,
      "ĠClient": 4100,
      "Ġzero": 4101,
      "Ġboundaries": 4102,
      "Ġlayout": 4103,
      "Ġâī¥": 4104,
      "\"{": 4105,
      ".*": 4106,
      "But": 4107,
      "DD": 4108,
      "Node": 4109,
      "bed": 4110,
      "cert": 4111,
      "ggle": 4112,
      "has": 4113,
      "high": 4114,
      "model": 4115,
      "mark": 4116,
      "oh": 4117,
      "page": 4118,
      "public": 4119,
      "pointer": 4120,
      "tom": 4121,
      "Ġpy": 4122,
      "Ġhook": 4123,
      "Ġrepe": 4124,
      "Ġlabel": 4125,
      "Ġâķ": 4126,
      "Ġdoing": 4127,
      "iginal": 4128,
      "Ġconcurrency": 4129,
      "ĠAc": 4130,
      "omes": 4131,
      "Ġprogress": 4132,
      "Ġdead": 4133,
      "Ġexper": 4134,
      "ĠDNS": 4135,
      "ultane": 4136,
      "group": 4137,
      "Ġlisten": 4138,
      "ĠJOIN": 4139,
      "Ġstored": 4140,
      "Ġdecl": 4141,
      "ĠDeploy": 4142,
      "ĠHTTPS": 4143,
      "Ġdistance": 4144,
      "edia": 4145,
      "ierarch": 4146,
      "Ġmatching": 4147,
      "Ġreasoning": 4148,
      "ĠSecrets": 4149,
      "ello": 4150,
      "ĠArgs": 4151,
      "ĠPrint": 4152,
      "auto": 4153,
      "Should": 4154,
      "Ġpractical": 4155,
      "chitecture": 4156,
      "csv": 4157,
      "Ġextra": 4158,
      "EW": 4159,
      "Sub": 4160,
      "To": 4161,
      "Token": 4162,
      "aa": 4163,
      "cat": 4164,
      "cceed": 4165,
      "sol": 4166,
      "uilt": 4167,
      "what": 4168,
      "ynam": 4169,
      "}'": 4170,
      "âľ": 4171,
      "Ġes": 4172,
      "Ġsometimes": 4173,
      "**`": 4174,
      "Ġpur": 4175,
      "Ġpagination": 4176,
      "Ġreverse": 4177,
      "Ġ('": 4178,
      "Ġliter": 4179,
      "ĠâĿĮ": 4180,
      "ift": 4181,
      "urst": 4182,
      "ĠCase": 4183,
      "ĠSu": 4184,
      "istent": 4185,
      "Ġyet": 4186,
      "ĠĠĠĠĠĠĠĠĠĠĠĠĠĠ": 4187,
      "ĠRem": 4188,
      "Ġvolum": 4189,
      "ĠDis": 4190,
      "ĠFunction": 4191,
      "Ġserve": 4192,
      "complete": 4193,
      "SET": 4194,
      "Ġreadable": 4195,
      "Ġenable": 4196,
      "Ġsimultane": 4197,
      "Ġinterval": 4198,
      "strings": 4199,
      "Ġsomeone": 4200,
      "Ġrefactor": 4201,
      "Request": 4202,
      "Ġdistinct": 4203,
      "Ġhttps": 4204,
      "Ġdetails": 4205,
      "PTIONS": 4206,
      "ĠINTEG": 4207,
      "ĠâĶĶâĶĢâĶĢ": 4208,
      "Ġcalculate": 4209,
      "Ġmonitoring": 4210,
      ")$": 4211,
      ".)": 4212,
      "1000": 4213,
      "75": 4214,
      "90": 4215,
      "?;": 4216,
      "CK": 4217,
      "Case": 4218,
      "Log": 4219,
      "MA": 4220,
      "ORE": 4221,
      "aid": 4222,
      "fit": 4223,
      "numbers": 4224,
      "session": 4225,
      "ĠÎ": 4226,
      "inter": 4227,
      "onds": 4228,
      "store": 4229,
      "strict": 4230,
      "Ġsave": 4231,
      "Ġreach": 4232,
      "roject": 4233,
      "imin": 4234,
      "Ġstop": 4235,
      "ĠCle": 4236,
      "achine": 4237,
      "Ġshell": 4238,
      "oding": 4239,
      "ĠMy": 4240,
      "ĠMin": 4241,
      "Ġbucket": 4242,
      "apping": 4243,
      "yproject": 4244,
      "illing": 4245,
      "Ġfilename": 4246,
      "Ġeng": 4247,
      "ocial": 4248,
      "Ġscale": 4249,
      "space": 4250,
      "Ġmodify": 4251,
      "Ġdistributed": 4252,
      "Ġgoes": 4253,
      "Ġprogramming": 4254,
      "ĠORM": 4255,
      "Ġargument": 4256,
      "Ġbalanc": 4257,
      "Ġindependent": 4258,
      "HTML": 4259,
      "success": 4260,
      "Ġrotation": 4261,
      "Quick": 4262,
      "Ġtechn": 4263,
      "Ġtermin": 4264,
      "cheduler": 4265,
      "planation": 4266,
      "Dec": 4267,
      "Map": 4268,
      "SI": 4269,
      "block": 4270,
      "non": 4271,
      "ral": 4272,
      "tokens": 4273,
      "uid": 4274,
      "uff": 4275,
      "Ġsys": 4276,
      "Ġsure": 4277,
      "Ġmut": 4278,
      "Ġbatch": 4279,
      "role": 4280,
      "Ġoptions": 4281,
      "Ġthose": 4282,
      "Ġ`{": 4283,
      "ĠId": 4284,
      "Ġcomple": 4285,
      "Ġtraining": 4286,
      "ĠMultiple": 4287,
      "ĠWrite": 4288,
      "ĠuseUser": 4289,
      "Ġimages": 4290,
      "perf": 4291,
      "Ġ/*": 4292,
      "Ġtimestamp": 4293,
      "ĊĠĠĠĠĠĠĠĠĠĠĠĠĠ": 4294,
      "Ġhandlers": 4295,
      "ighb": 4296,
      "environ": 4297,
      "Ġparams": 4298,
      "ĠIDs": 4299,
      "Ġbranches": 4300,
      "Ġsymptom": 4301,
      "Ġsyntax": 4302,
      "ĠLoop": 4303,
      "cached": 4304,
      "ĠStrategy": 4305,
      "ĠZustand": 4306,
      "Ġfrequency": 4307,
      "ĠSummary": 4308,
      "Fr": 4309,
      "Hand": 4310,
      "Hello": 4311,
      "Mod": 4312,
      "Math": 4313,
      "VER": 4314,
      "gative": 4315,
      "pose": 4316,
      "tical": 4317,
      "Ġaffect": 4318,
      "retry": 4319,
      "Ġdig": 4320,
      "Ġdone": 4321,
      "Ġmix": 4322,
      "Ġmill": 4323,
      "Ġpresent": 4324,
      "Ġpreser": 4325,
      "Ġinline": 4326,
      "Ġinsight": 4327,
      "icro": 4328,
      "depend": 4329,
      "ĠSort": 4330,
      "unct": 4331,
      "sequ": 4332,
      "ĠPh": 4333,
      "Ġresol": 4334,
      "activity": 4335,
      "ĠEvent": 4336,
      "ĠMemory": 4337,
      "Ġnotification": 4338,
      "Ġclar": 4339,
      "never": 4340,
      "Ġquick": 4341,
      "Ġbutton": 4342,
      "struct": 4343,
      "open": 4344,
      "Ġgraph": 4345,
      "Ġstartup": 4346,
      "Ġdisk": 4347,
      "2024": 4348,
      "Ġmigrate": 4349,
      "loads": 4350,
      "ĠService": 4351,
      "transition": 4352,
      "ĠSearch": 4353,
      "ĠINTO": 4354,
      "ributes": 4355,
      "running": 4356,
      "Ġbroken": 4357,
      "Ġsynchron": 4358,
      "ĠUnderstanding": 4359,
      "postgresql": 4360,
      "attempts": 4361,
      "ohn": 4362,
      "toml": 4363,
      "ĠINTEGER": 4364,
      "17": 4365,
      "Method": 4366,
      "On": 4367,
      "PA": 4368,
      "\\|": 4369,
      "cap": 4370,
      "dge": 4371,
      "ðŁ": 4372,
      "oriz": 4373,
      "Ġms": 4374,
      "Ġput": 4375,
      "ashes": 4376,
      "Ġinfrastructure": 4377,
      "Ġcoord": 4378,
      "ĠIS": 4379,
      "ĠCalcul": 4380,
      "ĠAss": 4381,
      "olith": 4382,
      "olog": 4383,
      "Ġrather": 4384,
      "Ġ{}": 4385,
      "Ġneighb": 4386,
      "ĠDep": 4387,
      "Ġlooks": 4388,
      "ĠFI": 4389,
      "Ġcla": 4390,
      "Ġclick": 4391,
      "Ġclose": 4392,
      "Ġalert": 4393,
      "ĠGET": 4394,
      "Ġstores": 4395,
      "Ġtransition": 4396,
      "Ġgrad": 4397,
      "Ġmyapp": 4398,
      "Ġownership": 4399,
      "Ġquestions": 4400,
      "\"},": 4401,
      "Ġauthentication": 4402,
      "ormalize": 4403,
      "Redis": 4404,
      "Ġartic": 4405,
      "container": 4406,
      "Ġsimultaneously": 4407,
      "'.": 4408,
      "'),": 4409,
      "44": 4410,
      "First": 4411,
      "ME": 4412,
      "Sign": 4413,
      "TH": 4414,
      "bject": 4415,
      "cent": 4416,
      "database": 4417,
      "direction": 4418,
      "oly": 4419,
      "uous": 4420,
      "ĊĊĠĠĠĠĠĠĠ": 4421,
      "Ġtre": 4422,
      "ites": 4423,
      "Ġmechan": 4424,
      "usion": 4425,
      "osite": 4426,
      "imate": 4427,
      "etc": 4428,
      "eting": 4429,
      "ĠAN": 4430,
      "ĠADD": 4431,
      "section": 4432,
      "agr": 4433,
      "ĠPart": 4434,
      "Ġ'{": 4435,
      "ĠBe": 4436,
      "ĠUI": 4437,
      "Your": 4438,
      "Ġtrunc": 4439,
      "Ġchars": 4440,
      "ĠHe": 4441,
      "ĠGu": 4442,
      "Ġallows": 4443,
      "ĠVAL": 4444,
      "Ġminimal": 4445,
      "ATION": 4446,
      "ĠĠĠĠĠĠĠĠĠĠĠĠĠĠĠĠĠĠĠ": 4447,
      "Ġfixed": 4448,
      "elcome": 4449,
      "Ġclassic": 4450,
      "Ġcallers": 4451,
      "Ġscope": 4452,
      "Ġscenari": 4453,
      "object": 4454,
      "Ġconfiguration": 4455,
      "Ġoperator": 4456,
      "msg": 4457,
      "Ġdocumentation": 4458,
      "secrets": 4459,
      "Ġasking": 4460,
      "nums": 4461,
      "includ": 4462,
      "Ġattempts": 4463,
      "todos": 4464,
      "solute": 4465,
      "/`": 4466,
      "?)": 4467,
      "Build": 4468,
      "Options": 4469,
      "PE": 4470,
      "POST": 4471,
      "Str": 4472,
      "rf": 4473,
      "tim": 4474,
      "yn": 4475,
      "Ġignore": 4476,
      "Ġpast": 4477,
      "ished": 4478,
      "uring": 4479,
      "del": 4480,
      "ĠCache": 4481,
      "Ġ300": 4482,
      "ĠAfter": 4483,
      "Ġonclick": 4484,
      "Ġmanage": 4485,
      "Ġmanual": 4486,
      "Ġexecute": 4487,
      "Ġexhaust": 4488,
      "Ġleaf": 4489,
      "ĠMissing": 4490,
      "Ġassign": 4491,
      "conf": 4492,
      "Ġjo": 4493,
      "fff": 4494,
      "oped": 4495,
      "Ġweight": 4496,
      "Ġweek": 4497,
      "Ġplatform": 4498,
      "Ġprefix": 4499,
      "Ġfeed": 4500,
      "Ġcalling": 4501,
      "ĠProduct": 4502,
      "Ġbuilds": 4503,
      "aracter": 4504,
      "Ġbecomes": 4505,
      "Ġsimplest": 4506,
      "Ġ429": 4507,
      "results": 4508,
      "Ġattacks": 4509,
      "Ġclearly": 4510,
      "Ġrollback": 4511,
      "Item": 4512,
      "ĠQuery": 4513,
      "ĠBoth": 4514,
      "PLAIN": 4515,
      "package": 4516,
      "elsius": 4517,
      "Ġwrapper": 4518,
      "Ġprinciple": 4519,
      "QUE": 4520,
      "Ġisolation": 4521,
      "(&": 4522,
      "14": 4523,
      "Dis": 4524,
      "IQUE": 4525,
      "KEY": 4526,
      "PS": 4527,
      "don": 4528,
      "document": 4529,
      "fe": 4530,
      "mp": 4531,
      "mer": 4532,
      "yd": 4533,
      "Ġmount": 4534,
      "Ġfund": 4535,
      "Ġest": 4536,
      "Ġnative": 4537,
      "ower": 4538,
      "ifies": 4539,
      "Ġdock": 4540,
      "Ġforget": 4541,
      "omm": 4542,
      "omic": 4543,
      "ague": 4544,
      "umul": 4545,
      "ended": 4546,
      "odes": 4547,
      "ĠFeature": 4548,
      "Ġseen": 4549,
      "ĠMon": 4550,
      "ĠMod": 4551,
      "ively": 4552,
      "=\"*.": 4553,
      "Ġworkflow": 4554,
      "perature": 4555,
      "perty": 4556,
      "ĠVec": 4557,
      "Ġidem": 4558,
      "ATH": 4559,
      "INT": 4560,
      "Ġgenerates": 4561,
      "ibrary": 4562,
      "Ġdecisions": 4563,
      "Ġtrying": 4564,
      "possible": 4565,
      "Ġsmaller": 4566,
      "ĠRedux": 4567,
      "Ġpooling": 4568,
      "Ġbehind": 4569,
      "Ġoptimization": 4570,
      "Ġparsed": 4571,
      "Ġargon": 4572,
      "Ġconstraint": 4573,
      "Ġmistakes": 4574,
      "Ġexecution": 4575,
      "Ġincluding": 4576,
      "latest": 4577,
      "Ġdeleted": 4578,
      "Ġmeasure": 4579,
      "Ġpropag": 4580,
      "Ġdocker": 4581,
      "'`": 4582,
      "(|": 4583,
      "Rules": 4584,
      "UES": 4585,
      "fs": 4586,
      "gree": 4587,
      "hog": 4588,
      "ian": 4589,
      "react": 4590,
      "Ġcent": 4591,
      "Ġsays": 4592,
      "Ġsuggest": 4593,
      "Ġmo": 4594,
      "alph": 4595,
      "Ġprivate": 4596,
      "Ġpayload": 4597,
      "Ġnested": 4598,
      "ĠSHA": 4599,
      "Ġconcept": 4600,
      "umps": 4601,
      "Ġprom": 4602,
      "Ġprobe": 4603,
      "chang": 4604,
      "Ġrank": 4605,
      "Ġarea": 4606,
      "ersion": 4607,
      "Ġvar": 4608,
      "ĠFile": 4609,
      "ĠOver": 4610,
      "ĠBr": 4611,
      "ĠBetter": 4612,
      "ĠThen": 4613,
      "Ġalign": 4614,
      "Ġprice": 4615,
      "Ġknown": 4616,
      "chestr": 4617,
      "Ġvery": 4618,
      "Ġcolor": 4619,
      "Ġdifferences": 4620,
      "ĠFormat": 4621,
      "ĠProcess": 4622,
      "Ġexpress": 4623,
      "lector": 4624,
      "bytes": 4625,
      "allest": 4626,
      "processing": 4627,
      "Search": 4628,
      "handle": 4629,
      "Three": 4630,
      "Ġconfirm": 4631,
      "Ġpeak": 4632,
      "Ġtrigger": 4633,
      "%;": 4634,
      "'):": 4635,
      "08": 4636,
      "19": 4637,
      "FA": 4638,
      "From": 4639,
      "LS": 4640,
      "Per": 4641,
      "YZE": 4642,
      "dyn": 4643,
      "net": 4644,
      "rs": 4645,
      "ray": 4646,
      "Ġur": 4647,
      "Ġsensitive": 4648,
      "Ġmachine": 4649,
      "Ġburst": 4650,
      "Ġtodo": 4651,
      "ames": 4652,
      "pper": 4653,
      "ĠCre": 4654,
      "ĠSub": 4655,
      "ĠSession": 4656,
      "unk": 4657,
      "ysical": 4658,
      "ĠOK": 4659,
      "Ġlearning": 4660,
      "aily": 4661,
      "irc": 4662,
      "Ġshipping": 4663,
      "ĠMore": 4664,
      "ĠMath": 4665,
      "Ġspaces": 4666,
      "Ġ<=": 4667,
      "useEffect": 4668,
      "ĠConvert": 4669,
      "ALYZE": 4670,
      "Ġgrace": 4671,
      "greg": 4672,
      "Ġgeneral": 4673,
      "Ġasyncio": 4674,
      "Ġexpensive": 4675,
      "Ġinterface": 4676,
      "overflow": 4677,
      "STR": 4678,
      "Also": 4679,
      "frac": 4680,
      "|----------|": 4681,
      "Ġeffects": 4682,
      "Ġpermissions": 4683,
      "Ġfollowing": 4684,
      "Ġcapture": 4685,
      "ĠUNIQUE": 4686,
      "ynamic": 4687,
      "CP": 4688,
      "One": 4689,
      "cending": 4690,
      "ever": 4691,
      "fast": 4692,
      "gen": 4693,
      "hooks": 4694,
      "ik": 4695,
      "mpty": 4696,
      "member": 4697,
      "pod": 4698,
      "rong": 4699,
      "sm": 4700,
      "tml": 4701,
      "Ġ);": 4702,
      "replace": 4703,
      "renders": 4704,
      "Ġcar": 4705,
      "Ġfibonacci": 4706,
      "Ġpayment": 4707,
      "Ġcoll": 4708,
      "ifier": 4709,
      "Ġ`'": 4710,
      "chie": 4711,
      "ĠĠĠĠĠĠĠĠĠĠĠ": 4712,
      "ained": 4713,
      "ĠEvery": 4714,
      "ĠLIMIT": 4715,
      "duplic": 4716,
      "ontab": 4717,
      "atabases": 4718,
      "Ġaround": 4719,
      "Ġvalidated": 4720,
      "cury": 4721,
      "Form": 4722,
      "logger": 4723,
      "argo": 4724,
      "Ġlockfile": 4725,
      "stringify": 4726,
      "Ġpartial": 4727,
      "Ġguarante": 4728,
      "Ġadmin": 4729,
      "Ġimmutable": 4730,
      "Ġnums": 4731,
      "Ġtemplate": 4732,
      "ĠCSV": 4733,
      "Ġauthenticated": 4734,
      "Ġwaiting": 4735,
      "tasks": 4736,
      "Ġincrement": 4737,
      "marks": 4738,
      "Ġconsistency": 4739,
      "ribution": 4740,
      "ĠBIGINT": 4741,
      "Ġforever": 4742,
      "domain": 4743,
      ",.": 4744,
      "/{": 4745,
      "79": 4746,
      "DF": 4747,
      "Found": 4748,
      "False": 4749,
      "UD": 4750,
      "apt": 4751,
      "dist": 4752,
      "func": 4753,
      "kw": 4754,
      "mock": 4755,
      "vh": 4756,
      "erts": 4757,
      "Ġtw": 4758,
      "Ġci": 4759,
      "Ġsources": 4760,
      "ital": 4761,
      "Ġfn": 4762,
      "Ġpull": 4763,
      "Ġbi": 4764,
      "Ġreprodu": 4765,
      "Ġregex": 4766,
      "Ġinherit": 4767,
      "Ġlatency": 4768,
      "Ġâĸ": 4769,
      "Ġconver": 4770,
      "Ġ\"__": 4771,
      "ĠActions": 4772,
      "Ġaren": 4773,
      "Ġorchestr": 4774,
      "Ġcompliance": 4775,
      "antly": 4776,
      "ĠMB": 4777,
      "ĠMet": 4778,
      "ĠMigration": 4779,
      "gether": 4780,
      "ERIAL": 4781,
      "expected": 4782,
      "Ġdefined": 4783,
      "Ġprec": 4784,
      "Ġ123": 4785,
      "ĠComponent": 4786,
      "Ġexpand": 4787,
      "validate": 4788,
      "ookie": 4789,
      "ategies": 4790,
      "Ġmonolith": 4791,
      "scale": 4792,
      "Ġduration": 4793,
      "Ġexception": 4794,
      "Ġstructured": 4795,
      "versal": 4796,
      "Ġmetadata": 4797,
      "Ġoptimize": 4798,
      "array": 4799,
      "Security": 4800,
      "Ġpeople": 4801,
      "ĠStructure": 4802,
      "ĠWorks": 4803,
      "Ġsnapshots": 4804,
      "Debug": 4805,
      "Looking": 4806,
      "Ġengine": 4807,
      "?:": 4808,
      "Be": 4809,
      "Hash": 4810,
      "aits": 4811,
      "aws": 4812,
      "link": 4813,
      "mount": 4814,
      "oose": 4815,
      "ric": 4816,
      "system": 4817,
      "xx": 4818,
      "atible": 4819,
      "Ġsince": 4820,
      "alk": 4821,
      "Ġpop": 4822,
      "Ġprior": 4823,
      "Ġhav": 4824,
      "Ġhtml": 4825,
      "amount": 4826,
      "ĠApi": 4827,
      "riend": 4828,
      "ĠRate": 4829,
      "acket": 4830,
      "ĠDELETE": 4831,
      "actory": 4832,
      "ĠOptional": 4833,
      "ĠBEF": 4834,
      "ĠâĨĳ": 4835,
      "Ġ}),": 4836,
      "ĠuseEffect": 4837,
      "Ġhelper": 4838,
      "ference": 4839,
      "ĠGet": 4840,
      "except": 4841,
      "Ġkill": 4842,
      "ĠPythonic": 4843,
      "Ġclasses": 4844,
      "Ġcompile": 4845,
      "ĠContext": 4846,
      "Ġsucceed": 4847,
      "Ġ621": 4848,
      "Ġparts": 4849,
      "echo": 4850,
      "Ġiteration": 4851,
      "veloper": 4852,
      "Ġparser": 4853,
      "Ġdivis": 4854,
      "Valid": 4855,
      "Ġdescribe": 4856,
      "Ġsegment": 4857,
      "Ġregister": 4858,
      "PostgreSQL": 4859,
      "Ġreplica": 4860,
      "Ġcategory": 4861,
      "Default": 4862,
      "Phase": 4863,
      "ĠBEFORE": 4864,
      "\").": 4865,
      ")/": 4866,
      "/:": 4867,
      "13": 4868,
      "File": 4869,
      "Go": 4870,
      "LY": 4871,
      "Other": 4872,
      "dit": 4873,
      "ffer": 4874,
      "hips": 4875,
      "lived": 4876,
      "palindrome": 4877,
      "rides": 4878,
      "tics": 4879,
      "uge": 4880,
      "hemat": 4881,
      "enge": 4882,
      "Ġdest": 4883,
      "Ġdang": 4884,
      "Ġdatabases": 4885,
      "Ġmention": 4886,
      "Ġfig": 4887,
      "Ġfocus": 4888,
      "Ġborder": 4889,
      "Ġbenef": 4890,
      "Ġwent": 4891,
      "Ġtogether": 4892,
      "Ġlazy": 4893,
      "iding": 4894,
      "Ġstates": 4895,
      "verage": 4896,
      "ĠSingle": 4897,
      "Ġ\".": 4898,
      "qual": 4899,
      "âĶĢâĶĢâĶĢâĶĢâĶĢâĶĢâĶ": 4900,
      "Ġmanually": 4901,
      "Ġ'.": 4902,
      "allenge": 4903,
      "Ġresolve": 4904,
      "ĠBack": 4905,
      "Ġsever": 4906,
      "ĠModel": 4907,
      "ĠHere": 4908,
      "Ġbytes": 4909,
      "__\":": 4910,
      "jected": 4911,
      "Ġcollect": 4912,
      "Ġweeks": 4913,
      "ĠInternal": 4914,
      "Ġcompare": 4915,
      "timeout": 4916,
      "Ġattributes": 4917,
      "Ġmodules": 4918,
      "Ġelif": 4919,
      "Ġequival": 4920,
      "Ġedges": 4921,
      "ĠApplication": 4922,
      "CRET": 4923,
      "asoning": 4924,
      "Ġregard": 4925,
      "Ġregular": 4926,
      "Ġrendering": 4927,
      "Ġmonth": 4928,
      "Ġflags": 4929,
      "raft": 4930,
      "ĠUsers": 4931,
      "ĠSecurity": 4932,
      "handled": 4933,
      "âĶĢâĶĢâĶĢâĶĢâĶĢâĶĢâĶĢâĶĢâĶĢâĶĢâĶĢâĶĢâĶĢâĶĢâĶĢâĶĢâĶĢâĶĢâĶĢâĶĢâĶĢâĶĢâĶĢâĶĢâĶĢâĶĢâĶĢâĶĢâĶĢâĶĢâĶĢâĶĢâĶĢâĶĢâĶĢâĶĢâĶĢâĶĢâĶĢâĶĢâĶĢâĶĢâĶĢâĶĢâĶĢâĶĢâĶĢâĶĢ": 4934,
      "Ġconnected": 4935,
      "Ġtracking": 4936,
      "ĠHandle": 4937,
      "Ġsegments": 4938,
      "Ġlanguage": 4939,
      "ĠFIX": 4940,
      "kwargs": 4941,
      "hematical": 4942,
      "700": 4943,
      ">(": 4944,
      "DELETE": 4945,
      "FF": 4946,
      "Pl": 4947,
      "WOR": 4948,
      "aw": 4949,
      "br": 4950,
      "custom": 4951,
      "tag": 4952,
      "}{": 4953,
      "stripe": 4954,
      "Ġdrag": 4955,
      "ctron": 4956,
      "Ġ($": 4957,
      "osed": 4958,
      "utions": 4959,
      "Ġ`@": 4960,
      "ĠSm": 4961,
      "ĠAd": 4962,
      "ecess": 4963,
      "ĠMark": 4964,
      "errors": 4965,
      "Ġalone": 4966,
      "true": 4967,
      "ension": 4968,
      "Ġarchitecture": 4969,
      "...\"": 4970,
      "Ġsimul": 4971,
      "\">${": 4972,
      "Ġtransitions": 4973,
      "param": 4974,
      "Ġelectron": 4975,
      "ĠAny": 4976,
      "Ġrecent": 4977,
      "ĠNext": 4978,
      "Ġfastapi": 4979,
      "olling": 4980,
      "ĠHTTPException": 4981,
      "Ġotherwise": 4982,
      "classList": 4983,
      "Ġthreading": 4984,
      "Ġsignific": 4985,
      "ĠAlways": 4986,
      "author": 4987,
      "OUNT": 4988,
      "Ġrollout": 4989,
      "ĠScan": 4990,
      "Order": 4991,
      "HTTP": 4992,
      "Ġincludes": 4993,
      "ĠAuthentic": 4994,
      "Ġutils": 4995,
      "Ġquantity": 4996,
      "finite": 4997,
      "Ġimprove": 4998,
      "ĠRemove": 4999,
      "includes": 5000,
      "Ġtwice": 5001,
      "Ġregardless": 5002,
      "33": 5003,
      "Good": 5004,
      "Make": 5005,
      "dashboard": 5006,
      "ele": 5007,
      "jang": 5008,
      "long": 5009,
      "oDB": 5010,
      "pret": 5011,
      "site": 5012,
      "you": 5013,
      "yml": 5014,
      "}:": 5015,
      "Ġtouch": 5016,
      "ontal": 5017,
      "heavy": 5018,
      "Ġmiles": 5019,
      "Ġfallback": 5020,
      "alance": 5021,
      "Ġbasic": 5022,
      "âĶĮ": 5023,
      "Ġlint": 5024,
      "Ġliveness": 5025,
      "idence": 5026,
      "Ġstock": 5027,
      "ĠPassword": 5028,
      "ĠRE": 5029,
      "Ġexceed": 5030,
      "ĠDocument": 5031,
      "ĠNumber": 5032,
      "ĠOper": 5033,
      "Ġlets": 5034,
      "Ġchar": 5035,
      "ĠHEAD": 5036,
      "express": 5037,
      "Ġshouldn": 5038,
      "prod": 5039,
      "ĠConnection": 5040,
      "Ġchanging": 5041,
      "Ġowner": 5042,
      "Ġsending": 5043,
      "reshold": 5044,
      "Ġlonger": 5045,
      "Ġiterate": 5046,
      "Ġautomatic": 5047,
      "AME": 5048,
      "Ġleaks": 5049,
      "Ġremaining": 5050,
      "âĢī": 5051,
      "ĠPerformance": 5052,
      "Ġdatas": 5053,
      "Ġmeaning": 5054,
      "chitectural": 5055,
      "ĠValidate": 5056,
      "Ġpersist": 5057,
      "ĠGoogle": 5058,
      "Ġplaceh": 5059,
      "Ġtriggers": 5060,
      "Ġintegration": 5061,
      "Ġdrove": 5062,
      "Ġensures": 5063,
      "Ġcells": 5064,
      "!(\"{": 5065,
      "CMD": 5066,
      "Slice": 5067,
      "âľĵ": 5068,
      "orizontal": 5069,
      "ircuit": 5070,
      "jango": 5071,
      ")\"": 5072,
      ").<|": 5073,
      "Aut": 5074,
      "Back": 5075,
      "Code": 5076,
      "Docker": 5077,
      "JOIN": 5078,
      "Option": 5079,
      "Par": 5080,
      "Site": 5081,
      "Total": 5082,
      "big": 5083,
      "cop": 5084,
      "dot": 5085,
      "typ": 5086,
      "tmp": 5087,
      "Ġachie": 5088,
      "redis": 5089,
      "Ġsan": 5090,
      "Ġsuch": 5091,
      "Ġsides": 5092,
      "Ġsleep": 5093,
      "Ġfont": 5094,
      "alled": 5095,
      "Ġpadding": 5096,
      "Ġincomplete": 5097,
      "ownt": 5098,
      "Ġ`\"": 5099,
      "esting": 5100,
      "ĠTS": 5101,
      "unic": 5102,
      "Ġdevice": 5103,
      "ĠDATABASE": 5104,
      "keys": 5105,
      "ĠNetwork": 5106,
      "Ġlegit": 5107,
      "Ġanalysis": 5108,
      "uper": 5109,
      "encode": 5110,
      "context": 5111,
      "ĠHas": 5112,
      "duction": 5113,
      "Ġ./": 5114,
      "Ġreadiness": 5115,
      "remove": 5116,
      "Stack": 5117,
      "ĠInter": 5118,
      "Ġoutside": 5119,
      "logging": 5120,
      "book": 5121,
      "tests": 5122,
      "Ġexpression": 5123,
      "Ġprovides": 5124,
      "Ġaggreg": 5125,
      "Ġmaintain": 5126,
      "Ġpasses": 5127,
      "Ġ:=": 5128,
      "Ġgoing": 5129,
      "requency": 5130,
      "Ġfiltering": 5131,
      "Ġlocalhost": 5132,
      "Ġ[]);": 5133,
      "Never": 5134,
      "ĠThread": 5135,
      "Ġdelay": 5136,
      "ĠWhich": 5137,
      "ĠFramework": 5138,
      "Ġlarger": 5139,
      "owntime": 5140,
      "18": 5141,
      "82": 5142,
      "Can": 5143,
      "Mon": 5144,
      "PC": 5145,
      "XX": 5146,
      "_{": 5147,
      "`).": 5148,
      "ares": 5149,
      "bes": 5150,
      "cors": 5151,
      "dump": 5152,
      "iver": 5153,
      "kill": 5154,
      "live": 5155,
      "lished": 5156,
      "method": 5157,
      "manager": 5158,
      "oot": 5159,
      "ograph": 5160,
      "pars": 5161,
      "round": 5162,
      "uation": 5163,
      "vis": 5164,
      "initial": 5165,
      "std": 5166,
      "Ġpub": 5167,
      "Ġrebase": 5168,
      "room": 5169,
      "Ġintern": 5170,
      "impler": 5171,
      "etitive": 5172,
      "Ġisinstance": 5173,
      "atever": 5174,
      "ĠTool": 5175,
      "ĠPattern": 5176,
      "Ġdeps": 5177,
      "Ġdepth": 5178,
      "Ġretries": 5179,
      "Ġlead": 5180,
      "ĠMe": 5181,
      "ĠMan": 5182,
      "Ġbund": 5183,
      "ĠGIL": 5184,
      "aky": 5185,
      "Ġsettings": 5186,
      "tsx": 5187,
      "ongoDB": 5188,
      "|--------|": 5189,
      "ĠComm": 5190,
      "ĠException": 5191,
      "Ġ401": 5192,
      "Ġdispatch": 5193,
      "Ġfrag": 5194,
      "Ġversioning": 5195,
      "Ġletters": 5196,
      "filer": 5197,
      "'],": 5198,
      "Ġcrashes": 5199,
      "Ġagent": 5200,
      "edium": 5201,
      "lobal": 5202,
      "Ġdiagn": 5203,
      "401": 5204,
      "Ġflexible": 5205,
      "ĠEng": 5206,
      "Ġconsiderations": 5207,
      "ĠDecisions": 5208,
      "ĠAsk": 5209,
      "Ġfinish": 5210,
      "Ġloss": 5211,
      "Ġprotect": 5212,
      "Ġdetermin": 5213,
      "ouncer": 5214,
      "ĠANALYZE": 5215,
      "ĠPartial": 5216,
      "Ġidempotency": 5217,
      "<!": 5218,
      ">=": 5219,
      "?.": 5220,
      "Des": 5221,
      "Dep": 5222,
      "He": 5223,
      "KB": 5224,
      "Name": 5225,
      "WE": 5226,
      "Wh": 5227,
      "ded": 5228,
      "events": 5229,
      "gist": 5230,
      "iol": 5231,
      "npx": 5232,
      "}.": 5233,
      "incre": 5234,
      "Ġts": 5235,
      "hex": 5236,
      "Ġskip": 5237,
      "Ġmism": 5238,
      "Ġpain": 5239,
      "Ġbind": 5240,
      "roid": 5241,
      "usr": 5242,
      "imals": 5243,
      "ĠâĪ": 5244,
      "iff": 5245,
      "atest": 5246,
      "Ġ`==": 5247,
      "verify": 5248,
      "ĠTo": 5249,
      "ĠSM": 5250,
      "erson": 5251,
      "Ġorgan": 5252,
      "ĠDate": 5253,
      "ĠOptim": 5254,
      "ĠOPTIONS": 5255,
      "Ġannot": 5256,
      "Ġjwt": 5257,
      "Ġunion": 5258,
      "Ġpreflight": 5259,
      "creen": 5260,
      "crete": 5261,
      "ĠStack": 5262,
      "ĠStripe": 5263,
      "locks": 5264,
      "Ġlimited": 5265,
      "Ġimports": 5266,
      "Ġ502": 5267,
      "Ġentries": 5268,
      "Ġbrute": 5269,
      "Ġblocked": 5270,
      "Ġlinear": 5271,
      "Alchemy": 5272,
      "scores": 5273,
      "ĠResponse": 5274,
      "ĠlocalStorage": 5275,
      "Ġlookup": 5276,
      "Listener": 5277,
      "Ġlevels": 5278,
      "Ġeasier": 5279,
      "Origin": 5280,
      "Seconds": 5281,
      "ĠPlan": 5282,
      "OWED": 5283,
      "================================================": 5284,
      "Ġdatetime": 5285,
      "uploads": 5286,
      "Ġperson": 5287,
      "Ġcertain": 5288,
      "Ġborrowed": 5289,
      "related": 5290,
      "ĠConsiderations": 5291,
      "EventListener": 5292,
      "ĠuseUserStore": 5293,
      "Handler": 5294,
      "Ġfundam": 5295,
      "CL": 5296,
      "Card": 5297,
      "CON": 5298,
      "CUR": 5299,
      "Mi": 5300,
      "Rust": 5301,
      "ROR": 5302,
      "TL": 5303,
      "US": 5304,
      "Yes": 5305,
      "dir": 5306,
      "dumps": 5307,
      "mediate": 5308,
      "pid": 5309,
      "pool": 5310,
      "rap": 5311,
      "uppercase": 5312,
      "yles": 5313,
      "zz": 5314,
      "Â°": 5315,
      "inte": 5316,
      "esian": 5317,
      "Ġhot": 5318,
      "Ġbottom": 5319,
      "around": 5320,
      "Ġreplace": 5321,
      "Ġinit": 5322,
      "Ġlight": 5323,
      "Ġstable": 5324,
      "Ġstale": 5325,
      "ĠSo": 5326,
      "ĠSystem": 5327,
      "ĠSERIAL": 5328,
      "ĠAccess": 5329,
      "Ġ512": 5330,
      "ĠPath": 5331,
      "ircle": 5332,
      "ĠMax": 5333,
      "ĠMake": 5334,
      "Ġbelow": 5335,
      "uster": 5336,
      "ĠLine": 5337,
      "Ġstrategies": 5338,
      "readable": 5339,
      "Ġ$(": 5340,
      "Ġfunctional": 5341,
      "chedu": 5342,
      "Ġembed": 5343,
      "Ġpreferences": 5344,
      "ĠInitial": 5345,
      "ĠPros": 5346,
      "Ġconfigure": 5347,
      "Ġdescript": 5348,
      "anges": 5349,
      "Ġconstruct": 5350,
      "ĠUsage": 5351,
      "adeoff": 5352,
      "Ġfiltered": 5353,
      "undefined": 5354,
      "Ġidentical": 5355,
      "Ġports": 5356,
      "generator": 5357,
      "description": 5358,
      "Ġduplicate": 5359,
      "Value": 5360,
      "Ġcallbacks": 5361,
      "Ġsnapshot": 5362,
      "Ġreports": 5363,
      "failure": 5364,
      "Ġcomprehension": 5365,
      "pecial": 5366,
      "ĠAttack": 5367,
      "Ġâĸ¼": 5368,
      "03": 5369,
      "63": 5370,
      "Based": 5371,
      "CE": 5372,
      "JWT": 5373,
      "LIMIT": 5374,
      "correct": 5375,
      "free": 5376,
      "facing": 5377,
      "iency": 5378,
      "simple": 5379,
      "sudo": 5380,
      "}>": 5381,
      "invalid": 5382,
      "Ġcou": 5383,
      "Ġschem": 5384,
      "Ġmid": 5385,
      "Ġmagic": 5386,
      "Ġmedia": 5387,
      "Ġmicro": 5388,
      "Ġwast": 5389,
      "âĶĢâĶĢâĶĢ": 5390,
      "Ġ|<|": 5391,
      "aditional": 5392,
      "utils": 5393,
      "deb": 5394,
      "Ġ`(": 5395,
      "igation": 5396,
      "ĠCOUNT": 5397,
      "ĠSIG": 5398,
      "Ġconversion": 5399,
      "ĠAt": 5400,
      "quare": 5401,
      "Ġrare": 5402,
      "essages": 5403,
      "Ġ{'": 5404,
      "riate": 5405,
      "0000": 5406,
      "ĠFl": 5407,
      "alloc": 5408,
      "Ġappl": 5409,
      "ĠNow": 5410,
      "Ġlearn": 5411,
      "Ġreturning": 5412,
      "ĠBase": 5413,
      "ĠUUID": 5414,
      "Ġsees": 5415,
      "Ġassets": 5416,
      "ĠLO": 5417,
      "ialize": 5418,
      "Ġbypass": 5419,
      "exit": 5420,
      "Ġperform": 5421,
      "Ġkilled": 5422,
      "progress": 5423,
      "Ġfeel": 5424,
      "bove": 5425,
      "ĠProv": 5426,
      "ugin": 5427,
      "Ġfront": 5428,
      "Ġcounts": 5429,
      "111": 5430,
      "Ġgreat": 5431,
      "Ġmercury": 5432,
      "ropriate": 5433,
      "Ġasked": 5434,
      "Ġreasonable": 5435,
      "Ġharder": 5436,
      "Ġ%(": 5437,
      "Selector": 5438,
      "Implementation": 5439,
      "âĢĶ": 5440,
      "Ġlocation": 5441,
      "Ġduplicates": 5442,
      "Ġaccounts": 5443,
      "ĠCompose": 5444,
      "Ġlowercase": 5445,
      "Ġvulnerabilities": 5446,
      "ASC": 5447,
      "Ġrecursive": 5448,
      "WebSocket": 5449,
      "Ġapplications": 5450,
      "Ġcontinue": 5451,
      "Ġrelationships": 5452,
      "Ġjoins": 5453,
      "Ġfigure": 5454,
      "$,": 5455,
      "88": 5456,
      "Bouncer": 5457,
      "Mock": 5458,
      "Model": 5459,
      "Now": 5460,
      "Space": 5461,
      "ban": 5462,
      "gBouncer": 5463,
      "home": 5464,
      "iction": 5465,
      "man": 5466,
      "mid": 5467,
      "ners": 5468,
      "rt": 5469,
      "sync": 5470,
      "uzz": 5471,
      "ww": 5472,
      "ÑĢ": 5473,
      "Ġvector": 5474,
      "Ġtu": 5475,
      "Ġtab": 5476,
      "stack": 5477,
      "strip": 5478,
      "Ġcart": 5479,
      "enu": 5480,
      "itter": 5481,
      "Ġfire": 5482,
      "Ġpatch": 5483,
      "Ġrelease": 5484,
      "Ġnodes": 5485,
      "ĠIndex": 5486,
      "ĠAct": 5487,
      "Ġprotocol": 5488,
      "Ġrt": 5489,
      "ĠDet": 5490,
      "ĠER": 5491,
      "Ġseed": 5492,
      "ĠMap": 5493,
      "(\"\\": 5494,
      "textContent": 5495,
      "Ġnoise": 5496,
      "Ġplaces": 5497,
      "Ġ115": 5498,
      "ĠExternal": 5499,
      "ĠExplanation": 5500,
      "addEventListener": 5501,
      "Ġ256": 5502,
      "angle": 5503,
      "Ġdecide": 5504,
      "Ġpositive": 5505,
      "olean": 5506,
      "Ġloads": 5507,
      "Ġrecovery": 5508,
      "IME": 5509,
      "Ġ485": 5510,
      "Ġ765": 5511,
      "Ġ339": 5512,
      "Ġ____": 5513,
      "Ġhttpx": 5514,
      "ĊĠĠĠĠĠĠĠĠĊĠĠĠ": 5515,
      "ĠIPs": 5516,
      "Ġswap": 5517,
      "Ġparsing": 5518,
      "Import": 5519,
      "Ġtemperature": 5520,
      "Ġpermission": 5521,
      "Ġdataclass": 5522,
      "ĠBox": 5523,
      "âĶĢâĶĢâĶĢâĶĢâĶĢâĶĢâĶĢâĶĢâĶĢâĶĢâĶĢâĶĢâĶĢâĶĲ": 5524,
      "Ġpractice": 5525,
      "ĠJWTs": 5526,
      "________": 5527,
      "digest": 5528,
      "Ġprotection": 5529,
      "Ġchildren": 5530,
      "Ġcapacity": 5531,
      "Ġdetermine": 5532,
      "record": 5533,
      "console": 5534,
      "Ġrevoke": 5535,
      "Ġpytest": 5536,
      "interface": 5537,
      "ĠCalculate": 5538,
      "Ġbenefit": 5539,
      "Ġplaceholder": 5540,
      "Ġlegitimate": 5541,
      "66": 5542,
      ":/": 5543,
      "<<": 5544,
      "John": 5545,
      "Ms": 5546,
      "PR": 5547,
      "Pool": 5548,
      "RI": 5549,
      "UN": 5550,
      "[-": 5551,
      "[]": 5552,
      "best": 5553,
      "cing": 5554,
      "false": 5555,
      "iar": 5556,
      "iqu": 5557,
      "iable": 5558,
      "jac": 5559,
      "md": 5560,
      "pub": 5561,
      "wor": 5562,
      "{\"": 5563,
      "Ð¼": 5564,
      "Ñģ": 5565,
      "eric": 5566,
      "Ġabove": 5567,
      "reed": 5568,
      "Ġcounter": 5569,
      "Ġsus": 5570,
      "ench": 5571,
      "Ġdaily": 5572,
      "Ġfit": 5573,
      "Ġfixt": 5574,
      "Ġpolicy": 5575,
      "Ġwaits": 5576,
      "usive": 5577,
      "Ġnesting": 5578,
      "thers": 5579,
      "idx": 5580,
      "utation": 5581,
      "ĠTry": 5582,
      "ĠSign": 5583,
      "Ġ\"$": 5584,
      "Ġgap": 5585,
      "ĠPos": 5586,
      "Ġdeleg": 5587,
      "Ġexits": 5588,
      "acking": 5589,
      "Ġcome": 5590,
      "Ġ'@": 5591,
      "Ġresources": 5592,
      "loc": 5593,
      "Ġatomic": 5594,
      "ĠBy": 5595,
      "Ġ}));": 5596,
      "toggle": 5597,
      "grad": 5598,
      "vention": 5599,
      "opacity": 5600,
      "Ġaccident": 5601,
      "Ġfilters": 5602,
      "backup": 5603,
      "ĠComplex": 5604,
      "Ġcontainers": 5605,
      "boards": 5606,
      "Ġabsolute": 5607,
      "spaces": 5608,
      "Ġsummary": 5609,
      "nowled": 5610,
      "EXPLAIN": 5611,
      "Ġobvious": 5612,
      "aterial": 5613,
      "'])": 5614,
      "Ġsmallest": 5615,
      "Algorithm": 5616,
      "etermine": 5617,
      "Ġpostgres": 5618,
      "Ġguide": 5619,
      "versed": 5620,
      "Ġwriting": 5621,
      "}`);": 5622,
      "Ġvulnerability": 5623,
      "Ġcategories": 5624,
      "RUN": 5625,
      "Ġinvestigate": 5626,
      "emonstr": 5627,
      "innerHTML": 5628,
      "Headers": 5629,
      "DIR": 5630,
      "ĠSupport": 5631,
      "ĠClean": 5632,
      "ĠIdentify": 5633,
      "Ġmechanism": 5634,
      "ecessary": 5635,
      "Ġmismatch": 5636,
      "23": 5637,
      ":*": 5638,
      "Cre": 5639,
      "Di": 5640,
      "Do": 5641,
      "Given": 5642,
      "Lock": 5643,
      "OCT": 5644,
      "Open": 5645,
      "Password": 5646,
      "Same": 5647,
      "Sort": 5648,
      "cer": 5649,
      "hab": 5650,
      "multi": 5651,
      "make": 5652,
      "middleware": 5653,
      "many": 5654,
      "since": 5655,
      "Ġip": 5656,
      "Ġtag": 5657,
      "Ġaverage": 5658,
      "ones": 5659,
      "Ġcycle": 5660,
      "Ġhuge": 5661,
      "Ġwidth": 5662,
      "Ġinfinite": 5663,
      "aced": 5664,
      "acement": 5665,
      "ilter": 5666,
      "Ġothers": 5667,
      "ĠSl": 5668,
      "ĠSince": 5669,
      "Ġyears": 5670,
      "Ġhashes": 5671,
      "()).": 5672,
      "Ġexport": 5673,
      "ĠDirect": 5674,
      "Ġappropriate": 5675,
      "Ġleg": 5676,
      "Ġ#[": 5677,
      "loor": 5678,
      "ĠMain": 5679,
      "Ġspot": 5680,
      "ints": 5681,
      "ĠWhy": 5682,
      "ĠHash": 5683,
      "ightly": 5684,
      "Ġstrong": 5685,
      "oundary": 5686,
      "They": 5687,
      "area": 5688,
      "('.": 5689,
      "Ġdefense": 5690,
      "ventory": 5691,
      "ĊĠĠĊĠ": 5692,
      "Ġchannel": 5693,
      "Ġreadonly": 5694,
      "Ġconstant": 5695,
      "Ġmargin": 5696,
      "Ġprintln": 5697,
      "Ġ160": 5698,
      "address": 5699,
      "Ġeveryone": 5700,
      "Ġsubset": 5701,
      "Ġ250": 5702,
      "Ġscores": 5703,
      "sha": 5704,
      "ttp": 5705,
      "STS": 5706,
      "Ġhold": 5707,
      "Ġsorting": 5708,
      "Ġcommitted": 5709,
      "Fixed": 5710,
      "Ġdebt": 5711,
      "Ġremote": 5712,
      "Bytes": 5713,
      "Ġselected": 5714,
      "earer": 5715,
      "dockerfile": 5716,
      "Items": 5717,
      "Ġ!==": 5718,
      "Ġconsumers": 5719,
      "Ġconcat": 5720,
      "Ġextends": 5721,
      "Ġhappened": 5722,
      "Ġindices": 5723,
      "........": 5724,
      "âĶģâĶģâĶģâĶģâĶģâĶģâĶģâĶģ": 5725,
      "Ġ`?`": 5726,
      "Enter": 5727,
      "Ġvolume": 5728,
      "Ġcoordin": 5729,
      "ydantic": 5730,
      "Ġdanger": 5731,
      "AG": 5732,
      "EM": 5733,
      "Index": 5734,
      "Policy": 5735,
      "Return": 5736,
      "Text": 5737,
      "Understand": 5738,
      "`:**": 5739,
      "`.<|": 5740,
      "bu": 5741,
      "balance": 5742,
      "feature": 5743,
      "gent": 5744,
      "ium": 5745,
      "more": 5746,
      "spect": 5747,
      "two": 5748,
      "template": 5749,
      "Ġide": 5750,
      "ering": 5751,
      "heus": 5752,
      "Ġslic": 5753,
      "|>##": 5754,
      "Ġmiddle": 5755,
      "Ġmapping": 5756,
      "ales": 5757,
      "Ġpan": 5758,
      "aring": 5759,
      "ishes": 5760,
      "Ġrepos": 5761,
      "Ġnav": 5762,
      "Ġnormal": 5763,
      "Ġlatest": 5764,
      "uty": 5765,
      "dec": 5766,
      "ĠCHE": 5767,
      "ists": 5768,
      "unt": 5769,
      "change": 5770,
      "Ġ624": 5771,
      "rief": 5772,
      "Ġcomes": 5773,
      "ĠUS": 5774,
      "ĠEmpty": 5775,
      "Ġtrick": 5776,
      "Ġtruth": 5777,
      "serv": 5778,
      "serif": 5779,
      "ĠManager": 5780,
      "Ġchart": 5781,
      "ĠHard": 5782,
      "Ġ[...": 5783,
      "ashboards": 5784,
      "Ġlogger": 5785,
      "Ġworkers": 5786,
      "comple": 5787,
      "exec": 5788,
      "ĠReasoning": 5789,
      "Ġverb": 5790,
      "ĠĠĠĠĠĠĠĠĠĠĠĠĠĠĠĠĠ": 5791,
      "Ġsolved": 5792,
      "Ġroom": 5793,
      "ĠStatus": 5794,
      "Ġcontaining": 5795,
      "RENT": 5796,
      "afari": 5797,
      "Ġ>>": 5798,
      "Ġ259": 5799,
      "Ġscans": 5800,
      "Ġcausing": 5801,
      "Ġ419": 5802,
      "Ġdocuments": 5803,
      "scoped": 5804,
      "Ġ792": 5805,
      "|-----|": 5806,
      "Ġguard": 5807,
      "ĠIDE": 5808,
      "Ġproperty": 5809,
      "second": 5810,
      "ounce": 5811,
      "ĠSQLAlchemy": 5812,
      "ĠDescription": 5813,
      "Ġtimeouts": 5814,
      "ĠGenerator": 5815,
      "Ġbroke": 5816,
      "filtered": 5817,
      "Ġencrypt": 5818,
      "tools": 5819,
      "ĠSSL": 5820,
      "todo": 5821,
      "Ġstreaming": 5822,
      "----------------------------------------": 5823,
      "Ġscaling": 5824,
      "ConnectionError": 5825,
      "Ġrelevant": 5826,
      "swap": 5827,
      "Ġclaim": 5828,
      "Ġarticles": 5829,
      "alpha": 5830,
      "changed": 5831,
      "Ġequivalent": 5832,
      "FFSET": 5833,
      "increment": 5834,
      "ĠCHECK": 5835,
      "#[": 5836,
      "38": 5837,
      "70": 5838,
      "96": 5839,
      "ASS": 5840,
      "AWS": 5841,
      "Cache": 5842,
      "Database": 5843,
      "Le": 5844,
      "Version": 5845,
      "Work": 5846,
      "YPE": 5847,
      "ev": 5848,
      "gu": 5849,
      "gment": 5850,
      "known": 5851,
      "library": 5852,
      "single": 5853,
      "tags": 5854,
      "vider": 5855,
      "wg": 5856,
      "welcome": 5857,
      "repo": 5858,
      "required": 5859,
      "Ġsuper": 5860,
      "Ġded": 5861,
      "Ġdue": 5862,
      "Ġdashboards": 5863,
      "Ġfut": 5864,
      "Ġpalindrome": 5865,
      "Ġhide": 5866,
      "Ġhierarch": 5867,
      "edish": 5868,
      "Ġnone": 5869,
      "hrink": 5870,
      "ĊĠĠĠĠĠĠĠĠĠĠ": 5871,
      "adow": 5872,
      "Ġstays": 5873,
      "ĠTTL": 5874,
      "ĠCustom": 5875,
      "Ġ\"-": 5876,
      "unity": 5877,
      "unique": 5878,
      "otential": 5879,
      "ĠPydantic": 5880,
      "Ġdeveloper": 5881,
      "Ġexcl": 5882,
      "ĠFe": 5883,
      "ĠFail": 5884,
      "ĠOk": 5885,
      "ailway": 5886,
      "ĠEasy": 5887,
      "ĠMA": 5888,
      "ĠMulti": 5889,
      "../": 5890,
      "apped": 5891,
      "toast": 5892,
      "gration": 5893,
      "Ġperf": 5894,
      "ĠsetUser": 5895,
      "words": 5896,
      "Ġplayer": 5897,
      "elery": 5898,
      "Format": 5899,
      "collect": 5900,
      "Ġcaller": 5901,
      "Ġordering": 5902,
      "Ġsubstring": 5903,
      "Process": 5904,
      "Ġgeneration": 5905,
      "Ġgenerics": 5906,
      "Express": 5907,
      "Execut": 5908,
      "Ġlocking": 5909,
      "ponential": 5910,
      "Ġcrontab": 5911,
      "Ġ768": 5912,
      "loading": 5913,
      "Ġwebhook": 5914,
      "Ġunderstanding": 5915,
      "Ġrelational": 5916,
      "Ġformatting": 5917,
      "ĠShared": 5918,
      "ĠDockerfile": 5919,
      "Ġpods": 5920,
      "TERM": 5921,
      "|-------------": 5922,
      "Ġmatter": 5923,
      "Ġselector": 5924,
      "Ġtransformation": 5925,
      "Ġsupports": 5926,
      "Ġauthenticate": 5927,
      "ĠDefault": 5928,
      "Ġuploads": 5929,
      "napshot": 5930,
      "Ġrotate": 5931,
      "Ġlifetime": 5932,
      "ĠIncre": 5933,
      "Ġreplaces": 5934,
      "Ġrounds": 5935,
      "ĪâĸĪâĸĪâĸĪâĸ": 5936,
      "ĠDoes": 5937,
      "Ġspeed": 5938,
      "Ġexpiration": 5939,
      "Ġlabels": 5940,
      "Ġâķ²": 5941,
      "Ġarguments": 5942,
      "Ġmillions": 5943,
      "umulative": 5944,
      "Ġhaven": 5945,
      "Ġmeaningful": 5946,
      "========================================================": 5947,
      "Ġfundamental": 5948,
      "Ġconcaten": 5949,
      "/.": 5950,
      "=[": 5951,
      "Out": 5952,
      "OLE": 5953,
      "Pr": 5954,
      "ROU": 5955,
      "Where": 5956,
      "aj": 5957,
      "bon": 5958,
      "dat": 5959,
      "det": 5960,
      "got": 5961,
      "optim": 5962,
      "uuid": 5963,
      "erry": 5964,
      "inv": 5965,
      "onest": 5966,
      "Ġdirection": 5967,
      "Ġmask": 5968,
      "Ġfle": 5969,
      "isual": 5970,
      "Ġnat": 5971,
      "Ġlag": 5972,
      "ulum": 5973,
      "Ġthrows": 5974,
      "urb": 5975,
      "Ġ`-": 5976,
      "ĠCLI": 5977,
      "ĠSkip": 5978,
      "Ġ\"\"": 5979,
      "ĠonClick": 5980,
      "ecycle": 5981,
      "pling": 5982,
      "Ġvague": 5983,
      "Ġviol": 5984,
      "endulum": 5985,
      "odo": 5986,
      "Ġwhatever": 5987,
      "ĠNEW": 5988,
      "ĠOther": 5989,
      "ĠBob": 5990,
      "Ġshut": 5991,
      "ĠMatch": 5992,
      "ĠMongoDB": 5993,
      "full": 5994,
      "Ġchat": 5995,
      "ĠWH": 5996,
      "ĠWrong": 5997,
      "application": 5998,
      "ĠGIN": 5999,
      "Ġimpact": 6000,
      "Ġlogged": 6001,
      "ĠReplic": 6002,
      "epar": 6003,
      "Ġunmount": 6004,
      "Ġuppercase": 6005,
      "ĠInvalid": 6006,
      "curl": 6007,
      "ĠStandard": 6008,
      "afana": 6009,
      "shared": 6010,
      "gitignore": 6011,
      "Ġoverl": 6012,
      "Ġslower": 6013,
      "Expected": 6014,
      "Complexity": 6015,
      "ategory": 6016,
      "ĠfetchUser": 6017,
      "ĠDevelop": 6018,
      "prehen": 6019,
      "Ġ496": 6020,
      "ĠImplement": 6021,
      "Ġiterator": 6022,
      "Ġmanaged": 6023,
      "Ġtries": 6024,
      "ĠSecond": 6025,
      "Ġoptimized": 6026,
      "|-------------|": 6027,
      "command": 6028,
      "Ġtransformations": 6029,
      "Ġsplitting": 6030,
      "authentic": 6031,
      "Ġpermutation": 6032,
      "Thread": 6033,
      "Change": 6034,
      "Ġrestore": 6035,
      "Ġincrease": 6036,
      "âĶĢâĶĢâĶĢâĶĢâĶĢâĶĢâĶĢâĶĢâĶĢâĶĢâĶĢâĶĢâĶĢâĶĺ": 6037,
      "Ġauthorization": 6038,
      "IPE": 6039,
      "ĠInstall": 6040,
      "Generate": 6041,
      "Ġindic": 6042,
      "ribute": 6043,
      "Ġequality": 6044,
      "âĶĶâĶĢâĶĢ": 6045,
      "aaS": 6046,
      "Ġaffected": 6047,
      "!)": 6048,
      "(-": 6049,
      "Ab": 6050,
      "Br": 6051,
      "DS": 6052,
      "Del": 6053,
      "IS": 6054,
      "ILE": 6055,
      "Ops": 6056,
      "bad": 6057,
      "bind": 6058,
      "before": 6059,
      "different": 6060,
      "ktop": 6061,
      "pop": 6062,
      "ratch": 6063,
      "route": 6064,
      "sib": 6065,
      "sizing": 6066,
      "zero": 6067,
      "Ġalp": 6068,
      "reach": 6069,
      "rejected": 6070,
      "stage": 6071,
      "Ġsat": 6072,
      "Ġsocial": 6073,
      "Ġschedu": 6074,
      "Ġder": 6075,
      "Ġfet": 6076,
      "Ġfunc": 6077,
      "allet": 6078,
      "alchemy": 6079,
      "Ġhy": 6080,
      "Ġbir": 6081,
      "Ġrenders": 6082,
      "Ġtoler": 6083,
      "Ġindiv": 6084,
      "icing": 6085,
      "Ġcovers": 6086,
      "Ġodd": 6087,
      "ursive": 6088,
      "device": 6089,
      "ĠToken": 6090,
      "ĠCounter": 6091,
      "ĠCTE": 6092,
      "ĠSepar": 6093,
      "ĠAnd": 6094,
      "ithub": 6095,
      "charge": 6096,
      "ĠPgBouncer": 6097,
      "ĠPASS": 6098,
      "Ġranges": 6099,
      "ackage": 6100,
      "teps": 6101,
      "ĠDashboard": 6102,
      "ĠFire": 6103,
      "ĠFibonacci": 6104,
      "ĠBuilt": 6105,
      "ĠExt": 6106,
      "Ġspin": 6107,
      "ĠWait": 6108,
      "Ġalerts": 6109,
      "Ġserde": 6110,
      "(\"=\"": 6111,
      "__.": 6112,
      "Ġtimezone": 6113,
      "Ġvertical": 6114,
      "project": 6115,
      "Ġready": 6116,
      "ĠComprehen": 6117,
      "Ġ181": 6118,
      "Ġ403": 6119,
      "Ġgrams": 6120,
      "Ġ802": 6121,
      "Ġdecision": 6122,
      "Ġ966": 6123,
      "overrides": 6124,
      "Ġ272": 6125,
      "Ġ892": 6126,
      "Ġ680": 6127,
      "Ġ681": 6128,
      "Ġ686": 6129,
      "Ġ981": 6130,
      "nothing": 6131,
      "Ġ453": 6132,
      "queue": 6133,
      "Ġdownstream": 6134,
      "Ġ498": 6135,
      "Ġ853": 6136,
      "ĠTests": 6137,
      "Ġhardcoded": 6138,
      "âĤģ": 6139,
      "Ġsequential": 6140,
      "ĠSecret": 6141,
      "production": 6142,
      "Ġhashing": 6143,
      "Ġlayers": 6144,
      "Ġlooking": 6145,
      "Ġdouble": 6146,
      "TypeScript": 6147,
      "ĠScore": 6148,
      "submit": 6149,
      "Ġblind": 6150,
      "compare": 6151,
      "compose": 6152,
      "Ġcalculation": 6153,
      "Ġentirely": 6154,
      "Note": 6155,
      "Ġconcer": 6156,
      "ĠCompare": 6157,
      "columns": 6158,
      "marize": 6159,
      "Ġlifecycle": 6160,
      "ĠValidation": 6161,
      "Ġdenormalize": 6162,
      "Query": 6163,
      "Redu": 6164,
      "Ġregistration": 6165,
      "mbic": 6166,
      "ĠCONF": 6167,
      "Ġrestarts": 6168,
      "Ġlargest": 6169,
      "Ġapplicable": 6170,
      "Ġsqlite": 6171,
      "Ġarrived": 6172,
      "Ġoccurs": 6173,
      "Ġelectrons": 6174,
      "Ġdatasets": 6175,
      "Ġembedded": 6176,
      "wght": 6177,
      "ROUP": 6178,
      "Ġflew": 6179,
      "urborepo": 6180,
      "Ġbirds": 6181,
      "Ġindivid": 6182,
      "\";": 6183,
      "78": 6184,
      "Ac": 6185,
      "Ad": 6186,
      "FC": 6187,
      "FastAPI": 6188,
      "Pattern": 6189,
      "Solution": 6190,
      "TR": 6191,
      "Ur": 6192,
      "afer": 6193,
      "cards": 6194,
      "eq": 6195,
      "each": 6196,
      "frequency": 6197,
      "mo": 6198,
      "ru": 6199,
      "router": 6200,
      "sleep": 6201,
      "|---|---|": 6202,
      "}));": 6203,
      "Ġess": 6204,
      "rename": 6205,
      "review": 6206,
      "Ġsite": 6207,
      "Ġsocket": 6208,
      "Ġmis": 6209,
      "Ġhidden": 6210,
      "ulter": 6211,
      "Ġ`__": 6212,
      "Ġ`===": 6213,
      "olders": 6214,
      "olved": 6215,
      "Ġhashed": 6216,
      "âĶĢâĶĢâĶĢâĶĢâĶĢâĶĢ": 6217,
      "ceil": 6218,
      "cknowled": 6219,
      "anding": 6220,
      "Ġvow": 6221,
      "Ġnear": 6222,
      "Ġlost": 6223,
      "ains": 6224,
      "ĠFn": 6225,
      "Ġappear": 6226,
      "ĠOut": 6227,
      "ĠBO": 6228,
      "ĠMat": 6229,
      "Ġassess": 6230,
      "ĠLarge": 6231,
      "âĶĢâĶĢâĶĢâĶĢâĶĢâĶĢâĶĢâĶĢâĶ": 6232,
      "Ġclone": 6233,
      "toL": 6234,
      "=\"/": 6235,
      "Ġ101": 6236,
      "Ġyourself": 6237,
      "Ġallocation": 6238,
      "Ġcontroller": 6239,
      "ĠsetInterval": 6240,
      "ĠRel": 6241,
      "Ġacc": 6242,
      "Ġvalidates": 6243,
      "Ġprocessed": 6244,
      "Ġcompetitive": 6245,
      "Ġbackoff": 6246,
      "'));": 6247,
      "params": 6248,
      "Ġgenerated": 6249,
      "Ġentities": 6250,
      "fficiency": 6251,
      "Ġ780": 6252,
      "Ġsystematic": 6253,
      "Ġsystematically": 6254,
      "Ġrelative": 6255,
      "Ġmerged": 6256,
      "Ġolder": 6257,
      "ITH": 6258,
      "Ġ465": 6259,
      "Ġproperly": 6260,
      "translate": 6261,
      "rence": 6262,
      "ĠGroup": 6263,
      "hedron": 6264,
      "ĠRunning": 6265,
      "Ġsafely": 6266,
      "apsed": 6267,
      "refresh": 6268,
      "ĠZod": 6269,
      "ĠInstead": 6270,
      "Ġcertbot": 6271,
      "Ġensure": 6272,
      "(*)": 6273,
      "ĠINSERT": 6274,
      "Ġstructures": 6275,
      "Ġlanguages": 6276,
      "Header": 6277,
      "Ġsurv": 6278,
      "Box": 6279,
      "Ġbalancer": 6280,
      "delay": 6281,
      "Ġestab": 6282,
      "Ġpropagate": 6283,
      "riendly": 6284,
      "Ġmicroservices": 6285,
      "Ġrarely": 6286,
      "PoolExecut": 6287,
      "completed": 6288,
      "PoolExecutor": 6289,
      "(/": 6290,
      ")).": 6291,
      "AY": 6292,
      "Before": 6293,
      "DE": 6294,
      "DOCT": 6295,
      "Field": 6296,
      "Final": 6297,
      "FTER": 6298,
      "GGB": 6299,
      "Memo": 6300,
      "NAME": 6301,
      "OS": 6302,
      "Our": 6303,
      "Pass": 6304,
      "Session": 6305,
      "Schema": 6306,
      "Up": 6307,
      "bl": 6308,
      "cost": 6309,
      "drag": 6310,
      "gba": 6311,
      "same": 6312,
      "tem": 6313,
      "uction": 6314,
      "yond": 6315,
      "ĠĊĠĠĠ": 6316,
      "redu": 6317,
      "hest": 6318,
      "stats": 6319,
      "attr": 6320,
      "annel": 6321,
      "Ġdynamic": 6322,
      "Ġfour": 6323,
      "alf": 6324,
      "alt": 6325,
      "Ġpoly": 6326,
      "Ġbar": 6327,
      "arter": 6328,
      "ised": 6329,
      "rodu": 6330,
      "Ġlives": 6331,
      "uly": 6332,
      "Ġ`&": 6333,
      "Ġ`--": 6334,
      "ighest": 6335,
      "ĠTake": 6336,
      "ĠTotal": 6337,
      "ĠSlow": 6338,
      "ĠSSE": 6339,
      "ĠSchema": 6340,
      "Ġconcrete": 6341,
      "ĠAFTER": 6342,
      "ume": 6343,
      "cho": 6344,
      "char": 6345,
      "ĠPick": 6346,
      "Ġ800": 6347,
      "andas": 6348,
      "()\">": 6349,
      "ĠREAD": 6350,
      "Ġcomment": 6351,
      "ĠDifferent": 6352,
      "Ġ'/": 6353,
      "ĠFahrenheit": 6354,
      "Ġresolution": 6355,
      "ĠObject": 6356,
      "ĠBinary": 6357,
      "assert": 6358,
      "Ġtested": 6359,
      "Ġcloud": 6360,
      "Ġalternative": 6361,
      "ĠGB": 6362,
      "Ġimpl": 6363,
      "Ġimpossible": 6364,
      "force": 6365,
      "forces": 6366,
      "Ġworkaround": 6367,
      "Ġhandled": 6368,
      "ĠsetTimeout": 6369,
      "Ġtimer": 6370,
      "ryption": 6371,
      "Ġ2024": 6372,
      "SECRET": 6373,
      "ĠInte": 6374,
      "Ġcompose": 6375,
      "Ġcomposite": 6376,
      "Ġactiv": 6377,
      "addy": 6378,
      "Ġsubject": 6379,
      "Ġ304": 6380,
      "Provider": 6381,
      "Ġformula": 6382,
      "Ġelimin": 6383,
      "ADE": 6384,
      "Ġworst": 6385,
      "ĠAnn": 6386,
      "ĠAdding": 6387,
      "Ġago": 6388,
      "ironments": 6389,
      "Ġenvironments": 6390,
      "preview": 6391,
      "preferences": 6392,
      "sof": 6393,
      "localStorage": 6394,
      "cular": 6395,
      "alyze": 6396,
      "warded": 6397,
      "ĠAllow": 6398,
      "ĠLoad": 6399,
      "Ġsuccessful": 6400,
      "Ġduplication": 6401,
      "ĠLogic": 6402,
      "Ġconsistent": 6403,
      "threading": 6404,
      "Ġrejected": 6405,
      "google": 6406,
      "Ġclosure": 6407,
      "Users": 6408,
      "Ġreplacement": 6409,
      "##..##": 6410,
      "Ġnarrowing": 6411,
      "Both": 6412,
      "UTF": 6413,
      "Ġdrive": 6414,
      "Ġliteral": 6415,
      "ĠVALUES": 6416,
      "ĠMonitor": 6417,
      "Ġinheritance": 6418,
      "Ġdivisor": 6419,
      "Ġsignificant": 6420,
      "elements": 6421,
      "Ġbundle": 6422,
      "Ġannotations": 6423,
      "ĠInitialize": 6424,
      "ĠProvide": 6425,
      "Ġconcerns": 6426,
      "DOCTYPE": 6427,
      "(...": 6428,
      "/${": 6429,
      "29": 6430,
      "Bu": 6431,
      "Extract": 6432,
      "Edge": 6433,
      "Get": 6434,
      "KE": 6435,
      "Max": 6436,
      "NO": 6437,
      "Over": 6438,
      "ROP": 6439,
      "TO": 6440,
      "That": 6441,
      "Too": 6442,
      "UUID": 6443,
      "bust": 6444,
      "even": 6445,
      "element": 6446,
      "lude": 6447,
      "ma": 6448,
      "match": 6449,
      "mobile": 6450,
      "optional": 6451,
      "private": 6452,
      "sans": 6453,
      "source": 6454,
      "when": 6455,
      "inux": 6456,
      "recur": 6457,
      "help": 6458,
      "static": 6459,
      "itory": 6460,
      "Ġdr": 6461,
      "Ġdowntime": 6462,
      "Ġfill": 6463,
      "Ġplease": 6464,
      "Ġpendulum": 6465,
      "Ġhouse": 6466,
      "inger": 6467,
      "Ġey": 6468,
      "Ġecho": 6469,
      "Ġ(~": 6470,
      "Ġinstr": 6471,
      "etheus": 6472,
      "Ġcoerc": 6473,
      "Ġstat": 6474,
      "Ġstats": 6475,
      "ĠInd": 6476,
      "pping": 6477,
      "ĠCR": 6478,
      "ĠSafari": 6479,
      "Ġ\"/": 6480,
      "Ġ511": 6481,
      "ĠPATH": 6482,
      "ĠPDF": 6483,
      "Ġ824": 6484,
      "ĠRAM": 6485,
      "Ġdegree": 6486,
      "ĠDO": 6487,
      "ĠOptions": 6488,
      "ostic": 6489,
      "ĠBug": 6490,
      "Ġcho": 6491,
      "ĠWhere": 6492,
      "Ġnotice": 6493,
      "Ġclause": 6494,
      "trim": 6495,
      "toBe": 6496,
      "\")`": 6497,
      "Ġcommunic": 6498,
      "riter": 6499,
      "Ġcreation": 6500,
      "Ġunexpected": 6501,
      "Ġaccur": 6502,
      "ĠĠĠĠĠĠĠĠĠĠĠĠĠĠĠĠĠĠ": 6503,
      "...\",": 6504,
      "Ġ127": 6505,
      "Ġ157": 6506,
      "CTION": 6507,
      "Ġprints": 6508,
      "ĠExplain": 6509,
      "week": 6510,
      "udience": 6511,
      "Ġ137": 6512,
      "Ġ>>>": 6513,
      "igrate": 6514,
      "Ġ409": 6515,
      "ĠProgram": 6516,
      "ĠProduction": 6517,
      "Ġfinds": 6518,
      "Ġfinding": 6519,
      "Ġ170": 6520,
      "viewport": 6521,
      "Identify": 6522,
      "Ġdisable": 6523,
      "Ġintersection": 6524,
      "Ġinterpret": 6525,
      "Ġenter": 6526,
      "Ġprovider": 6527,
      "Ġloaded": 6528,
      "Ġ271": 6529,
      "Ġ593": 6530,
      "Ġ873": 6531,
      "Ġ866": 6532,
      "Ġ880": 6533,
      "Ġ881": 6534,
      "Ġ886": 6535,
      "\"],": 6536,
      "Ġ958": 6537,
      "Ġ553": 6538,
      "$$$,": 6539,
      "ĠSee": 6540,
      "Ġdetection": 6541,
      "Ġseparately": 6542,
      "SERIAL": 6543,
      "404": 6544,
      "clean": 6545,
      "ĠArray": 6546,
      "ĠSEO": 6547,
      "ĠUnion": 6548,
      "Ġeasily": 6549,
      "Ġargs": 6550,
      "Ġundo": 6551,
      "âĶĢâĶĢâĶĢâĶĢâĶĢâĶĢâĶĢâĶĢâĶĢâĶĢâĶĢâĶĢâĶĢâĶĢâĶĢâĶĢâĶĢâĶĢâĶĢâĶĢâĶĢâĶĢâĶĢâĶĢâĶĢâĶĢâĶĢâĶĢâĶĢâĶĢâĶĢâĶĢâĶĢâĶĢâĶĢâĶĢâĶĢâĶĢâĶĢâĶĢ": 6552,
      "Ġparameterized": 6553,
      "Next": 6554,
      "Ġdidn": 6555,
      "Ġphone": 6556,
      "Ġencoding": 6557,
      "Ġjobs": 6558,
      "Loading": 6559,
      "ĠAuto": 6560,
      "Ġediting": 6561,
      "Ġreceive": 6562,
      "products": 6563,
      "Ġserialization": 6564,
      "ĠSwedish": 6565,
      "asya": 6566,
      "writes": 6567,
      "Ġscenario": 6568,
      "Ġfeedback": 6569,
      "Ġgracefully": 6570,
      "ĠEnglish": 6571,
      "Which": 6572,
      "76": 6573,
      "95": 6574,
      ":',": 6575,
      ":${": 6576,
      ">)": 6577,
      "Cur": 6578,
      "Dir": 6579,
      "Draft": 6580,
      "FOR": 6581,
      "Memory": 6582,
      "Retry": 6583,
      "Sc": 6584,
      "System": 6585,
      "Tim": 6586,
      "UG": 6587,
      "UP": 6588,
      "UST": 6589,
      "]<|": 6590,
      "aight": 6591,
      "cookie": 6592,
      "done": 6593,
      "dated": 6594,
      "floor": 6595,
      "gument": 6596,
      "good": 6597,
      "lst": 6598,
      "mode": 6599,
      "pc": 6600,
      "pick": 6601,
      "rary": 6602,
      "spy": 6603,
      "tree": 6604,
      "wd": 6605,
      "regist": 6606,
      "Ġcat": 6607,
      "origin": 6608,
      "Ġscheduler": 6609,
      "Ġdemonstr": 6610,
      "Ġmyp": 6611,
      "Ġmaterial": 6612,
      "alg": 6613,
      "Ġpus": 6614,
      "Ġwide": 6615,
      "rogen": 6616,
      "utral": 6617,
      "urable": 6618,
      "verifier": 6619,
      "pped": 6620,
      "ĠTarget": 6621,
      "ĠCRU": 6622,
      "ĠSend": 6623,
      "Ġcontract": 6624,
      "ĠAB": 6625,
      "olves": 6626,
      "abase": 6627,
      "child": 6628,
      "ĠPage": 6629,
      "Ġran": 6630,
      "Ġvaries": 6631,
      "ender": 6632,
      "Ġnegative": 6633,
      "ĠDist": 6634,
      "ĠDjango": 6635,
      "reset": 6636,
      "Ġ'<": 6637,
      "ĠFast": 6638,
      "Ġresp": 6639,
      "ĠBar": 6640,
      "Ġtraditional": 6641,
      "Ġtruly": 6642,
      "Ġsection": 6643,
      "ĠMedium": 6644,
      "Ġbegin": 6645,
      "Ġbelong": 6646,
      "Ġbeyond": 6647,
      "ĠWord": 6648,
      "ĠWAL": 6649,
      "upabase": 6650,
      "Ġstraight": 6651,
      "ificate": 6652,
      "aves": 6653,
      "Ġ$\\": 6654,
      "Ġ/>;": 6655,
      "Ġchecklist": 6656,
      "Ġspecify": 6657,
      "Ġarbit": 6658,
      "Ġacquire": 6659,
      "ĠJust": 6660,
      "Ġmultiprocessing": 6661,
      "ploys": 6662,
      "else": 6663,
      "Ġroles": 6664,
      "english": 6665,
      "ĠProfile": 6666,
      "ogn": 6667,
      "Ġowned": 6668,
      "Ġworse": 6669,
      "httpx": 6670,
      "Ġrefill": 6671,
      "Ġdeployed": 6672,
      "ĠDelete": 6673,
      "ĠrateLimit": 6674,
      "gorithms": 6675,
      "Ġ384": 6676,
      "Ġseeing": 6677,
      "Ġpartic": 6678,
      "Ġcomputation": 6679,
      "Ġmonorepo": 6680,
      "Ġtargets": 6681,
      "ĠSequ": 6682,
      "Ġadjust": 6683,
      "âĤĥ": 6684,
      "rowsers": 6685,
      "Ġtraversal": 6686,
      "handler": 6687,
      "ĠEnable": 6688,
      "Ġexecut": 6689,
      "PLO": 6690,
      "Authorization": 6691,
      "Ġhostname": 6692,
      "Ġrouting": 6693,
      "Ġhitting": 6694,
      "Ġcoverage": 6695,
      "Ġdescribes": 6696,
      "Postgres": 6697,
      "Ġreceived": 6698,
      "Ġextraction": 6699,
      "Ġprinciples": 6700,
      "Ġrecommendation": 6701,
      "Recomm": 6702,
      "Ġstudents": 6703,
      "Ġstdout": 6704,
      "Ġgrowing": 6705,
      "Ġrepeated": 6706,
      "Decision": 6707,
      "SIZE": 6708,
      "Ġcharset": 6709,
      "STRIPE": 6710,
      "Ġprecision": 6711,
      "Ġinternally": 6712,
      "CURRENT": 6713,
      "ASCADE": 6714,
      "Url": 6715,
      "Ġcoercion": 6716,
      "ĠCRUD": 6717,
      "Ġarbitrary": 6718,
      "CURRENTLY": 6719,
      "-${": 6720,
      ">&": 6721,
      "Bob": 6722,
      "Boundary": 6723,
      "EK": 6724,
      "Iter": 6725,
      "Java": 6726,
      "Killed": 6727,
      "Prom": 6728,
      "Route": 6729,
      "Something": 6730,
      "Todo": 6731,
      "bf": 6732,
      "bcrypt": 6733,
      "co": 6734,
      "focus": 6735,
      "friendly": 6736,
      "gular": 6737,
      "hidden": 6738,
      "messages": 6739,
      "ring": 6740,
      "sent": 6741,
      "scal": 6742,
      "tled": 6743,
      "vironment": 6744,
      "Ã¤": 6745,
      "Ðº": 6746,
      "Ġing": 6747,
      "Ġign": 6748,
      "orrow": 6749,
      "Ġsn": 6750,
      "Ġswe": 6751,
      "Ġmath": 6752,
      "Ġpotential": 6753,
      "ouble": 6754,
      "Ġhorizontal": 6755,
      "Ġhints": 6756,
      "isf": 6757,
      "--|": 6758,
      "osing": 6759,
      "idirection": 6760,
      "uri": 6761,
      "dem": 6762,
      "ĠCur": 6763,
      "ĠSplit": 6764,
      "ĠAction": 6765,
      "otes": 6766,
      "select": 6767,
      "cell": 6768,
      "ands": 6769,
      "Ġdeploys": 6770,
      "ĠFocus": 6771,
      "Ġrespect": 6772,
      "ĠOFFSET": 6773,
      "ĠUT": 6774,
      "ĠEvents": 6775,
      "irt": 6776,
      "ustry": 6777,
      "iving": 6778,
      "ĠuseC": 6779,
      "Ġtestable": 6780,
      "Ġalong": 6781,
      "indows": 6782,
      "available": 6783,
      "Ġsetting": 6784,
      "ĠReal": 6785,
      "strong": 6786,
      "ours": 6787,
      "Ġidle": 6788,
      "Ġuni": 6789,
      "Ġunhandled": 6790,
      "$$\\": 6791,
      "ĠgetUser": 6792,
      "ĠInside": 6793,
      "Ġrobust": 6794,
      "OMP": 6795,
      "Ġsubsequ": 6796,
      "Ġindexed": 6797,
      "Ġends": 6798,
      "Ġ503": 6799,
      "Ġexpired": 6800,
      "Ġsoft": 6801,
      "Ġframe": 6802,
      "Ġcaches": 6803,
      "Ġentity": 6804,
      "Ġtooling": 6805,
      "Ġintent": 6806,
      "Ġarrays": 6807,
      "Ġeditor": 6808,
      "Ġ992": 6809,
      "Ġknowing": 6810,
      "control": 6811,
      "Ġmanagers": 6812,
      "Ġtried": 6813,
      "limited": 6814,
      "requires": 6815,
      "Ġoptimal": 6816,
      "Ġconflicting": 6817,
      "Service": 6818,
      "ancy": 6819,
      "Ġtempor": 6820,
      "Ġpiec": 6821,
      "Ġblank": 6822,
      "names": 6823,
      "refill": 6824,
      "ĠhttpOnly": 6825,
      "Ġslightly": 6826,
      "Ġanalytics": 6827,
      "Ġoccurrenc": 6828,
      "Ġnarrows": 6829,
      "Ġintegrity": 6830,
      "Local": 6831,
      "threaded": 6832,
      "Ġreplicas": 6833,
      "Using": 6834,
      "Group": 6835,
      "ĠAuthorization": 6836,
      "ĠFrontend": 6837,
      "Ġremoving": 6838,
      "Ġenumerate": 6839,
      "Ġexpiry": 6840,
      "Ġrepeat": 6841,
      "Submit": 6842,
      "ĠDisplay": 6843,
      "Ġenabled": 6844,
      "ology": 6845,
      "Ġscenarios": 6846,
      "Ġpromise": 6847,
      "Ġguarantees": 6848,
      "ĠApiResponse": 6849,
      "Ġaccidentally": 6850,
      "ĠUSING": 6851,
      "idirectional": 6852,
      "Ġoccurrences": 6853,
      "'}": 6854,
      ",\"": 6855,
      "/<": 6856,
      "48": 6857,
      "Date": 6858,
      "Fl": 6859,
      "IF": 6860,
      "IO": 6861,
      "Missing": 6862,
      "OF": 6863,
      "Object": 6864,
      "RES": 6865,
      "SHA": 6866,
      "USER": 6867,
      "ai": 6868,
      "better": 6869,
      "effect": 6870,
      "firm": 6871,
      "gather": 6872,
      "iation": 6873,
      "larg": 6874,
      "lambda": 6875,
      "prit": 6876,
      "pdf": 6877,
      "payload": 6878,
      "shrink": 6879,
      "tax": 6880,
      "{\\": 6881,
      "Ð´": 6882,
      "inherit": 6883,
      "Ġcul": 6884,
      "Ġcelsius": 6885,
      "Ġssl": 6886,
      "Ġsaid": 6887,
      "itel": 6888,
      "Ġmal": 6889,
      "Ġmus": 6890,
      "Ġhover": 6891,
      "Ġhighest": 6892,
      "Ġreact": 6893,
      "Ġreplay": 6894,
      "Ġreload": 6895,
      "rot": 6896,
      "usable": 6897,
      "osis": 6898,
      "icsearch": 6899,
      "imation": 6900,
      "Ġstripe": 6901,
      "Ġstops": 6902,
      "Ġ225": 6903,
      "userData": 6904,
      "Ġforces": 6905,
      "Ġforward": 6906,
      "pposite": 6907,
      "ĠCA": 6908,
      "ĠCall": 6909,
      "ĠCASCADE": 6910,
      "Ġ310": 6911,
      "ĠAb": 6912,
      "Ġheavy": 6913,
      "emcached": 6914,
      "Ġ524": 6915,
      "Ġ*{": 6916,
      "Ġyes": 6917,
      "challenge": 6918,
      "()[\"": 6919,
      "Ġvoid": 6920,
      "Ġexponential": 6921,
      "endpoint": 6922,
      "oku": 6923,
      "tex": 6924,
      "respon": 6925,
      "ĠFound": 6926,
      "ĠFull": 6927,
      "peline": 6928,
      "ĠName": 6929,
      "ueue": 6930,
      "assic": 6931,
      "Ġtradeoff": 6932,
      "Ġspike": 6933,
      "into": 6934,
      "Ġ}`": 6935,
      "Ġ}}": 6936,
      "Ġnote": 6937,
      "ĠLinux": 6938,
      "Ġcluster": 6939,
      "ĠHSTS": 6940,
      "apple": 6941,
      "appro": 6942,
      "forEach": 6943,
      "('');": 6944,
      "getUser": 6945,
      "Ġpricing": 6946,
      "perparam": 6947,
      "ffort": 6948,
      "ĠRequired": 6949,
      "Ġrunner": 6950,
      "Ġupgrade": 6951,
      "Ġinstalled": 6952,
      "Ġpreview": 6953,
      "Ġfixing": 6954,
      "Ġ1200": 6955,
      "Ġ152": 6956,
      "Ġ180": 6957,
      "Ġ187": 6958,
      "Ġcomprom": 6959,
      "ĠExpected": 6960,
      "RECT": 6961,
      "udget": 6962,
      "Ġsubm": 6963,
      "Ġ301": 6964,
      "Ġ303": 6965,
      "Ġ307": 6966,
      "Ġground": 6967,
      "argon": 6968,
      "shadow": 6969,
      "Ġ245": 6970,
      "Probe": 6971,
      "Ġwraps": 6972,
      "letter": 6973,
      "ĠTrait": 6974,
      "Ġslowest": 6975,
      "notifications": 6976,
      "retries": 6977,
      "Ġ602": 6978,
      "Ġ603": 6979,
      "Ġdecimal": 6980,
      "Ġbecome": 6981,
      "Ġoperational": 6982,
      "Comp": 6983,
      "Ġ961": 6984,
      "Ġ583": 6985,
      "Ġ586": 6986,
      "Ġ589": 6987,
      "Ġ285": 6988,
      "Ġ&'": 6989,
      "Ġ481": 6990,
      "Ġ482": 6991,
      "Ġ622": 6992,
      "Ġ233": 6993,
      "Ġ692": 6994,
      "Ġ693": 6995,
      "ollows": 6996,
      "Ġ987": 6997,
      "Alternative": 6998,
      "Ġholding": 6999,
      "Ġ639": 7000,
      "ĠApply": 7001,
      "Ġ667": 7002,
      "ĠTypeError": 7003,
      "Ġ883": 7004,
      "Ġ322": 7005,
      "âĶĢâĶ¬": 7006,
      "gression": 7007,
      "Ġ389": 7008,
      "Ġ375": 7009,
      "ĠClick": 7010,
      "Ġ850": 7011,
      "Ġ651": 7012,
      "Ġ655": 7013,
      "Ġ672": 7014,
      "Ġ567": 7015,
      "Ġ944": 7016,
      "Ġ970": 7017,
      "Ġnaming": 7018,
      "scriptions": 7019,
      "ĠTesting": 7020,
      "Ġadvant": 7021,
      "ĠErrors": 7022,
      "ĠAlternative": 7023,
      "ĠSQLite": 7024,
      "Ġresponsive": 7025,
      "\"})": 7026,
      "Ġcustomer": 7027,
      "fetchone": 7028,
      "|------------|": 7029,
      "ĠINTER": 7030,
      "metic": 7031,
      "OUR": 7032,
      "Ġhighlight": 7033,
      "boundary": 7034,
      "Ġbroad": 7035,
      "âĢ¢": 7036,
      "Ġtraceback": 7037,
      "Ġconsumed": 7038,
      "Ġdesigned": 7039,
      "ĠDevOps": 7040,
      "Ġlinks": 7041,
      "Ġconcern": 7042,
      "lasticsearch": 7043,
      "ĠStatement": 7044,
      "ĠRecomm": 7045,
      "Ġdevelopers": 7046,
      "ĠDecision": 7047,
      "Ġparallelism": 7048,
      "Settled": 7049,
      "ĠIterate": 7050,
      "ĊĠĠĠĠĠĠĠĠĠĠĠĠĠĠĠĠĠĠĠĠĠĠĠ": 7051,
      "LICT": 7052,
      "justify": 7053,
      "Ġvisible": 7054,
      "expires": 7055,
      "expired": 7056,
      "Ġinvestigating": 7057,
      "Ġenforce": 7058,
      "Without": 7059,
      "signup": 7060,
      "enefits": 7061,
      "Ġremoved": 7062,
      "ĳâĸĳâĸĳâĸĳâĸ": 7063,
      "writing": 7064,
      "Ġrelationship": 7065,
      "Ġdriver": 7066,
      "connections": 7067,
      "highlight": 7068,
      "Ġexpert": 7069,
      "Ġescap": 7070,
      "ĠMinimum": 7071,
      "unctools": 7072,
      "Ġsynchronous": 7073,
      "ĠDepend": 7074,
      "features": 7075,
      "Ġcarbon": 7076,
      "Ġreproduce": 7077,
      "Ġconverts": 7078,
      "Ġpriority": 7079,
      "Ġ'./": 7080,
      "ĠAuthentication": 7081,
      "CLUD": 7082,
      "ĠMaximum": 7083,
      "ĠERROR": 7084,
      "evil": 7085,
      "ĠFailure": 7086,
      "ĠSeparate": 7087,
      "ĠREADME": 7088,
      "Ġculprit": 7089,
      "itelist": 7090,
      "\");": 7091,
      "(\\": 7092,
      "39": 7093,
      "300": 7094,
      "73": 7095,
      ">,": 7096,
      "Bearer": 7097,
      "CR": 7098,
      "CSS": 7099,
      "DM": 7100,
      "Determine": 7101,
      "Flow": 7102,
      "Failed": 7103,
      "II": 7104,
      "Middleware": 7105,
      "Py": 7106,
      "Pract": 7107,
      "PATH": 7108,
      "So": 7109,
      "Then": 7110,
      "binary": 7111,
      "critical": 7112,
      "failed": 7113,
      "hard": 7114,
      "ias": 7115,
      "iest": 7116,
      "iers": 7117,
      "jpe": 7118,
      "large": 7119,
      "launch": 7120,
      "pine": 7121,
      "sk": 7122,
      "scri": 7123,
      "ym": 7124,
      "{.": 7125,
      "}$": 7126,
      "}}": 7127,
      "erday": 7128,
      "insert": 7129,
      "internal": 7130,
      "Ġtail": 7131,
      "Ġtick": 7132,
      "Ġcard": 7133,
      "Ġcheap": 7134,
      "orize": 7135,
      "Ġsk": 7136,
      "Ġsample": 7137,
      "Ġsafer": 7138,
      "eness": 7139,
      "enames": 7140,
      "itigation": 7141,
      "Ġdraw": 7142,
      "Ġmot": 7143,
      "Ġfall": 7144,
      "alpine": 7145,
      "Ġpure": 7146,
      "Ġpts": 7147,
      "Ġhonest": 7148,
      "Ġbank": 7149,
      "isks": 7150,
      "Ġreass": 7151,
      "Ġtoday": 7152,
      "Ġtoggle": 7153,
      "acem": 7154,
      "âĶĢâĶĢâĶĢâĶĺ": 7155,
      "Ġcodes": 7156,
      "amil": 7157,
      "Ġopposite": 7158,
      "Ġstay": 7159,
      "Ġstyles": 7160,
      "iful": 7161,
      "urally": 7162,
      "esterday": 7163,
      "ĠTH": 7164,
      "ĠTe": 7165,
      "ĠTim": 7166,
      "ĠTemplate": 7167,
      "ĠTurborepo": 7168,
      "ĠCH": 7169,
      "ĠCelsius": 7170,
      "Ġ3000": 7171,
      "ĠAP": 7172,
      "ĠAre": 7173,
      "istics": 7174,
      "Ġgenu": 7175,
      "une": 7176,
      "agement": 7177,
      "uman": 7178,
      "Ġyear": 7179,
      "Ġyesterday": 7180,
      "abor": 7181,
      "Ġhasn": 7182,
      "ĠRa": 7183,
      "Ġ'';": 7184,
      "outline": 7185,
      "apis": 7186,
      "apse": 7187,
      "Ġboolean": 7188,
      "ĠBad": 7189,
      "ĠBusiness": 7190,
      "ĠBasic": 7191,
      "ĠLayer": 7192,
      "Ġaltern": 7193,
      "Ġserves": 7194,
      "oneline": 7195,
      "exception": 7196,
      "Ġ$$": 7197,
      "lowercase": 7198,
      "Ġvert": 7199,
      "Ġvertex": 7200,
      "ourse": 7201,
      "ĠVisual": 7202,
      "Ġunchanged": 7203,
      "Ġspecified": 7204,
      "Ġplay": 7205,
      "Ġprefer": 7206,
      "backend": 7207,
      "Ġ150": 7208,
      "locked": 7209,
      "prise": 7210,
      "101": 7211,
      "logs": 7212,
      "Ġsubscri": 7213,
      "show": 7214,
      "ugins": 7215,
      "setup": 7216,
      "parison": 7217,
      "ĠChecklist": 7218,
      "Product": 7219,
      "Ġexpire": 7220,
      "Ġexposed": 7221,
      "Ġforms": 7222,
      "Ġdisc": 7223,
      "Ġoverflow": 7224,
      "Ġ8080": 7225,
      "Ġfactors": 7226,
      "Ġinterf": 7227,
      "fonts": 7228,
      "1100": 7229,
      "Ġdirectories": 7230,
      "filing": 7231,
      "filename": 7232,
      "Ġraises": 7233,
      "flare": 7234,
      "ĠHowever": 7235,
      "Ġcontents": 7236,
      "Ġ364": 7237,
      "ĠXML": 7238,
      "Ġsignup": 7239,
      "Ġattackers": 7240,
      "Ġpassing": 7241,
      "Cloud": 7242,
      "ĠONE": 7243,
      "scription": 7244,
      "Ġdiagr": 7245,
      "clear": 7246,
      "Ġwriter": 7247,
      "ĠNote": 7248,
      "Ġ[];": 7249,
      "ĠArchitectural": 7250,
      "Ġtypically": 7251,
      "ĠFinding": 7252,
      "Ġcompletely": 7253,
      "ĠTimeout": 7254,
      "ĠScale": 7255,
      "autiful": 7256,
      "ĠÐ´": 7257,
      "Ġnamespace": 7258,
      "ĠQuick": 7259,
      "âĶĢâĶĢâĶĢâĶĢâĶĢâĶĢâĶĢâĶĢâĶĢâĶĢâĶĢâĶĢâĶĢâĶĢâĶ": 7260,
      "Ġdiffers": 7261,
      "ĠThree": 7262,
      "does": 7263,
      "ĠRecursive": 7264,
      "ĠAspect": 7265,
      "ooth": 7266,
      "ĠALLOWED": 7267,
      "Ġrejects": 7268,
      "(`/": 7269,
      "ĠBIGSERIAL": 7270,
      "ĠFormula": 7271,
      "ĠLevel": 7272,
      "Ġvolumes": 7273,
      "fitting": 7274,
      "Ġdigits": 7275,
      "depends": 7276,
      "Ġclarification": 7277,
      "ological": 7278,
      "Strategy": 7279,
      "owerCase": 7280,
      "ikes": 7281,
      "ĠMetric": 7282,
      "WORD": 7283,
      "ĠSmall": 7284,
      "copy": 7285,
      "Ġsanitize": 7286,
      "ĠMeas": 7287,
      "Ġcoupling": 7288,
      "Ġcartesian": 7289,
      "Important": 7290,
      "Ġfuture": 7291,
      "invoice": 7292,
      "toLowerCase": 7293,
      "googleapis": 7294,
      "recursive": 7295,
      "ingerprint": 7296,
      "jpeg": 7297,
      "acemalloc": 7298,
      "Ġgenuine": 7299,
      ")?;": 7300,
      "35": 7301,
      "LO": 7302,
      "Message": 7303,
      "Migration": 7304,
      "Sw": 7305,
      "VG": 7306,
      "cron": 7307,
      "dri": 7308,
      "fixt": 7309,
      "fahrenheit": 7310,
      "jo": 7311,
      "jpg": 7312,
      "jwt": 7313,
      "lation": 7314,
      "ng": 7315,
      "pem": 7316,
      "person": 7317,
      "sv": 7318,
      "some": 7319,
      "tion": 7320,
      "xml": 7321,
      "Ð»": 7322,
      "Ñĥ": 7323,
      "Ñĭ": 7324,
      "ÑĮ": 7325,
      "âģ": 7326,
      "ĊĊĠĠĠĠĠ": 7327,
      "inition": 7328,
      "interval": 7329,
      "Ġtaking": 7330,
      "Ġax": 7331,
      "Ġaws": 7332,
      "stro": 7333,
      "Ġsudo": 7334,
      "Ġmemo": 7335,
      "Ġmutable": 7336,
      "Ġfar": 7337,
      "Ġful": 7338,
      "Ġfactory": 7339,
      "Ġpower": 7340,
      "Ġban": 7341,
      "âĶľ": 7342,
      "Ġinject": 7343,
      "Ġinventory": 7344,
      "icious": 7345,
      "img": 7346,
      "imak": 7347,
      "Ġcop": 7348,
      "aming": 7349,
      "Ġste": 7350,
      "Ġstoring": 7351,
      "decl": 7352,
      "deploy": 7353,
      "depth": 7354,
      "ĠColum": 7355,
      "ĠCelery": 7356,
      "ĠCaddy": 7357,
      "ĠSy": 7358,
      "Ġgrows": 7359,
      "omatic": 7360,
      "olutions": 7361,
      "chain": 7362,
      "ĠPoint": 7363,
      "ĠPool": 7364,
      "Ġrisks": 7365,
      "Ġ{}\",": 7366,
      "ĠRole": 7367,
      "tect": 7368,
      "resource": 7369,
      "resolve": 7370,
      "ĠFilter": 7371,
      "romatic": 7372,
      "apes": 7373,
      "ailhog": 7374,
      "assad": 7375,
      "ĠEnt": 7376,
      "ĠEnc": 7377,
      "Ġshapes": 7378,
      "Ġtraces": 7379,
      "Ġselection": 7380,
      "ĠMigrate": 7381,
      "ĠMemcached": 7382,
      "encrypt": 7383,
      "ĠLong": 7384,
      "forward": 7385,
      "too": 7386,
      "\")?;": 7387,
      "Ġlogical": 7388,
      "Ġworkspaces": 7389,
      "oney": 7390,
      "need": 7391,
      "Ġqual": 7392,
      "ĠsetCount": 7393,
      "cli": 7394,
      "Ġaddr": 7395,
      "ĠVari": 7396,
      "property": 7397,
      "profiler": 7398,
      "Ġcheckout": 7399,
      "Ġunrelated": 7400,
      "Ġrequested": 7401,
      "tsvector": 7402,
      "ĠĠĠĠĠĠĠĠĠĠĠĠĠĠĠĠĠĠĠĠĠĠĠĠĠĠĠĠ": 7403,
      "|-----------|": 7404,
      "ĠInsight": 7405,
      "Ġstatements": 7406,
      "ĠStream": 7407,
      "Forwarded": 7408,
      "Ġcompatible": 7409,
      "Ġsubmit": 7410,
      "igrations": 7411,
      "Ġtransfer": 7412,
      "ĠProtocol": 7413,
      "ALL": 7414,
      "greet": 7415,
      "Ġfilesystem": 7416,
      "settings": 7417,
      "Ġ248": 7418,
      "Ġjustify": 7419,
      "Ġ578": 7420,
      "Ġrequirement": 7421,
      "Cons": 7422,
      "Ġsigned": 7423,
      "Ġzone": 7424,
      "Ġpassed": 7425,
      "pense": 7426,
      "Ġ755": 7427,
      "ĠImport": 7428,
      "Ġcorrectness": 7429,
      "ĠTestClient": 7430,
      "Ġreviews": 7431,
      "ĠCharacter": 7432,
      "ĠPRs": 7433,
      "Ġdetailed": 7434,
      "Ġsequences": 7435,
      "Ġdiver": 7436,
      "ĠwindowMs": 7437,
      "Ġmathematical": 7438,
      "metadata": 7439,
      "ĠUnique": 7440,
      "OUT": 7441,
      "Ġhigher": 7442,
      "Ġeffectively": 7443,
      "Ġconfusion": 7444,
      "Need": 7445,
      "Ġpeer": 7446,
      "slim": 7447,
      "Ġborrows": 7448,
      "Ġrisky": 7449,
      "Ġmarkdown": 7450,
      "Ġphysical": 7451,
      "Ġcentering": 7452,
      "Ġinvalidation": 7453,
      "Ġextension": 7454,
      "ĠHandling": 7455,
      "Ġlifetimes": 7456,
      "ACL": 7457,
      "sorted": 7458,
      "porate": 7459,
      "Ġoffset": 7460,
      "ĠIterable": 7461,
      "rendered": 7462,
      "ĠCONCURRENTLY": 7463,
      "Ġquantum": 7464,
      "consistent": 7465,
      "Ġassumptions": 7466,
      "ounced": 7467,
      "returns": 7468,
      "Ġcryptograph": 7469,
      "Ġrepresentation": 7470,
      "Ġplaintext": 7471,
      "Ġrevoked": 7472,
      "VEL": 7473,
      "ĠAccept": 7474,
      "Ġdeadlock": 7475,
      "Ġdeclar": 7476,
      "unctuation": 7477,
      "Ġmsg": 7478,
      "Ġtruncated": 7479,
      "duplicates": 7480,
      "Ġseverity": 7481,
      "Ġmonths": 7482,
      "customer": 7483,
      "rounds": 7484,
      "WEEK": 7485,
      "ĠFlask": 7486,
      "Ġdataclasses": 7487,
      "enchmarks": 7488,
      "ĠPosition": 7489,
      "Creator": 7490,
      "Ġcoordinator": 7491,
      "Ġperfect": 7492,
      "============================================================": 7493,
      "ajor": 7494,
      "ĠOtherwise": 7495,
      "Ġalphab": 7496,
      "Ġsatisf": 7497,
      "Ġhyperparam": 7498,
      "ĠCONFLICT": 7499,
      "Ġindividual": 7500,
      "Ġimplies": 7501,
      "riteria": 7502,
      "Ġsweet": 7503,
      "irtual": 7504,
      "âĢ¢+": 7505,
      "Ġescaping": 7506,
      "CLUDED": 7507,
      "Practical": 7508,
      "(--": 7509,
      ")**:": 7510,
      "05": 7511,
      "636": 7512,
      "72": 7513,
      "=[\"": 7514,
      ">`,": 7515,
      ">${": 7516,
      "At": 7517,
      "Act": 7518,
      "ARE": 7519,
      "Bad": 7520,
      "BAC": 7521,
      "Min": 7522,
      "MAC": 7523,
      "NER": 7524,
      "OI": 7525,
      "SL": 7526,
      "SM": 7527,
      "Su": 7528,
      "Single": 7529,
      "bi": 7530,
      "prom": 7531,
      "rm": 7532,
      "sed": 7533,
      "socket": 7534,
      "vari": 7535,
      "vlet": 7536,
      "whe": 7537,
      "xic": 7538,
      "}\\": 7539,
      "Â·": 7540,
      "âĪ": 7541,
      "ĠÏ": 7542,
      "erge": 7543,
      "Ġturn": 7544,
      "Ġtier": 7545,
      "reat": 7546,
      "recommend": 7547,
      "staging": 7548,
      "Ġche": 7549,
      "Ġcas": 7550,
      "orn": 7551,
      "orter": 7552,
      "original": 7553,
      "Ġsens": 7554,
      "lets": 7555,
      "Ġmph": 7556,
      "Ġmemb": 7557,
      "Ġfreed": 7558,
      "Ġpo": 7559,
      "Ġpid": 7560,
      "Ġbrief": 7561,
      "arily": 7562,
      "arStack": 7563,
      "Ġwarm": 7564,
      "Ġrewrite": 7565,
      "Ġeffort": 7566,
      "Ġinf": 7567,
      "Ġinser": 7568,
      "icode": 7569,
      "that": 7570,
      "access": 7571,
      "Ġlose": 7572,
      "Ġlaunch": 7573,
      "ama": 7574,
      "Ġthough": 7575,
      "urpose": 7576,
      "ĠTR": 7577,
      "ĠToo": 7578,
      "ĠTCP": 7579,
      "ĠSome": 7580,
      "ĠSomething": 7581,
      "ĠSPA": 7582,
      "ĠSimpler": 7583,
      "-----": 7584,
      "istency": 7585,
      "separ": 7586,
      "Ġprops": 7587,
      "cha": 7588,
      "ĠPayment": 7589,
      "Ġ625": 7590,
      "ried": 7591,
      "ĠRS": 7592,
      "ĠRow": 7593,
      "ĠRoll": 7594,
      "ĠDON": 7595,
      "ĠNon": 7596,
      "ayments": 7597,
      "ĠBody": 7598,
      "Ġship": 7599,
      "Ġtracing": 7600,
      "serial": 7601,
      "ĠMock": 7602,
      "Ġcharge": 7603,
      "upgrade": 7604,
      "Ġcls": 7605,
      "toFixed": 7606,
      "avoid": 7607,
      "Ġ104": 7608,
      "comments": 7609,
      "__`": 7610,
      "strain": 7611,
      "structure": 7612,
      "prof": 7613,
      "Ġminim": 7614,
      "Ġnoon": 7615,
      "Ġinstalls": 7616,
      "enses": 7617,
      "Ġfilenames": 7618,
      "ached": 7619,
      "Ġproduce": 7620,
      "1024": 7621,
      "Ġ161": 7622,
      "Ġordered": 7623,
      "Ġ130": 7624,
      "Ġ257": 7625,
      "ship": 7626,
      "Ġmodified": 7627,
      "Ġmoderate": 7628,
      "ĠTrack": 7629,
      "Ġelapsed": 7630,
      "Ġ604": 7631,
      "Exit": 7632,
      "ighter": 7633,
      "Ġenters": 7634,
      "Ġ968": 7635,
      "typeof": 7636,
      "Ġintrodu": 7637,
      "ĠNoSQL": 7638,
      "Ġissu": 7639,
      "Ġletter": 7640,
      "Ġ487": 7641,
      "Ġbracket": 7642,
      "Ġ623": 7643,
      "Ġequation": 7644,
      "roless": 7645,
      "Ġ337": 7646,
      "Always": 7647,
      "Ġ422": 7648,
      "Ġearned": 7649,
      "Ġ869": 7650,
      "Ġcollections": 7651,
      "Ġ713": 7652,
      "prevent": 7653,
      "Ġgreed": 7654,
      "Ġ936": 7655,
      "Ġdistribution": 7656,
      "Ġ731": 7657,
      "Ġ736": 7658,
      "Ġ855": 7659,
      "ĠQueue": 7660,
      "Ġsigns": 7661,
      "Ġsignatures": 7662,
      "Ġregion": 7663,
      "Ġ670": 7664,
      "echn": 7665,
      "Ġ531": 7666,
      "Ġiterable": 7667,
      "Ġ774": 7668,
      "Ġ948": 7669,
      "Ġ645": 7670,
      "starts": 7671,
      "ĠSelection": 7672,
      "scripts": 7673,
      "ĠChange": 7674,
      "ĠChrome": 7675,
      "Ġhardware": 7676,
      "Ġconditional": 7677,
      "authorization": 7678,
      "redient": 7679,
      "Ġtyped": 7680,
      "Ġrolling": 7681,
      "ĠGeneral": 7682,
      "Original": 7683,
      "while": 7684,
      "Ġblame": 7685,
      "ĠLocal": 7686,
      "NCE": 7687,
      "Ġconsume": 7688,
      "========================================": 7689,
      "slice": 7690,
      "ĠThird": 7691,
      "ĠAsync": 7692,
      "Generator": 7693,
      "Ġreduce": 7694,
      "Ġredirects": 7695,
      "relation": 7696,
      "Ġconverted": 7697,
      "allowed": 7698,
      "Any": 7699,
      "Analyze": 7700,
      "pecific": 7701,
      "Ġyields": 7702,
      "ecutive": 7703,
      "Ġarrives": 7704,
      "ĠParallel": 7705,
      "MAX": 7706,
      "ĠMySQL": 7707,
      "Ġgradually": 7708,
      "timestamp": 7709,
      "Ġexhaustion": 7710,
      "Ġmoved": 7711,
      "Performance": 7712,
      "Ġbursts": 7713,
      "duplicate": 7714,
      "Ġpopular": 7715,
      "Ġaggregation": 7716,
      "Depends": 7717,
      "iques": 7718,
      "Diagn": 7719,
      "Ġnaturally": 7720,
      "arterly": 7721,
      "amiliar": 7722,
      "ĠTeam": 7723,
      "Ġgenuinely": 7724,
      "Ġcopies": 7725,
      "$(": 7726,
      ")!": 7727,
      ",))": 7728,
      "21": 7729,
      "26": 7730,
      "28": 7731,
      ":\")": 7732,
      "AV": 7733,
      "Col": 7734,
      "Custom": 7735,
      "Equal": 7736,
      "FS": 7737,
      "Ins": 7738,
      "Optim": 7739,
      "Path": 7740,
      "Please": 7741,
      "Since": 7742,
      "Upload": 7743,
      "[:": 7744,
      "[^": 7745,
      "case": 7746,
      "cast": 7747,
      "di": 7748,
      "doc": 7749,
      "eager": 7750,
      "gth": 7751,
      "iB": 7752,
      "ker": 7753,
      "ls": 7754,
      "missing": 7755,
      "nav": 7756,
      "pagination": 7757,
      "rame": 7758,
      "range": 7759,
      "ying": 7760,
      "ĠðŁ": 7761,
      "Ġaromatic": 7762,
      "atives": 7763,
      "ĠcProfile": 7764,
      "Ġcargo": 7765,
      "Ġcumulative": 7766,
      "Ġscreen": 7767,
      "Ġsalt": 7768,
      "ened": 7769,
      "Ġmoney": 7770,
      "Ġfake": 7771,
      "Ġfires": 7772,
      "Ġfamily": 7773,
      "Ġfoo": 7774,
      "Ġfollows": 7775,
      "alog": 7776,
      "alert": 7777,
      "Ġps": 7778,
      "Ġpin": 7779,
      "Ġpointer": 7780,
      "Ġpyproject": 7781,
      "outers": 7782,
      "Ġhab": 7783,
      "Ġhref": 7784,
      "Ġhalf": 7785,
      "Ġbul": 7786,
      "arse": 7787,
      "Ġwarning": 7788,
      "Ġrebuild": 7789,
      "Ġincorrect": 7790,
      "Ġnet": 7791,
      "Ġlot": 7792,
      "etic": 7793,
      "ulate": 7794,
      "Ġstage": 7795,
      "ifest": 7796,
      "decre": 7797,
      "ĠTree": 7798,
      "ĠCNAME": 7799,
      "ithmetic": 7800,
      "term": 7801,
      "Ġproof": 7802,
      "oretical": 7803,
      "abil": 7804,
      "chars": 7805,
      "Ġrgba": 7806,
      "andint": 7807,
      "andbox": 7808,
      "plates": 7809,
      "()`,": 7810,
      "ĠROW": 7811,
      "Ġvenv": 7812,
      "Ġ900": 7813,
      "Ġexc": 7814,
      "ĠDE": 7815,
      "ĠDI": 7816,
      "ĠDi": 7817,
      "ĠDay": 7818,
      "Ġresets": 7819,
      "ĠOAuth": 7820,
      "ĠEnd": 7821,
      "encv": 7822,
      "Ġhelps": 7823,
      "ĠHMAC": 7824,
      "Ġalive": 7825,
      "Ġalgorithms": 7826,
      "trace": 7827,
      "Ġcanary": 7828,
      "These": 7829,
      "Ġmeet": 7830,
      "\"))": 7831,
      "negative": 7832,
      "component": 7833,
      "clusion": 7834,
      "Ġtimeline": 7835,
      "ĠVPS": 7836,
      "ĠVPC": 7837,
      "Ġminute": 7838,
      "ensions": 7839,
      "Ġreadability": 7840,
      "ĠĠĠĠĠĠĠĠĠĠĠĠĠĠĠĠĠĠĠĠĠĠĠĠĠ": 7841,
      "Ġpredict": 7842,
      "Ġsolutions": 7843,
      "Ġ126": 7844,
      "ĠComput": 7845,
      "Inter": 7846,
      "âĶĢâĶĢâĶĢâĶĢâĶĢâĶĢâĶĢâĶĢâĶĢâĶĢâĶĢâĶĢâĶĢâĶĢâĶĢâĶĢâĶĢâĶĢâĶĢâĶĢ": 7847,
      "ĊĠĠĠĠĠĠĠĠĠĠĠĠĊĠĠĠĠĠĠĠĠĠĠĠ": 7848,
      "Ġabstr": 7849,
      "Ġ195": 7850,
      "Ġattribute": 7851,
      "setHeader": 7852,
      "Ġ240": 7853,
      "254": 7854,
      "Ġgeneric": 7855,
      "lette": 7856,
      "angu": 7857,
      "Ġupdating": 7858,
      "Explain": 7859,
      "Ġoperators": 7860,
      "Ġ484": 7861,
      "ĠAppError": 7862,
      "âĶĢâĶ¼": 7863,
      "}\")]": 7864,
      "mitt": 7865,
      "Ġ443": 7866,
      "asyncio": 7867,
      "scroll": 7868,
      "ercise": 7869,
      "boarding": 7870,
      "âĸ¡": 7871,
      "ĠYES": 7872,
      "ĠAlso": 7873,
      "Ġidentifies": 7874,
      "rength": 7875,
      "Ġwritten": 7876,
      "uplicate": 7877,
      "ĠPrimary": 7878,
      "isma": 7879,
      "rollback": 7880,
      "Ġremainder": 7881,
      "8080": 7882,
      "ĠÐº": 7883,
      "ĠSetup": 7884,
      "ĠBoard": 7885,
      "rency": 7886,
      "generate": 7887,
      "slots": 7888,
      "checkout": 7889,
      "install": 7890,
      "Ġslice": 7891,
      "Ġtracks": 7892,
      "}`;": 7893,
      "Ġhappening": 7894,
      "Ġfrequently": 7895,
      "ILL": 7896,
      "ĠIncorrect": 7897,
      "Ġfinishes": 7898,
      "Loop": 7899,
      "csrf": 7900,
      "digit": 7901,
      "Ġdrops": 7902,
      "Ġloses": 7903,
      "ĠSameSite": 7904,
      "Ġclosed": 7905,
      "Ġinvestigation": 7906,
      "CSRF": 7907,
      "crimin": 7908,
      "36000": 7909,
      "Ġenforces": 7910,
      "Ġassume": 7911,
      "Ġcomprehensive": 7912,
      "Array": 7913,
      "Ġsimilarity": 7914,
      "RateLimit": 7915,
      "Transition": 7916,
      "VALUES": 7917,
      "Ġdetected": 7918,
      "âķĲâķĲâķĲâķĲâķĲâķĲâķĲâķĲâķĲâķĲâķĲâķĲâķĲâķĲâķĲâķĲâķĲâķĲâķĲâķĲâķĲâķĲâķĲâķĲâķĲâķĲâķĲâķĲâķĲâķĲâķĲâķĲ": 7919,
      "Ġexperience": 7920,
      "Ġlistening": 7921,
      "Ġpurpose": 7922,
      "Ġrefactoring": 7923,
      "Ġtechnical": 7924,
      "Ġtechniques": 7925,
      "Ġterminal": 7926,
      "Ġtermination": 7927,
      "Ġcompletes": 7928,
      "Ġpreserves": 7929,
      "ĠPhase": 7930,
      "Ġneighbors": 7931,
      "Ġclauses": 7932,
      "olya": 7933,
      "ĠGuide": 7934,
      "feed": 7935,
      "=\"*.{": 7936,
      "Ġcentroid": 7937,
      "Ġorchestration": 7938,
      "Ġorchestrator": 7939,
      "Ġprecise": 7940,
      "Ġseveral": 7941,
      "WORK": 7942,
      "dotenv": 7943,
      "parser": 7944,
      "parsed": 7945,
      "stdin": 7946,
      "Ġ`==`": 7947,
      "Ġcertainly": 7948,
      "ĠAttacker": 7949,
      "6379": 7950,
      "Ġwastes": 7951,
      "Ġtuple": 7952,
      "Ġfixtures": 7953,
      "Ġdelegate": 7954,
      "Ġdangerous": 7955,
      "Ġconcatenation": 7956,
      "Ġfetches": 7957,
      "Ġtolerance": 7958,
      "ĠComprehension": 7959,
      "Ġ`===`": 7960,
      "Ġmypackage": 7961,
      "PLOAD": 7962,
      "Promise": 7963,
      "Ġcompromised": 7964,
      "fixture": 7965,
      "Ġfully": 7966,
      "assador": 7967,
      "\"\\": 7968,
      ")$$$": 7969,
      ".\")": 7970,
      "46": 7971,
      "58": 7972,
      "74": 7973,
      ":`": 7974,
      "AND": 7975,
      "Base": 7976,
      "Benefits": 7977,
      "Cy": 7978,
      "CPU": 7979,
      "Dashboard": 7980,
      "FO": 7981,
      "Function": 7982,
      "Gu": 7983,
      "Hard": 7984,
      "Kubernetes": 7985,
      "NING": 7986,
      "Oper": 7987,
      "RATE": 7988,
      "REST": 7989,
      "Root": 7990,
      "aCy": 7991,
      "browser": 7992,
      "billing": 7993,
      "cnt": 7994,
      "duration": 7995,
      "eper": 7996,
      "ka": 7997,
      "mac": 7998,
      "miss": 7999,
      "multiple": 8000,
      "png": 8001,
      "randint": 8002,
      "uro": 8003,
      "uck": 8004,
      "vable": 8005,
      "wards": 8006,
      "yl": 8007,
      "}/": 8008,
      "Ñı": 8009,
      "ining": 8010,
      "atar": 8011,
      "Ġsites": 8012,
      "Ġsquare": 8013,
      "Ġflo": 8014,
      "Ġfolder": 8015,
      "Ġhund": 8016,
      "Ġbak": 8017,
      "Ġbidirectional": 8018,
      "arrow": 8019,
      "Ġreusable": 8020,
      "Ġnecessary": 8021,
      "vec": 8022,
      "Ġcores": 8023,
      "idget": 8024,
      "Ġthreshold": 8025,
      "iguous": 8026,
      "ĠTO": 8027,
      "ĠTyp": 8028,
      "ĠTHE": 8029,
      "ĠCol": 8030,
      "ĠST": 8031,
      "ĠSp": 8032,
      "ĠSize": 8033,
      "Ġ\"<": 8034,
      "quer": 8035,
      "quis": 8036,
      "lling": 8037,
      "ecause": 8038,
      "Ġproced": 8039,
      "Ġprofiling": 8040,
      "Ġrates": 8041,
      "()`.": 8042,
      "rix": 8043,
      "ĠRET": 8044,
      "Ġexplanation": 8045,
      "ĠDROP": 8046,
      "Ġ''": 8047,
      "ĠFA": 8048,
      "outes": 8049,
      "Ġleading": 8050,
      "Ġ##": 8051,
      "ailing": 8052,
      "Ġattr": 8053,
      "ĠBudget": 8054,
      "ĠEdit": 8055,
      "Ġshift": 8056,
      "Ġsections": 8057,
      "ĠWor": 8058,
      "Ġnotify": 8059,
      "ĠuseMemo": 8060,
      "ĠLambda": 8061,
      "ĠLimak": 8062,
      "ĠHttp": 8063,
      "Ġcancel": 8064,
      "ube": 8065,
      "ĠGROUP": 8066,
      "toString": 8067,
      "aste": 8068,
      "(\"-": 8069,
      "comput": 8070,
      "exist": 8071,
      "ĠReport": 8072,
      "ĠRegular": 8073,
      "useState": 8074,
      "Ġ201": 8075,
      "ĠĠĠĠĠĠĠĠĠĠĠĠĠĠĠĠĠĠĠĠĠ": 8076,
      "|---------|": 8077,
      "Ġ124": 8078,
      "Ġmarks": 8079,
      "ĠExp": 8080,
      "Ġkeyword": 8081,
      "Ġactivity": 8082,
      "Ġlimiter": 8083,
      "Ġstarted": 8084,
      "shape": 8085,
      "ught": 8086,
      "'))": 8087,
      "')),": 8088,
      "Property": 8089,
      "Idx": 8090,
      "Ġsuite": 8091,
      "Ġsufficient": 8092,
      "Ġoverr": 8093,
      "month": 8094,
      "Ġpossib": 8095,
      "Ġlocked": 8096,
      "Ġinterse": 8097,
      "Ġinteractive": 8098,
      "Ġintermediate": 8099,
      "Ġworld": 8100,
      "ĠAnaly": 8101,
      "Ġrecover": 8102,
      "ertical": 8103,
      "actions": 8104,
      "Ġvariants": 8105,
      "'];": 8106,
      "ointers": 8107,
      "Ġdeploying": 8108,
      "Ġ665": 8109,
      "Ġwebhooks": 8110,
      "Ġcleaner": 8111,
      "Ġcleanly": 8112,
      "Ġpointing": 8113,
      "ĠClass": 8114,
      "Ġthinks": 8115,
      "ĠXOR": 8116,
      "Classic": 8117,
      "querySelector": 8118,
      "Ġhappy": 8119,
      "Ġflaky": 8120,
      "ARCH": 8121,
      "ĠShows": 8122,
      "Ġadjac": 8123,
      "Ġâīł": 8124,
      "Ġambig": 8125,
      "uncate": 8126,
      "redentials": 8127,
      "Ġblue": 8128,
      "compatible": 8129,
      "Ġglobally": 8130,
      "generacy": 8131,
      "ĠEnvironment": 8132,
      "packages": 8133,
      "ĠLogin": 8134,
      "Ġdivided": 8135,
      "ĠResults": 8136,
      "ĠInclude": 8137,
      "Ġvisual": 8138,
      "ĠWhile": 8139,
      "Ġwrapping": 8140,
      "Ġbottlenecks": 8141,
      "Ġviews": 8142,
      "dropdown": 8143,
      "armac": 8144,
      "Argument": 8145,
      "Ġjoining": 8146,
      "Ġscales": 8147,
      "ĠClear": 8148,
      "Ġmodifying": 8149,
      "Frame": 8150,
      "Ġdigit": 8151,
      "Ġmixed": 8152,
      "Ġclarity": 8153,
      "Ġquickly": 8154,
      "Ġcoordination": 8155,
      "Ġclicks": 8156,
      "Ġnatively": 8157,
      "Ġmoves": 8158,
      "Validation": 8159,
      "Ġsimulate": 8160,
      "authorized": 8161,
      "Parse": 8162,
      "Ġleads": 8163,
      "Ġfragment": 8164,
      "Design": 8165,
      "Ġdescriptions": 8166,
      "debug": 8167,
      "ĠSIGTERM": 8168,
      "Ġapplies": 8169,
      "Ġencrypted": 8170,
      "ĠMAX": 8171,
      "Ġshutdown": 8172,
      "authenticated": 8173,
      "Ġaccurate": 8174,
      "Ġstraightforward": 8175,
      "Ġparticip": 8176,
      "Ġsubsequent": 8177,
      "Ġpiece": 8178,
      "Ġinterfaces": 8179,
      "6366": 8180,
      "preventDefault": 8181,
      "Ġgreedy": 8182,
      "anguage": 8183,
      "WORKDIR": 8184,
      "Ġambiguous": 8185,
      "![": 8186,
      ".'": 8187,
      "315": 8188,
      "49": 8189,
      ":\",": 8190,
      "<'": 8191
    },
    "merges": [
      [
        "Ġ",
        "Ġ"
      ],
      [
        "e",
        "r"
      ],
      [
        "i",
        "n"
      ],
      [
        "Ġ",
        "t"
      ],
      [
        "Ġ",
        "a"
      ],
      [
        "o",
        "n"
      ],
      [
        "r",
        "e"
      ],
      [
        "h",
        "e"
      ],
      [
        "s",
        "t"
      ],
      [
        "a",
        "t"
      ],
      [
        "Ġ",
        "c"
      ],
      [
        "o",
        "r"
      ],
      [
        "ĠĠ",
        "ĠĠ"
      ],
      [
        "e",
        "s"
      ],
      [
        "Ġ",
        "s"
      ],
      [
        "e",
        "n"
      ],
      [
        "<",
        "|"
      ],
      [
        "|",
        ">"
      ],
      [
        "i",
        "t"
      ],
      [
        "a",
        "n"
      ],
      [
        "*",
        "*"
      ],
      [
        "Ġ",
        "d"
      ],
      [
        "l",
        "e"
      ],
      [
        "Ġ",
        "m"
      ],
      [
        "Ġ",
        "f"
      ],
      [
        "a",
        "l"
      ],
      [
        "Ġ",
        "="
      ],
      [
        "Ġ",
        "p"
      ],
      [
        "o",
        "u"
      ],
      [
        "Ġt",
        "he"
      ],
      [
        "Ġ",
        "h"
      ],
      [
        "in",
        "g"
      ],
      [
        "Ġ",
        "b"
      ],
      [
        "i",
        "on"
      ],
      [
        "ĠĠ",
        "Ġ"
      ],
      [
        "`",
        "`"
      ],
      [
        "a",
        "r"
      ],
      [
        "a",
        "s"
      ],
      [
        "i",
        "s"
      ],
      [
        "-",
        "-"
      ],
      [
        "Ġ",
        "w"
      ],
      [
        "Ġ",
        "re"
      ],
      [
        "c",
        "t"
      ],
      [
        "r",
        "o"
      ],
      [
        "e",
        "d"
      ],
      [
        "u",
        "s"
      ],
      [
        "â",
        "Ķ"
      ],
      [
        "Ġt",
        "o"
      ],
      [
        "Ġ",
        "e"
      ],
      [
        "Ġ",
        "("
      ],
      [
        "o",
        "s"
      ],
      [
        "en",
        "t"
      ],
      [
        "Ġ",
        "in"
      ],
      [
        "i",
        "c"
      ],
      [
        "Ġ",
        "n"
      ],
      [
        "t",
        "h"
      ],
      [
        "Ġ",
        "1"
      ],
      [
        "n",
        "d"
      ],
      [
        "Ċ",
        "ĠĠĠ"
      ],
      [
        "a",
        "c"
      ],
      [
        "Ġ",
        "l"
      ],
      [
        "âĶ",
        "Ģ"
      ],
      [
        "o",
        "w"
      ],
      [
        "i",
        "m"
      ],
      [
        "e",
        "t"
      ],
      [
        "e",
        "os"
      ],
      [
        "âĶĢ",
        "âĶĢ"
      ],
      [
        "v",
        "e"
      ],
      [
        "Ġc",
        "o"
      ],
      [
        "Ġ",
        "â"
      ],
      [
        "i",
        "l"
      ],
      [
        "h",
        "r"
      ],
      [
        "``",
        "`"
      ],
      [
        "i",
        "d"
      ],
      [
        "Ġ",
        "|"
      ],
      [
        "hr",
        "m"
      ],
      [
        "Ċ",
        "ĠĠĠĠ"
      ],
      [
        "a",
        "m"
      ],
      [
        "u",
        "l"
      ],
      [
        "Ġ",
        "is"
      ],
      [
        "a",
        "d"
      ],
      [
        "u",
        "t"
      ],
      [
        "Ġ",
        "-"
      ],
      [
        "Ġ",
        "o"
      ],
      [
        "Ġ",
        "st"
      ],
      [
        "Ġ",
        "2"
      ],
      [
        "Ġa",
        "nd"
      ],
      [
        "i",
        "f"
      ],
      [
        "at",
        "e"
      ],
      [
        "Ġd",
        "o"
      ],
      [
        "Ġt",
        "h"
      ],
      [
        "us",
        "er"
      ],
      [
        "at",
        "ion"
      ],
      [
        "u",
        "r"
      ],
      [
        "d",
        "e"
      ],
      [
        "Ġ",
        "`"
      ],
      [
        "i",
        "g"
      ],
      [
        "Ġ",
        "I"
      ],
      [
        "l",
        "y"
      ],
      [
        "v",
        "er"
      ],
      [
        "Ġf",
        "or"
      ],
      [
        "p",
        "p"
      ],
      [
        "e",
        "st"
      ],
      [
        "Ġ",
        "T"
      ],
      [
        "Ġ",
        "C"
      ],
      [
        "Ġ",
        "S"
      ],
      [
        "Ġâ",
        "Ģ"
      ],
      [
        "--",
        "--"
      ],
      [
        "Ġc",
        "on"
      ],
      [
        "Ġ",
        "\""
      ],
      [
        "Ġ",
        "3"
      ],
      [
        "Ġ",
        "+"
      ],
      [
        "Ġ",
        "A"
      ],
      [
        "ĠâĢ",
        "Ķ"
      ],
      [
        "q",
        "u"
      ],
      [
        "i",
        "st"
      ],
      [
        "l",
        "l"
      ],
      [
        "Ġ",
        "on"
      ],
      [
        "Ġ",
        "he"
      ],
      [
        "Ġ",
        "g"
      ],
      [
        "u",
        "n"
      ],
      [
        "e",
        "c"
      ],
      [
        "it",
        "h"
      ],
      [
        "Ċ",
        "Ġ"
      ],
      [
        "=",
        "="
      ],
      [
        "o",
        "m"
      ],
      [
        "e",
        "m"
      ],
      [
        "Ġo",
        "f"
      ],
      [
        "o",
        "t"
      ],
      [
        "s",
        "e"
      ],
      [
        "Ġ",
        "5"
      ],
      [
        "a",
        "g"
      ],
      [
        "p",
        "t"
      ],
      [
        "Ġ",
        "*"
      ],
      [
        "t",
        "er"
      ],
      [
        "u",
        "m"
      ],
      [
        ":",
        "**"
      ],
      [
        "Ġ",
        "4"
      ],
      [
        "Ġp",
        "ro"
      ],
      [
        "Ġ",
        "y"
      ],
      [
        "o",
        "l"
      ],
      [
        "o",
        "re"
      ],
      [
        "Ġ",
        "it"
      ],
      [
        "ct",
        "ion"
      ],
      [
        "a",
        "b"
      ],
      [
        "y",
        "s"
      ],
      [
        "c",
        "h"
      ],
      [
        "a",
        "ve"
      ],
      [
        "Ġ",
        "**"
      ],
      [
        "Ġh",
        "as"
      ],
      [
        "Ġ",
        "P"
      ],
      [
        "Ġh",
        "ow"
      ],
      [
        "Ġ",
        "r"
      ],
      [
        "âĶĢâĶĢ",
        "âĶĢâĶĢ"
      ],
      [
        "Ġ",
        "8"
      ],
      [
        "c",
        "e"
      ],
      [
        "c",
        "k"
      ],
      [
        "Ġa",
        "s"
      ],
      [
        "es",
        "s"
      ],
      [
        "Ġm",
        "an"
      ],
      [
        "Ġa",
        "re"
      ],
      [
        "ĠĠĠĠ",
        "ĠĠĠĠ"
      ],
      [
        "an",
        "d"
      ],
      [
        "Ġw",
        "ith"
      ],
      [
        "Ġ",
        "6"
      ],
      [
        "p",
        "l"
      ],
      [
        "in",
        "k"
      ],
      [
        "er",
        "s"
      ],
      [
        "Ġy",
        "ou"
      ],
      [
        "ĊĠĠĠĠ",
        "ĠĠĠ"
      ],
      [
        "(",
        ")"
      ],
      [
        "Ġ",
        "or"
      ],
      [
        "Ġ",
        "{"
      ],
      [
        "r",
        "i"
      ],
      [
        "Ġ",
        "R"
      ],
      [
        "Ġ",
        "v"
      ],
      [
        "Ġman",
        "y"
      ],
      [
        "Ġd",
        "e"
      ],
      [
        "ac",
        "h"
      ],
      [
        "Ġ",
        "9"
      ],
      [
        "Ġe",
        "x"
      ],
      [
        "Ġ",
        "7"
      ],
      [
        "ac",
        "k"
      ],
      [
        "p",
        "le"
      ],
      [
        "Ġh",
        "ave"
      ],
      [
        "th",
        "ink"
      ],
      [
        "Ġco",
        "m"
      ],
      [
        "0",
        "0"
      ],
      [
        "Ġs",
        "he"
      ],
      [
        "en",
        "d"
      ],
      [
        "o",
        "k"
      ],
      [
        "t",
        "e"
      ],
      [
        "Ġdo",
        "es"
      ],
      [
        "Ġn",
        "e"
      ],
      [
        "Ġ",
        "D"
      ],
      [
        "Ġ",
        "us"
      ],
      [
        "ul",
        "t"
      ],
      [
        "am",
        "e"
      ],
      [
        "an",
        "t"
      ],
      [
        "re",
        "s"
      ],
      [
        "Ġl",
        "o"
      ],
      [
        "o",
        "d"
      ],
      [
        "Ġ",
        "'"
      ],
      [
        "m",
        "ent"
      ],
      [
        "a",
        "in"
      ],
      [
        "Ġw",
        "h"
      ],
      [
        "Ġ",
        "F"
      ],
      [
        "k",
        "e"
      ],
      [
        "al",
        "l"
      ],
      [
        "Ġa",
        "pp"
      ],
      [
        "i",
        "es"
      ],
      [
        "ur",
        "n"
      ],
      [
        "p",
        "e"
      ],
      [
        ")",
        ";"
      ],
      [
        "Ġre",
        "s"
      ],
      [
        "Ġ",
        "N"
      ],
      [
        "a",
        "ct"
      ],
      [
        "y",
        "th"
      ],
      [
        "or",
        "t"
      ],
      [
        "Ġre",
        "t"
      ],
      [
        "<",
        "/"
      ],
      [
        "a",
        "y"
      ],
      [
        "r",
        "or"
      ],
      [
        "n",
        "t"
      ],
      [
        "h",
        "t"
      ],
      [
        "i",
        "le"
      ],
      [
        "/",
        "/"
      ],
      [
        "ou",
        "t"
      ],
      [
        "Ġ",
        "O"
      ],
      [
        "o",
        "st"
      ],
      [
        "ro",
        "m"
      ],
      [
        "Ġ",
        "le"
      ],
      [
        "at",
        "a"
      ],
      [
        "u",
        "e"
      ],
      [
        "Ġ",
        "#"
      ],
      [
        "a",
        "p"
      ],
      [
        "l",
        "o"
      ],
      [
        "Ġ",
        "if"
      ],
      [
        "im",
        "e"
      ],
      [
        "a",
        "il"
      ],
      [
        "Ġ",
        "user"
      ],
      [
        ".",
        "<|"
      ],
      [
        "ar",
        "s"
      ],
      [
        "Ġret",
        "urn"
      ],
      [
        "Ġa",
        "t"
      ],
      [
        "Ġb",
        "o"
      ],
      [
        "l",
        "d"
      ],
      [
        "Ġ",
        "B"
      ],
      [
        "as",
        "s"
      ],
      [
        "Ġ",
        "U"
      ],
      [
        "Y",
        "ou"
      ],
      [
        "Ġ",
        "E"
      ],
      [
        "yth",
        "on"
      ],
      [
        "p",
        "ut"
      ],
      [
        "or",
        "d"
      ],
      [
        "i",
        "r"
      ],
      [
        "'",
        "s"
      ],
      [
        "as",
        "e"
      ],
      [
        "'",
        "t"
      ],
      [
        "Ġa",
        "n"
      ],
      [
        "Ġs",
        "h"
      ],
      [
        "#",
        "#"
      ],
      [
        "ag",
        "e"
      ],
      [
        "Ġt",
        "r"
      ],
      [
        "i",
        "z"
      ],
      [
        "s",
        "er"
      ],
      [
        "Ġe",
        "ach"
      ],
      [
        "Ġs",
        "e"
      ],
      [
        "Ġ",
        "M"
      ],
      [
        "Ġb",
        "e"
      ],
      [
        "x",
        "t"
      ],
      [
        "u",
        "st"
      ],
      [
        "Ġâ",
        "Ĩ"
      ],
      [
        "f",
        "ul"
      ],
      [
        "==",
        "=="
      ],
      [
        "g",
        "e"
      ],
      [
        "Ġs",
        "p"
      ],
      [
        "i",
        "v"
      ],
      [
        "in",
        "t"
      ],
      [
        "Ġc",
        "h"
      ],
      [
        "Ġth",
        "at"
      ],
      [
        "Ġ",
        "W"
      ],
      [
        "e",
        "ct"
      ],
      [
        "Ġ",
        "}"
      ],
      [
        "u",
        "p"
      ],
      [
        "l",
        "es"
      ],
      [
        "or",
        "k"
      ],
      [
        "Ġdo",
        "ll"
      ],
      [
        "Ġn",
        "ot"
      ],
      [
        "Ġdoll",
        "ars"
      ],
      [
        "i",
        "ve"
      ],
      [
        "Ġus",
        "e"
      ],
      [
        "ar",
        "d"
      ],
      [
        "l",
        "p"
      ],
      [
        ".",
        "."
      ],
      [
        "ĠT",
        "he"
      ],
      [
        "en",
        "c"
      ],
      [
        "Ġm",
        "ore"
      ],
      [
        "u",
        "re"
      ],
      [
        "it",
        "y"
      ],
      [
        "----",
        "----"
      ],
      [
        "o",
        "de"
      ],
      [
        "ĠâĨ",
        "Ĵ"
      ],
      [
        "ab",
        "le"
      ],
      [
        "Ġas",
        "s"
      ],
      [
        "ar",
        "y"
      ],
      [
        "Ġhe",
        "lp"
      ],
      [
        "he",
        "n"
      ],
      [
        "c",
        "ri"
      ],
      [
        "er",
        "e"
      ],
      [
        "er",
        "ror"
      ],
      [
        ")",
        "."
      ],
      [
        "l",
        "m"
      ],
      [
        ")",
        ","
      ],
      [
        "Ġt",
        "est"
      ],
      [
        "f",
        "er"
      ],
      [
        "Ġ",
        "L"
      ],
      [
        "ic",
        "e"
      ],
      [
        "Ġf",
        "rom"
      ],
      [
        "in",
        "e"
      ],
      [
        "âĶĢâĶĢâĶĢâĶĢ",
        "âĶĢâĶĢâĶĢâĶĢ"
      ],
      [
        "Ġb",
        "u"
      ],
      [
        "Ġv",
        "al"
      ],
      [
        "c",
        "on"
      ],
      [
        "Ġc",
        "l"
      ],
      [
        "Ġne",
        "ed"
      ],
      [
        "c",
        "ess"
      ],
      [
        "Ġ",
        "H"
      ],
      [
        "f",
        "t"
      ],
      [
        "he",
        "ck"
      ],
      [
        "Ġ",
        "j"
      ],
      [
        "qu",
        "est"
      ],
      [
        "cri",
        "pt"
      ],
      [
        "as",
        "st"
      ],
      [
        "|>",
        "<|"
      ],
      [
        "|>",
        "<"
      ],
      [
        "ar",
        "t"
      ],
      [
        "p",
        "on"
      ],
      [
        ")",
        ":"
      ],
      [
        "ig",
        "ht"
      ],
      [
        "Ġst",
        "r"
      ],
      [
        "s",
        "ys"
      ],
      [
        "Ġhelp",
        "ful"
      ],
      [
        "ist",
        "ant"
      ],
      [
        "Ġa",
        "l"
      ],
      [
        "t",
        "r"
      ],
      [
        "Ġass",
        "istant"
      ],
      [
        "p",
        "s"
      ],
      [
        "i",
        "re"
      ],
      [
        "d",
        "d"
      ],
      [
        "i",
        "al"
      ],
      [
        "a",
        "pp"
      ],
      [
        "p",
        "ort"
      ],
      [
        "y",
        "pe"
      ],
      [
        "Ġc",
        "an"
      ],
      [
        "Ġ",
        "["
      ],
      [
        "un",
        "ction"
      ],
      [
        "u",
        "b"
      ],
      [
        "\"",
        ","
      ],
      [
        "ĠĠĠĠ",
        "ĠĠĠ"
      ],
      [
        "âĶ",
        "Ĥ"
      ],
      [
        "ou",
        "ld"
      ],
      [
        "Ġth",
        "is"
      ],
      [
        "b",
        "le"
      ],
      [
        "al",
        "ly"
      ],
      [
        "E",
        "R"
      ],
      [
        "ou",
        "nd"
      ],
      [
        "Ġ",
        "G"
      ],
      [
        "T",
        "he"
      ],
      [
        "i",
        "x"
      ],
      [
        "'",
        ","
      ],
      [
        "if",
        "ic"
      ],
      [
        "in",
        "d"
      ],
      [
        "Ġ",
        "im"
      ],
      [
        "Ġs",
        "er"
      ],
      [
        "Ġd",
        "ata"
      ],
      [
        "Ġwh",
        "at"
      ],
      [
        "Ġm",
        "e"
      ],
      [
        "as",
        "h"
      ],
      [
        "a",
        "re"
      ],
      [
        "f",
        "or"
      ],
      [
        "t",
        "o"
      ],
      [
        "=",
        "\""
      ],
      [
        "Ġle",
        "ft"
      ],
      [
        "\"",
        ")"
      ],
      [
        "d",
        "u"
      ],
      [
        "ro",
        "w"
      ],
      [
        "i",
        "e"
      ],
      [
        "(",
        "'"
      ],
      [
        "n",
        "c"
      ],
      [
        "Ġb",
        "y"
      ],
      [
        "Ġlo",
        "g"
      ],
      [
        "Ġw",
        "ork"
      ],
      [
        "a",
        "st"
      ],
      [
        "on",
        "e"
      ],
      [
        "Ġ",
        "error"
      ],
      [
        "a",
        "v"
      ],
      [
        "g",
        "et"
      ],
      [
        "ter",
        "n"
      ],
      [
        "Ġp",
        "r"
      ],
      [
        "t",
        "al"
      ],
      [
        "an",
        "s"
      ],
      [
        "Ġ1",
        "0"
      ],
      [
        "n",
        "e"
      ],
      [
        "ou",
        "nt"
      ],
      [
        "ion",
        "s"
      ],
      [
        "(",
        "\""
      ],
      [
        "a",
        "x"
      ],
      [
        "\"",
        ":"
      ],
      [
        "j",
        "s"
      ],
      [
        "Ġto",
        "tal"
      ],
      [
        "on",
        "t"
      ],
      [
        "Ġ",
        "."
      ],
      [
        "Ġyou",
        "r"
      ],
      [
        "Ġa",
        "ll"
      ],
      [
        "re",
        "ad"
      ],
      [
        "p",
        "ython"
      ],
      [
        "Ġ",
        "<"
      ],
      [
        "Ġ",
        "qu"
      ],
      [
        "c",
        "om"
      ],
      [
        "Ġcon",
        "t"
      ],
      [
        "ac",
        "e"
      ],
      [
        "ic",
        "k"
      ],
      [
        "Ġco",
        "de"
      ],
      [
        "a",
        "k"
      ],
      [
        "g",
        "r"
      ],
      [
        "em",
        "s"
      ],
      [
        "Ġh",
        "and"
      ],
      [
        "e",
        "x"
      ],
      [
        "in",
        "s"
      ],
      [
        "p",
        "er"
      ],
      [
        "Ġb",
        "ut"
      ],
      [
        "P",
        "I"
      ],
      [
        "iz",
        "e"
      ],
      [
        "Ġp",
        "er"
      ],
      [
        "Ġde",
        "f"
      ],
      [
        "f",
        "f"
      ],
      [
        "Ġon",
        "e"
      ],
      [
        "ig",
        "n"
      ],
      [
        "n",
        "ame"
      ],
      [
        "v",
        "ent"
      ],
      [
        "or",
        "y"
      ],
      [
        "Ġs",
        "et"
      ],
      [
        "v",
        "al"
      ],
      [
        "y",
        "p"
      ],
      [
        "Ġ",
        "k"
      ],
      [
        "Ġ",
        "$"
      ],
      [
        "ĠR",
        "e"
      ],
      [
        "c",
        "l"
      ],
      [
        "Ġ",
        "/"
      ],
      [
        "_",
        "_"
      ],
      [
        "ĊĠĠĠĠ",
        "ĠĠĠĠĠĠĠ"
      ],
      [
        "Ġw",
        "hen"
      ],
      [
        ".",
        "**"
      ],
      [
        "st",
        "r"
      ],
      [
        "f",
        "ile"
      ],
      [
        "Ġf",
        "unction"
      ],
      [
        "um",
        "b"
      ],
      [
        "ation",
        "s"
      ],
      [
        "Ġ",
        "0"
      ],
      [
        "at",
        "ed"
      ],
      [
        "Ġr",
        "un"
      ],
      [
        "ou",
        "g"
      ],
      [
        "Ċ",
        "ĠĠ"
      ],
      [
        "Ġ",
        "ke"
      ],
      [
        "Ġ",
        "âĶĤ"
      ],
      [
        "ow",
        "n"
      ],
      [
        "c",
        "he"
      ],
      [
        "Ġthe",
        "n"
      ],
      [
        "Ġcom",
        "m"
      ],
      [
        "e",
        "p"
      ],
      [
        "us",
        "e"
      ],
      [
        "de",
        "f"
      ],
      [
        "Ġ=",
        ">"
      ],
      [
        "l",
        "ow"
      ],
      [
        "o",
        "ck"
      ],
      [
        "id",
        "e"
      ],
      [
        "Ġt",
        "ime"
      ],
      [
        "o",
        "p"
      ],
      [
        "Ġ",
        "//"
      ],
      [
        "Ġ",
        "ver"
      ],
      [
        "Ġa",
        "dd"
      ],
      [
        "en",
        "er"
      ],
      [
        "Ġsh",
        "ould"
      ],
      [
        "Ġch",
        "an"
      ],
      [
        "Ġt",
        "im"
      ],
      [
        "ok",
        "s"
      ],
      [
        "i",
        "ent"
      ],
      [
        "l",
        "f"
      ],
      [
        "r",
        "it"
      ],
      [
        "Ġth",
        "an"
      ],
      [
        "Ġd",
        "if"
      ],
      [
        "Ġ",
        "up"
      ],
      [
        "L",
        "E"
      ],
      [
        "h",
        "is"
      ],
      [
        "te",
        "xt"
      ],
      [
        "w",
        "a"
      ],
      [
        "il",
        "l"
      ],
      [
        "r",
        "y"
      ],
      [
        "ou",
        "r"
      ],
      [
        "?",
        "<|"
      ],
      [
        "at",
        "h"
      ],
      [
        "ble",
        "m"
      ],
      [
        "y",
        "nc"
      ],
      [
        "ĠI",
        "f"
      ],
      [
        "im",
        "it"
      ],
      [
        "ult",
        "i"
      ],
      [
        "====",
        "===="
      ],
      [
        "Ġ",
        "V"
      ],
      [
        "Ġc",
        "re"
      ],
      [
        "j",
        "ect"
      ],
      [
        "**",
        ":"
      ],
      [
        "for",
        "m"
      ],
      [
        "pon",
        "se"
      ],
      [
        "at",
        "ab"
      ],
      [
        "p",
        "ro"
      ],
      [
        "Ġc",
        "heck"
      ],
      [
        "Ġ",
        "id"
      ],
      [
        "Ġ",
        "un"
      ],
      [
        "Ġco",
        "ins"
      ],
      [
        "Ġres",
        "ult"
      ],
      [
        "at",
        "ch"
      ],
      [
        "Ġsp",
        "ec"
      ],
      [
        "Ġre",
        "quest"
      ],
      [
        "Ġco",
        "l"
      ],
      [
        "Ġqu",
        "er"
      ],
      [
        "nd",
        "er"
      ],
      [
        "all",
        "s"
      ],
      [
        "Ġm",
        "in"
      ],
      [
        "Ġe",
        "m"
      ],
      [
        "t",
        "s"
      ],
      [
        "ir",
        "st"
      ],
      [
        "Ġs",
        "ec"
      ],
      [
[...]
